<pad>	0
<bos>	0
<eos>	0
<unk>	0
<start_of_turn>	0
<end_of_turn>	0
<0x00>	0
<0x01>	0
<0x02>	0
<0x03>	0
<0x04>	0
<0x05>	0
<0x06>	0
<0x07>	0
<0x08>	0
<0x09>	0
<0x0A>	0
<0x0B>	0
<0x0C>	0
<0x0D>	0
<0x0E>	0
<0x0F>	0
<0x10>	0
<0x11>	0
<0x12>	0
<0x13>	0
<0x14>	0
<0x15>	0
<0x16>	0
<0x17>	0
<0x18>	0
<0x19>	0
<0x1A>	0
<0x1B>	0
<0x1C>	0
<0x1D>	0
<0x1E>	0
<0x1F>	0
<0x20>	0
<0x21>	0
<0x22>	0
<0x23>	0
<0x24>	0
<0x25>	0
<0x26>	0
<0x27>	0
<0x28>	0
<0x29>	0
<0x2A>	0
<0x2B>	0
<0x2C>	0
<0x2D>	0
<0x2E>	0
<0x2F>	0
<0x30>	0
<0x31>	0
<0x32>	0
<0x33>	0
<0x34>	0
<0x35>	0
<0x36>	0
<0x37>	0
<0x38>	0
<0x39>	0
<0x3A>	0
<0x3B>	0
<0x3C>	0
<0x3D>	0
<0x3E>	0
<0x3F>	0
<0x40>	0
<0x41>	0
<0x42>	0
<0x43>	0
<0x44>	0
<0x45>	0
<0x46>	0
<0x47>	0
<0x48>	0
<0x49>	0
<0x4A>	0
<0x4B>	0
<0x4C>	0
<0x4D>	0
<0x4E>	0
<0x4F>	0
<0x50>	0
<0x51>	0
<0x52>	0
<0x53>	0
<0x54>	0
<0x55>	0
<0x56>	0
<0x57>	0
<0x58>	0
<0x59>	0
<0x5A>	0
<0x5B>	0
<0x5C>	0
<0x5D>	0
<0x5E>	0
<0x5F>	0
<0x60>	0
<0x61>	0
<0x62>	0
<0x63>	0
<0x64>	0
<0x65>	0
<0x66>	0
<0x67>	0
<0x68>	0
<0x69>	0
<0x6A>	0
<0x6B>	0
<0x6C>	0
<0x6D>	0
<0x6E>	0
<0x6F>	0
<0x70>	0
<0x71>	0
<0x72>	0
<0x73>	0
<0x74>	0
<0x75>	0
<0x76>	0
<0x77>	0
<0x78>	0
<0x79>	0
<0x7A>	0
<0x7B>	0
<0x7C>	0
<0x7D>	0
<0x7E>	0
<0x7F>	0
<0x80>	0
<0x81>	0
<0x82>	0
<0x83>	0
<0x84>	0
<0x85>	0
<0x86>	0
<0x87>	0
<0x88>	0
<0x89>	0
<0x8A>	0
<0x8B>	0
<0x8C>	0
<0x8D>	0
<0x8E>	0
<0x8F>	0
<0x90>	0
<0x91>	0
<0x92>	0
<0x93>	0
<0x94>	0
<0x95>	0
<0x96>	0
<0x97>	0
<0x98>	0
<0x99>	0
<0x9A>	0
<0x9B>	0
<0x9C>	0
<0x9D>	0
<0x9E>	0
<0x9F>	0
<0xA0>	0
<0xA1>	0
<0xA2>	0
<0xA3>	0
<0xA4>	0
<0xA5>	0
<0xA6>	0
<0xA7>	0
<0xA8>	0
<0xA9>	0
<0xAA>	0
<0xAB>	0
<0xAC>	0
<0xAD>	0
<0xAE>	0
<0xAF>	0
<0xB0>	0
<0xB1>	0
<0xB2>	0
<0xB3>	0
<0xB4>	0
<0xB5>	0
<0xB6>	0
<0xB7>	0
<0xB8>	0
<0xB9>	0
<0xBA>	0
<0xBB>	0
<0xBC>	0
<0xBD>	0
<0xBE>	0
<0xBF>	0
<0xC0>	0
<0xC1>	0
<0xC2>	0
<0xC3>	0
<0xC4>	0
<0xC5>	0
<0xC6>	0
<0xC7>	0
<0xC8>	0
<0xC9>	0
<0xCA>	0
<0xCB>	0
<0xCC>	0
<0xCD>	0
<0xCE>	0
<0xCF>	0
<0xD0>	0
<0xD1>	0
<0xD2>	0
<0xD3>	0
<0xD4>	0
<0xD5>	0
<0xD6>	0
<0xD7>	0
<0xD8>	0
<0xD9>	0
<0xDA>	0
<0xDB>	0
<0xDC>	0
<0xDD>	0
<0xDE>	0
<0xDF>	0
<0xE0>	0
<0xE1>	0
<0xE2>	0
<0xE3>	0
<0xE4>	0
<0xE5>	0
<0xE6>	0
<0xE7>	0
<0xE8>	0
<0xE9>	0
<0xEA>	0
<0xEB>	0
<0xEC>	0
<0xED>	0
<0xEE>	0
<0xEF>	0
<0xF0>	0
<0xF1>	0
<0xF2>	0
<0xF3>	0
<0xF4>	0
<0xF5>	0
<0xF6>	0
<0xF7>	0
<0xF8>	0
<0xF9>	0
<0xFA>	0
<0xFB>	0
<0xFC>	0
<0xFD>	0
<0xFE>	0
<0xFF>	0
▁	-2.90628
.	-3.38876
,	-4.10636
1	-4.21854
0	-4.33176
)	-4.38628
2	-4.47895
의	-4.6075
'	-4.6617
에	-4.71208
을	-4.7479
이	-4.83812
(	-4.87581
는	-4.8859
▁'	-4.89257
3	-5.06767
를	-5.1018
이름	-5.10468
가	-5.1436
은	-5.15152
5	-5.23214
▁(	-5.2605
4	-5.35191
고	-5.35487
일	-5.43149
과	-5.46136
도	-5.49769
9	-5.51947
6	-5.56289
로	-5.56596
▁수	-5.58002
7	-5.6746
8	-5.67611
▁있다	-5.73168
에서	-5.73612
와	-5.76729
으로	-5.92282
▁the	-5.93345
한	-5.93633
▁등	-5.9955
인	-6.08984
·	-6.11527
년	-6.12509
..	-6.12829
s	-6.16273
%	-6.27685
월	-6.29353
만	-6.34286
며	-6.389
▁있는	-6.40715
해	-6.44835
하는	-6.45265
-	-6.45287
하고	-6.48582
다	-6.49989
▁이	-6.50056
할	-6.50812
▁of	-6.52772
지	-6.56435
▁및	-6.59442
>	-6.60271
기	-6.63506
시	-6.66459
▁a	-6.69574
▁대한	-6.70048
했다	-6.72854
▁‘	-6.7342
▁to	-6.74155
▁것으로	-6.75758
▁and	-6.75864
▁전	-6.75948
’	-6.78054
대	-6.78212
▁밝혔다	-6.7845
▁위해	-6.78809
▁통해	-6.81534
▁한	-6.82773
"	-6.83569
명	-6.88756
▁것	-6.89283
▁말했다	-6.92372
개	-6.94526
▁=	-6.97055
▁지난	-6.97894
▁중	-6.9818
”	-6.99284
자	-7.00583
▁“	-7.01373
▁in	-7.02681
서	-7.03789
▁제	-7.10588
▁<	-7.12211
나	-7.12339
된	-7.12341
▁is	-7.14424
이라고	-7.14704
▁"	-7.15902
=	-7.16195
주	-7.17483
사	-7.20428
▁위한	-7.20857
까지	-7.21916
~	-7.22001
성	-7.22041
p	-7.23357
적	-7.24449
▁이날	-7.24588
이다	-7.24938
▁그	-7.2549
▁함께	-7.27307
원	-7.28966
▁더	-7.29852
수	-7.30116
조	-7.31254
면	-7.31339
▁기자	-7.32638
:	-7.32703
▁했다	-7.35773
▁한다	-7.36253
▁대해	-7.37509
차	-7.38916
▁등을	-7.41527
),	-7.42505
제	-7.42955
▁경우	-7.43051
상	-7.4423
장	-7.44383
화	-7.44839
리	-7.45297
▁후	-7.45445
한다	-7.46065
부	-7.47045
▁따라	-7.48056
m	-7.48467
세	-7.48544
▁\	-7.48731
라고	-7.49911
▁이번	-7.50047
?	-7.52594
회	-7.54201
에게	-7.54584
▁내	-7.54657
억	-7.54723
전	-7.55268
들이	-7.55563
동	-7.55613
진	-7.55769
에는	-7.56439
하게	-7.57362
▁따르면	-7.57384
서울	-7.58256
▁같은	-7.59008
▁이후	-7.59185
]	-7.59292
▁또	-7.59568
▁시	-7.60297
형	-7.60512
▁관련	-7.61478
하기	-7.61641
분	-7.61673
스	-7.617
비	-7.61884
▁한국	-7.63464
▁지난해	-7.63805
선	-7.64924
어	-7.65683
▁이어	-7.66045
하지	-7.66209
라	-7.68182
▁미국	-7.6847
▁때	-7.70638
▁}	-7.71096
하며	-7.71458
▁두	-7.71544
▁할	-7.71599
▁총	-7.71806
위	-7.71967
ing	-7.72139
▁서울	-7.72208
d	-7.72608
▁for	-7.72783
▁that	-7.72841
정	-7.72907
NAME	-7.74847
하여	-7.7504
▁{	-7.75084
▁가장	-7.75572
▁[	-7.75883
▁다양한	-7.76509
▁안	-7.76724
에서는	-7.77145
▁있습니다	-7.77432
산	-7.78554
▁김	-7.78604
소	-7.78811
게	-7.7944
억원	-7.80596
▁것이	-7.8097
▁올해	-7.81809
구	-7.82672
▁이상	-7.83318
당	-7.83813
야	-7.84526
용	-7.84816
해야	-7.85217
보다	-7.85443
▁다른	-7.85894
▁국내	-7.86791
ed	-7.86869
호	-7.86952
면서	-7.87029
▁지역	-7.87691
▁것은	-7.8829
/	-7.88714
▁오후	-7.88846
▁The	-7.89056
▁be	-7.8918
신	-7.89199
▁있도록	-7.89986
▁관계자는	-7.90067
▁원	-7.90227
▁▲	-7.90542
여	-7.90788
▁것이다	-7.91079
미	-7.91419
▁최근	-7.91958
▁지원	-7.92203
▁I	-7.92358
아	-7.92749
되는	-7.92953
▁약	-7.92987
▁현재	-7.93305
될	-7.93712
▁특히	-7.93774
▁큰	-7.94268
▁것을	-7.94599
됐다	-7.94882
중	-7.95001
▁하는	-7.95239
▁예정이다	-7.95337
▁중국	-7.9546
▁\(	-7.96144
▁많은	-7.96272
▁\)	-7.96276
▁it	-7.97024
▁모두	-7.97609
적인	-7.97797
▁with	-7.99175
이라며	-7.99562
▁as	-7.99844
관	-8.00318
...	-8.00873
▁뒤	-8.01118
식	-8.01713
▁대	-8.01859
▁코로나	-8.019
▁오는	-8.01936
뉴시스	-8.02355
이나	-8.02647
부터	-8.03723
▁없다	-8.0528
▁때문에	-8.05449
법	-8.05528
들은	-8.07047
경	-8.07094
think	-8.07111
▁등의	-8.07481
치	-8.08141
▁첫	-8.08501
▁한편	-8.09136
▁된다	-8.09433
▁비	-8.0954
들의	-8.10017
유	-8.10131
▁될	-8.10485
▁그는	-8.10898
%)	-8.11213
라는	-8.1125
▁are	-8.11646
▁사업	-8.11946
▁바	-8.11963
▁또한	-8.11968
▁데	-8.12206
보	-8.12287
실	-8.12574
▁정	-8.12616
우	-8.13257
▁이에	-8.13861
하면서	-8.13905
▁유	-8.14191
만원	-8.14244
입니다	-8.14522
뉴스	-8.14782
마	-8.1493
t	-8.15058
▁등이	-8.15096
▁이를	-8.15845
a	-8.15975
트	-8.16205
들을	-8.16287
적으로	-8.16717
▁모든	-8.17067
▁잘	-8.17122
재	-8.17367
문	-8.17585
▁오전	-8.17632
▁you	-8.17725
▁미	-8.17781
▁대비	-8.18872
▁가운데	-8.18931
▁최대	-8.19487
돼	-8.19551
▁없는	-8.19558
▁-	-8.19672
▁박	-8.19699
무	-8.1988
▁△	-8.2024
군	-8.2029
▁하지만	-8.20344
천	-8.20377
승	-8.20971
계	-8.21017
하면	-8.21117
▁또는	-8.21146
들	-8.21373
.</	-8.21452
에도	-8.21612
g	-8.22207
▁주요	-8.22238
오	-8.22528
▁설명했다	-8.22868
▁세계	-8.22871
권	-8.23274
점	-8.23361
▁우리	-8.2389
▁있어	-8.24083
▁주	-8.24346
▁간	-8.24599
_	-8.24903
단	-8.25124
모	-8.25273
일부터	-8.2546
배	-8.25474
▁아니라	-8.25594
▁운영	-8.25711
하	-8.2577
▁다시	-8.25917
mathrm	-8.26114
양	-8.26298
간	-8.26574
▁추가	-8.27174
안	-8.27325
▁계획이다	-8.27907
▁각	-8.2812
방	-8.28212
▁경기	-8.28357
▁교육	-8.28849
▁on	-8.29074
국	-8.29111
▁새로운	-8.29444
일까지	-8.29581
종	-8.29643
▁기업	-8.29885
▁높은	-8.30333
강	-8.30739
요	-8.3091
드	-8.31143
내	-8.31922
▁일본	-8.32051
▁경제	-8.32248
▁결과	-8.3238
영	-8.32927
▁동안	-8.33103
▁사	-8.33458
▁or	-8.33459
되고	-8.33788
합니다	-8.34336
▁투자	-8.34342
연	-8.34347
시간	-8.34424
파	-8.3444
건	-8.34489
니	-8.3466
▁다	-8.34865
▁기준	-8.35047
▁따른	-8.35277
h	-8.35319
던	-8.35919
▁오	-8.35937
명이	-8.37256
▁can	-8.37392
라며	-8.37409
▁말	-8.37467
▁직접	-8.37569
공	-8.37732
▁국가	-8.37967
▁시장	-8.37986
▁아	-8.38602
▁전국	-8.38733
석	-8.39119
타	-8.39723
▁문	-8.39725
포	-8.3994
▁대상으로	-8.40047
▁this	-8.40233
청	-8.40267
민	-8.40659
n	-8.40799
▁신	-8.40859
▁대표	-8.4137
▁【	-8.41394
ly	-8.4227
이라는	-8.42446
물	-8.42463
급	-8.42585
▁전했다	-8.42822
}	-8.4298
▁개발	-8.43036
▁초	-8.43119
금	-8.43169
▁강조했다	-8.43302
▁게	-8.4347
▁진행	-8.43874
▁해	-8.44042
▁많이	-8.44077
▁각각	-8.44235
▁당시	-8.44389
▁됐다	-8.44679
▁by	-8.44846
▁본	-8.45131
▁글로벌	-8.45363
▁앞서	-8.45416
질	-8.45787
된다	-8.4587
▁보고	-8.46007
▁등에	-8.46266
▁열린	-8.46518
▁조	-8.46535
▁was	-8.46555
▁may	-8.46564
▁양	-8.46673
▁해당	-8.47027
▁있다는	-8.47103
▁무	-8.47264
▁정부	-8.47501
개월	-8.47907
▁하고	-8.48139
▁있을	-8.48482
▁추진	-8.48646
▁사용	-8.48798
▁구	-8.49219
▁an	-8.49488
별	-8.49749
▁않은	-8.50728
약	-8.51575
▁서비스	-8.51772
▁있으며	-8.51863
분기	-8.51922
했던	-8.51981
▁기존	-8.5276
▁In	-8.52908
박	-8.52971
번	-8.53199
▁일부	-8.53687
▁세	-8.53937
▁않고	-8.54309
▁지	-8.54318
심	-8.54322
임	-8.54882
▁분	-8.55012
▁기술	-8.55135
▁해외	-8.55255
카	-8.55284
역	-8.56238
사업	-8.56535
▁이는	-8.56538
▁좋은	-8.56943
▁판매	-8.57087
증	-8.57248
▁관리	-8.57366
하였다	-8.57407
현	-8.57558
▁더욱	-8.57666
▁보인다	-8.57797
했고	-8.57966
▁부	-8.58042
▁A	-8.58301
▁없이	-8.58401
e	-8.58417
노	-8.5842
반	-8.58468
체	-8.5899
산업	-8.59357
▁발생	-8.59871
이번	-8.59976
▁재	-8.59995
b	-8.60169
그	-8.60218
▁have	-8.60319
▁있다고	-8.6043
티	-8.6095
&	-8.61691
▁서	-8.61724
층	-8.61903
감	-8.62056
▁그러나	-8.62068
데	-8.62134
▁만큼	-8.62177
▁지난달	-8.62305
c	-8.62391
병	-8.62867
▁역시	-8.62889
al	-8.63206
▁볼	-8.63245
▁장	-8.63402
엔	-8.63899
르	-8.63961
교육	-8.64177
er	-8.64477
씨는	-8.64491
▁모	-8.64557
더	-8.64562
▁그리고	-8.64703
프	-8.6477
▁올	-8.64798
생	-8.65027
▁전체	-8.65043
▁정책	-8.65145
▁의원은	-8.65178
발	-8.65213
▁당	-8.65312
씨	-8.65449
이었다	-8.65787
되어	-8.6604
디	-8.66238
▁연구	-8.66453
▁있었다	-8.66843
학	-8.66962
▁강	-8.67107
러	-8.67314
▁자신의	-8.67635
초	-8.6778
▁not	-8.68046
▁받고	-8.68223
▁we	-8.68467
▁필요한	-8.68518
관리	-8.68541
▁국회	-8.6857
지역	-8.68806
k	-8.69479
▁조사	-8.69615
▁확대	-8.69652
▁않았다	-8.69849
피	-8.70031
교	-8.70141
▁달	-8.70311
루	-8.70391
였다	-8.70474
▁어떤	-8.70608
▁'(	-8.70674
명을	-8.7072
▁하	-8.7116
▁영화	-8.71178
하다	-8.71364
▁대표는	-8.71554
두	-8.71704
▁받은	-8.71927
기업	-8.72057
시설	-8.72332
▁줄	-8.72442
】(	-8.72469
▁나	-8.72523
▁S	-8.72585
▁있고	-8.73558
▁공동	-8.736
▁등으로	-8.73667
직	-8.73962
▁연	-8.74467
▁국제	-8.74531
▁여성	-8.74898
▁크게	-8.74912
▁b	-8.74922
▁새	-8.74935
▁받았다	-8.75072
▁기간	-8.75189
▁여러	-8.75264
▁건	-8.75393
▁이런	-8.75406
▁평균	-8.75411
li	-8.75573
▁lg	-8.7627
즈	-8.76308
되지	-8.76444
▁덧붙였다	-8.76464
▁개선	-8.76479
저	-8.76592
▁알	-8.76664
▁from	-8.76858
▁계획	-8.76933
거	-8.77005
▁신규	-8.77114
집	-8.77141
`	-8.77625
▁인해	-8.77658
▁최고	-8.77901
▁시즌	-8.77906
란	-8.77924
▁대통령	-8.77995
▁선	-8.78016
▁관한	-8.78091
길	-8.78094
히	-8.78127
▁남	-8.78215
바	-8.78377
▁합니다	-8.78656
년간	-8.79278
▁생산	-8.79294
▁영향을	-8.79344
▁평가	-8.79429
▁C	-8.79639
<	-8.79739
▁만에	-8.79867
▁sk	-8.79897
코	-8.79969
항	-8.80181
%,	-8.80231
{	-8.80353
크	-8.80363
토	-8.80374
▁차	-8.80481
▁기록했다	-8.80565
창	-8.80651
▁같이	-8.80728
각	-8.80741
▁트럼프	-8.81016
▁상	-8.81357
▁물론	-8.81452
업	-8.81501
류	-8.81862
▁수출	-8.8214
▁반	-8.82266
백	-8.82394
▁동	-8.82541
▁불	-8.82787
'(	-8.82853
▁소	-8.82899
y	-8.83022
에서도	-8.83108
x	-8.83154
명의	-8.83287
▁강화	-8.83571
들에게	-8.83597
판	-8.83746
남	-8.8392
린	-8.8401
▁국민	-8.84236
▁이러한	-8.84581
▁산업	-8.8471
운	-8.84999
▁다음	-8.85018
▁중이다	-8.85168
r	-8.85261
온	-8.85267
▁나타났다	-8.85375
태	-8.85394
▁자	-8.85542
▁It	-8.85671
통	-8.85726
▁대통령은	-8.85727
▁환자	-8.86071
▁활동	-8.86126
▁계속	-8.86149
▁날	-8.86171
코로나	-8.86604
처럼	-8.86799
▁`	-8.8682
▁않는	-8.86843
!	-8.86952
▁피	-8.86983
▁부산	-8.8716
▁안전	-8.87295
하거나	-8.8733
시장	-8.87363
김	-8.87382
지만	-8.87428
행	-8.87524
▁온	-8.87664
준	-8.87704
▁배우	-8.88006
▁제품	-8.88463
불	-8.88487
▁보	-8.88503
▁중인	-8.88656
설	-8.88702
터	-8.88735
▁사회	-8.88791
▁같다	-8.89168
했지만	-8.89197
▁치료	-8.89243
지원	-8.89306
광	-8.89404
▁가능성이	-8.89509
▁속	-8.89518
▁환경	-8.89756
▁노	-8.89833
레	-8.90014
▁저	-8.90109
본	-8.90271
▁마	-8.90527
이며	-8.90767
▁at	-8.91116
▁전문	-8.91116
▁매우	-8.91176
▁참여	-8.91564
▁인천	-8.91621
▁대상	-8.91651
철	-8.91693
▁브랜드	-8.91767
▁때문이다	-8.91769
▁손	-8.91935
평	-8.92191
▁이용	-8.92473
▁문제	-8.92476
▁이미	-8.92846
▁게임	-8.93171
▁못	-8.93248
▁증가	-8.93297
▁성	-8.93467
▁통한	-8.93609
▁시작	-8.93646
매	-8.93786
▁들어	-8.93905
▁외	-8.94193
▁협력	-8.94271
등	-8.94555
▁정보	-8.94641
▁위	-8.94934
로부터	-8.95045
현지시간	-8.95181
포인트	-8.95287
하도록	-8.95558
복	-8.95561
하기로	-8.95613
네	-8.95775
▁가지	-8.96144
▁감소	-8.96215
했다고	-8.96248
▁개인	-8.96631
▁대구	-8.96633
▁공급	-8.96712
▁단	-8.96957
▁백	-8.96963
▁통합	-8.97063
근	-8.97391
▁내년	-8.97583
▁최종	-8.97597
▁c	-8.97663
▁결정	-8.97759
▁일반	-8.97791
i	-8.9782
▁열	-8.97977
▁공	-8.981
▁군	-8.98246
▁최	-8.98508
▁문화	-8.98516
▁역할을	-8.98794
▁서비스를	-8.99073
▁생활	-8.99125
▁데이터	-8.99647
▁도시	-8.99781
▁향후	-8.99829
▁선정	-8.99958
년부터	-9.00023
센터	-9.00072
▁제작	-9.00078
▁연속	-9.00092
▁어떻게	-9.00291
▁설치	-9.00453
경제	-9.00559
▁제공	-9.00669
한국	-9.00684
력	-9.00919
▁경기도	-9.00998
론	-9.01005
▁중심으로	-9.01244
▁아닌	-9.01258
▁미래	-9.01373
▁있지만	-9.01593
▁프로그램	-9.016
▁현장	-9.01624
C	-9.01645
▁공식	-9.01669
▁P	-9.01863
▁집중	-9.02103
▁과정에서	-9.02116
▁확인	-9.02184
▁된	-9.02291
in	-9.02336
▁받아	-9.02446
들과	-9.02532
▁분석	-9.02819
▁출시	-9.03104
▁학교	-9.03131
▁제주	-9.03145
▁반면	-9.03156
▁시행	-9.03333
▁광주	-9.03409
▁방문	-9.03485
▁먼저	-9.03553
려	-9.03607
했으며	-9.0369
희	-9.03803
▁공개	-9.04157
월부터	-9.04248
▁발표	-9.04284
▁다만	-9.04318
▁배	-9.04325
난	-9.04384
래	-9.04561
▁검사	-9.04775
▁경영	-9.04911
▁물	-9.04972
▁also	-9.05018
▁수도	-9.05194
열	-9.05213
▁있게	-9.05263
팀	-9.05281
▁금융	-9.05499
▁채	-9.05568
▁타	-9.05576
▁예	-9.05591
▁상승	-9.05609
▁구성	-9.05665
▁의원	-9.05668
출	-9.05731
▁기록	-9.05847
▁성장	-9.05856
▁방송	-9.05926
▁가능한	-9.06126
입	-9.06197
▁정부가	-9.06244
▁B	-9.06572
문화	-9.0668
▁만들어	-9.06776
▁앞으로	-9.06828
▁보면	-9.07024
속	-9.07069
▁거	-9.07097
▁피해	-9.07359
▁보였다	-9.07407
▁알려졌다	-9.07667
▁실제	-9.07796
f	-9.08127
▁k	-9.08508
예	-9.08511
▁지적했다	-9.08536
▁대응	-9.08562
억원을	-9.08719
▁처리	-9.08984
기를	-9.08995
▁부동산	-9.09142
위를	-9.0923
km	-9.09305
▁자동차	-9.09334
경기	-9.09841
ul	-9.09866
S	-9.09903
위원회	-9.10086
▁비해	-9.10113
▁대해서는	-9.10123
▁중요한	-9.10159
▁특별	-9.10461
▁수사	-9.10471
▁전날	-9.10504
거나	-9.1057
▁받을	-9.10592
림	-9.10615
▁which	-9.10653
표	-9.10686
▁아니다	-9.10691
▁has	-9.10711
▁대학	-9.10787
키	-9.10815
성을	-9.10815
▁구축	-9.10888
▁적극	-9.10912
하겠다	-9.11004
음	-9.11035
▁핵심	-9.11171
순	-9.11208
▁지급	-9.11375
A	-9.11841
▁삼	-9.1214
절	-9.12204
▁되는	-9.123
▁업무	-9.12311
▁This	-9.12313
▁will	-9.12317
량	-9.12405
지는	-9.12419
▁번째	-9.12425
후	-9.12545
▁인한	-9.12584
패	-9.12687
▁갖고	-9.12737
re	-9.12888
편	-9.12912
▁관련해	-9.13044
▁조성	-9.13095
▁모습을	-9.13113
▁가능하다	-9.13167
▁발전	-9.13283
달	-9.13375
외	-9.13436
겠다	-9.13461
%),	-9.13523
▁지정	-9.13568
▁위반	-9.13671
금융	-9.13703
명으로	-9.13942
▁어	-9.14053
▁사회적	-9.14313
▁산	-9.14348
▁정도	-9.14398
▁정부는	-9.14604
▁개최	-9.1475
목	-9.14771
서비스	-9.14877
기술	-9.15124
령	-9.15125
▁사건	-9.15215
▁각종	-9.15269
함	-9.15297
▁경	-9.15332
▁우선	-9.1542
▁혁신	-9.1548
▁인사	-9.15603
투	-9.15656
▁선발	-9.15699
탄	-9.15943
액	-9.16047
▁were	-9.16172
색	-9.16243
▁your	-9.16249
었다	-9.16372
▁인상	-9.16383
▁거쳐	-9.16572
▁시간	-9.16633
▁번	-9.16809
처	-9.16902
▁모바일	-9.16966
▁우	-9.1716
▁하루	-9.17168
▁사업을	-9.17223
추	-9.17231
대로	-9.17273
▁만나	-9.17411
_{	-9.17739
▁혐의로	-9.17762
▁대전	-9.17788
▁처음	-9.17831
▁도입	-9.17858
▁사고	-9.17907
▁바로	-9.1791
▁그런	-9.17968
▁준비	-9.18198
+	-9.1831
되면	-9.18513
▁적용	-9.18643
▁이와	-9.18658
▁고객	-9.18668
▁전망이다	-9.187
▁문제가	-9.18784
습니다	-9.18811
or	-9.18825
▁거래	-9.18847
▁않을	-9.18927
▁이전	-9.18946
락	-9.1902
▁매	-9.19153
▁비롯해	-9.19345
▁활용	-9.1935
▁정보를	-9.19561
립	-9.19646
하지만	-9.19703
▁구매	-9.19787
는데	-9.19873
업체	-9.1988
▁가족	-9.19947
▁지방	-9.19963
▁전북	-9.19966
▁대통령이	-9.19988
했습니다	-9.20028
한다는	-9.20037
봉	-9.20172
▁두고	-9.20554
▁에너지	-9.20772
▁행사	-9.20783
한다고	-9.20813
▁방	-9.20983
▁북한	-9.21078
▁주택	-9.21081
▁선택	-9.21089
▁바란다	-9.21166
▁전년	-9.2121
병원	-9.21224
▁아직	-9.21595
▁영상	-9.2165
D	-9.21652
암	-9.21743
환	-9.2178
망	-9.21816
곡	-9.21822
▁영국	-9.21907
▁유지	-9.21978
▁삼성	-9.22
▁지속	-9.22
▁주장했다	-9.22007
ation	-9.22055
또	-9.22162
▁회사	-9.22203
es	-9.22214
▁결과를	-9.224
▁예상	-9.22427
▁건설	-9.22772
▁결국	-9.22844
▁앞두고	-9.22874
▁생각	-9.22919
▁매출	-9.22934
o	-9.23025
▁상황	-9.23058
▁하락	-9.23061
▁심	-9.23119
▁너무	-9.23185
▁그룹	-9.23228
▁정부의	-9.23318
결	-9.23396
자가	-9.23421
▁일자리	-9.23481
되면서	-9.23581
정책	-9.23704
▁디지털	-9.23725
정보	-9.23779
이어	-9.23895
▁리	-9.24245
와의	-9.24342
▁보다	-9.24373
▁전환	-9.24384
▁T	-9.24428
▁발	-9.24473
▁so	-9.24613
▁행정	-9.24622
▁소속	-9.24701
살	-9.24719
▁분야	-9.2479
▁청년	-9.24878
학교	-9.25093
▁청와대	-9.25278
채	-9.25306
개발	-9.25355
▁동시에	-9.25365
▁임	-9.2539
▁것도	-9.25459
하던	-9.25599
v	-9.25624
▁하나	-9.25852
▁계약	-9.26102
개의	-9.26299
l	-9.26364
▁플랫폼	-9.26384
▁현	-9.26471
▁확산	-9.26521
말	-9.26536
▁포	-9.26582
▁측은	-9.26602
되었다	-9.26639
▁윤	-9.26783
▁창업	-9.26976
▁감염	-9.2706
▁변경	-9.27081
▁것이라고	-9.27091
▁논의	-9.27103
▁아파트	-9.27119
기관	-9.27222
▁◇	-9.27307
▁가격	-9.27398
ic	-9.27458
▁규제	-9.27499
▁M	-9.27745
▁자체	-9.27761
▁시설	-9.27938
';	-9.28017
▁유럽	-9.28097
▁이렇게	-9.28113
해서	-9.28122
▁실시	-9.28554
▁예산	-9.28668
▁구조	-9.28797
달러	-9.2888
P	-9.29009
투자	-9.2907
▁re	-9.29101
장은	-9.2913
▁연기	-9.29372
mm	-9.29378
▁콘텐츠	-9.29561
▁가지고	-9.29721
▁어려운	-9.29766
▁관계	-9.29797
되며	-9.29807
▁도움이	-9.30139
▁네	-9.30212
▁따라서	-9.30496
송	-9.30556
▁상품	-9.30859
▁조직	-9.30894
너	-9.31179
▁방침이다	-9.31262
▁문제를	-9.31436
▁활성화	-9.31523
▁못했다	-9.31705
장을	-9.31854
료	-9.31863
▁진	-9.3187
▁이제	-9.31884
▁체험	-9.31947
▁선거	-9.31972
기도	-9.32076
품	-9.32089
▁예정	-9.3209
작	-9.32413
▁점	-9.32665
▁사진	-9.32847
▁회복	-9.32847
▁보호	-9.32991
▁불법	-9.33105
▁사실	-9.33141
종합	-9.33314
▁정치	-9.33571
으로부터	-9.33711
범	-9.33767
▁의견을	-9.33804
G	-9.33813
▁사전	-9.33885
▁수입	-9.33931
▁필요하다	-9.3394
▁울산	-9.34118
랑	-9.34155
▁의료	-9.34155
▁찾아	-9.34177
▁교수	-9.34188
▁러시아	-9.34226
단체	-9.34254
▁such	-9.34287
▁지속적으로	-9.34309
▁카	-9.34315
▁시스템	-9.34336
▁신청	-9.34382
점을	-9.34433
▁않는다	-9.3447
▁민간	-9.34517
▁허	-9.3457
▁사람	-9.34643
▁황	-9.34659
▁않다	-9.34661
은행	-9.34741
씨가	-9.34747
▁사람이	-9.34856
▁몇	-9.35008
B	-9.35076
율	-9.35096
▁달리	-9.35173
▁드라마	-9.35198
▁그동안	-9.3526
▁외국인	-9.35316
▁법률	-9.35374
왕	-9.354
▁오른	-9.35475
▁한다는	-9.35673
▁설계	-9.35822
그룹	-9.35832
▁개정	-9.35868
▁파	-9.35933
▁팀	-9.36004
▁법	-9.36012
단계	-9.36042
▁예상된다	-9.36078
평가	-9.36226
버	-9.36251
▁내용을	-9.36395
▁채용	-9.36467
▁어느	-9.36521
▁충북	-9.36532
▁G	-9.36552
▁there	-9.36587
▁은행	-9.36818
브	-9.36855
▁신고	-9.36929
▁검토	-9.36975
년까지	-9.37041
▁상황에서	-9.37078
자는	-9.37141
▁장관	-9.37207
▁홍보	-9.37236
덕	-9.37288
▁인터넷	-9.37338
▁의해	-9.37411
▁규모	-9.37484
▁시민	-9.37485
과의	-9.37592
▁소재	-9.37604
▁이동	-9.37677
▁백신	-9.37699
▁but	-9.37802
▁바탕으로	-9.37869
▁학생	-9.37997
▁We	-9.38027
으며	-9.38096
대표	-9.38155
▁할인	-9.38196
▁입장을	-9.38226
▁확진자	-9.3824
><	-9.38319
▁마지막	-9.38332
▁성공	-9.38352
▁one	-9.38384
▁이달	-9.38486
▁대통령의	-9.38517
▁기본	-9.38542
▁other	-9.38609
▁후보	-9.38619
이자	-9.38795
▁공공	-9.38884
향	-9.38966
▁차량	-9.38972
▁D	-9.39052
▁점을	-9.39107
le	-9.39336
▁R	-9.39378
막	-9.39388
▁특정	-9.39412
▁대형	-9.39416
▁회장	-9.39577
▁경찰	-9.39757
▁현지	-9.39767
▁마련	-9.39883
링	-9.40009
;	-9.40018
▁가진	-9.40188
▁방안을	-9.40193
▁입	-9.40262
환경	-9.40264
▁AAA	-9.40309
▁확보	-9.40321
▁활동을	-9.40459
하기도	-9.40483
우리	-9.40573
▁연장	-9.40603
▁변	-9.40617
*	-9.40782
안전	-9.40869
▁금	-9.40925
▁투여	-9.40951
▁포함	-9.4102
▁호	-9.41111
▁지금	-9.41118
만원을	-9.41168
▁고용	-9.41248
익	-9.41249
▁반대	-9.41322
▁하지	-9.41361
▁있기	-9.41473
주의	-9.41548
▁주민	-9.41589
▁kt	-9.41595
▁종합	-9.41685
▁중소기업	-9.41713
▁못한	-9.41734
▁코	-9.41889
▁난	-9.41968
▁오늘	-9.4204
조사	-9.42117
▁지원을	-9.42123
까	-9.422
로서	-9.42335
이하	-9.42354
▁맞아	-9.42358
가지	-9.42499
[	-9.42597
도록	-9.4267
▁민주당	-9.42675
▁영	-9.42693
tv	-9.42709
▁변화	-9.42732
북	-9.42875
▁달러	-9.42926
▁편	-9.42958
손	-9.42999
▁열고	-9.43098
▁our	-9.43157
en	-9.43172
▁송	-9.43247
▁필요	-9.43484
지를	-9.43676
▁규모의	-9.43721
mg	-9.43789
▁나왔다	-9.43828
▁전략	-9.44036
▁관광	-9.44053
▁기반	-9.44131
▁검찰	-9.44312
▁없었다	-9.44437
▁낮	-9.44477
▁중단	-9.44546
▁f	-9.4455
▁장관은	-9.44574
규	-9.44875
▁하면	-9.44912
▁F	-9.45026
도시	-9.45115
든	-9.45136
▁감	-9.45232
▁*	-9.45251
져	-9.45333
담	-9.45364
▁more	-9.45455
▁g	-9.45527
▁감사	-9.45896
한편	-9.46003
▁관심을	-9.46191
억원으로	-9.46206
▁발생한	-9.46217
▁내부	-9.46221
▁대신	-9.46281
▁음악	-9.46283
▁설	-9.46284
▁대출	-9.46326
▁';	-9.46328
▁과거	-9.46546
▁선수	-9.46625
'...	-9.46628
▁m	-9.46636
가구	-9.46671
▁예방	-9.46722
▁e	-9.46778
▁중앙	-9.47076
염	-9.47077
▁받는	-9.47237
▁있는데	-9.47334
▁여	-9.47341
...'	-9.47345
훈	-9.47495
▁이들	-9.47609
left	-9.47612
골	-9.47798
▁조정	-9.47855
▁더불어민주당	-9.47941
▁독일	-9.48106
▁좀	-9.48188
▁제한	-9.48192
악	-9.48468
▁스	-9.48492
▁설립	-9.48555
▁제조	-9.48559
▁do	-9.48642
▁공유	-9.48729
M	-9.48759
▁신종	-9.48809
▁아이	-9.4881
▁if	-9.48853
▁스마트폰	-9.48898
▁우수	-9.49
워	-9.49
▁살	-9.49051
변	-9.49115
▁아시아	-9.49204
▁이야기	-9.49226
세대	-9.49253
▁H	-9.49259
삼	-9.49267
▁걸	-9.49297
곳	-9.4942
▁집	-9.49421
▁위해서는	-9.49568
▁E	-9.49594
언	-9.49639
right	-9.49718
▁실	-9.49734
▁교통	-9.49762
on	-9.49764
▁외부	-9.4977
▁여전히	-9.49862
▁밤	-9.49886
이고	-9.49953
▁N	-9.50033
w	-9.50052
스타	-9.50163
▁유통	-9.50214
하는데	-9.50241
▁교수는	-9.50249
리그	-9.50255
▁미국의	-9.50274
▁감염증	-9.50289
공사	-9.50313
▁전달	-9.50387
계획	-9.50483
날	-9.50489
▁요구	-9.50572
▁확장	-9.50581
▁제대로	-9.50611
▁측정	-9.50628
▁수도권	-9.50656
▁인수	-9.50738
▁서울시	-9.50745
격	-9.50756
▁낮은	-9.50776
폭	-9.50885
▁매년	-9.50952
▁건강	-9.5102
▁최선을	-9.51048
인데	-9.51086
▁포함한	-9.51101
▁L	-9.51128
▁생각한다	-9.51129
▁기대	-9.51157
풍	-9.51258
츠	-9.51398
▁정상	-9.51419
술	-9.51423
▁발표했다	-9.51469
th	-9.5166
▁촬영	-9.51709
▁비롯한	-9.51713
▁운동	-9.51732
▁롯데	-9.51827
▁홍	-9.51841
월까지	-9.51848
▁확정	-9.51857
▁아울러	-9.51887
▁디자인	-9.51889
▁been	-9.51966
▁완화	-9.52187
▁확인할	-9.52212
위에	-9.52246
▁관심이	-9.52249
▁제품을	-9.52274
▁time	-9.52288
▁청소년	-9.52391
▁소비	-9.52413
축	-9.52437
▁어린이	-9.5245
▁이벤트	-9.52505
▁스마트	-9.52657
▁양성	-9.52759
▁재정	-9.5286
▁여행	-9.52862
▁토	-9.52931
▁시험	-9.52938
▁수행	-9.52957
숙	-9.52978
▁학습	-9.53015
에선	-9.53051
▁연결	-9.53069
▁기관	-9.53111
▁등록	-9.5313
▁n	-9.53162
▁감독	-9.53202
▁all	-9.53216
별로	-9.53258
▁해야	-9.53362
퍼	-9.53375
▁전기	-9.53377
총	-9.534
▁기준으로	-9.53505
▁방역	-9.53629
▁친	-9.53695
it	-9.53714
▁first	-9.53768
▁추	-9.53845
▁업체	-9.53913
▁알고	-9.53913
▁천	-9.53935
사회	-9.53944
▁프로젝트	-9.54047
대학교	-9.5413
새	-9.54162
▁쉽게	-9.54169
위원장	-9.54211
했을	-9.54403
▁제공한다	-9.54451
시스템	-9.54484
▁올랐다	-9.54524
▁의한	-9.54539
협회	-9.54573
▁r	-9.5469
▁실적	-9.54707
이라	-9.54817
권을	-9.54884
▁기술을	-9.55002
▁없어	-9.55018
▁시도	-9.55048
대학	-9.55062
▁일정	-9.55144
졌다	-9.55175
▁전자	-9.55182
울	-9.5535
▁통과	-9.55364
▁나온다	-9.55394
▁애	-9.55499
▁영업	-9.55544
▁진출	-9.55604
▁시간을	-9.55607
▁청	-9.55744
▁경쟁	-9.55822
▁d	-9.55831
▁단체	-9.55853
▁긴급	-9.55874
▁광	-9.55889
▁주식	-9.55905
기간	-9.55917
L	-9.55959
건설	-9.55959
</	-9.56004
▁부담	-9.56029
▁기능	-9.56055
▁진단	-9.56064
▁프랑스	-9.5613
V	-9.56145
대상	-9.56213
▁like	-9.563
▁공무원	-9.56366
▁대부분	-9.56406
▁표현	-9.56503
▁사실을	-9.56613
▁상대로	-9.5665
▁일이	-9.56683
▁사용할	-9.56735
▁공격	-9.5688
정부	-9.56886
▁반도체	-9.56999
▁대회	-9.5701
▁수술	-9.57022
▁힘을	-9.57035
국민	-9.57117
택	-9.57139
▁방식으로	-9.5714
▁추천	-9.57157
▁코로나바이러스	-9.5718
ion	-9.57226
▁현대	-9.5727
▁길	-9.57325
▁왔다	-9.57353
▁그러면서	-9.5749
▁상태	-9.57513
하자	-9.57542
H	-9.57588
애	-9.57701
▁제공하는	-9.57727
▁인도	-9.57767
회사	-9.57857
▁사랑	-9.57864
▁직원	-9.57868
▁점검	-9.57889
▁전남	-9.579
▁가입	-9.57992
▁소비자	-9.58024
시켜	-9.58068
▁about	-9.58089
▁이들은	-9.58143
함으로써	-9.58151
▁□	-9.58156
u	-9.5822
▁않아	-9.58269
▁육성	-9.58342
▁공연	-9.58439
▁이같이	-9.5858
▁제안	-9.5868
▁뿐	-9.5874
▁합의	-9.58792
윤	-9.58847
상을	-9.59062
블	-9.59084
빈	-9.59117
▁주변	-9.59214
▁나섰다	-9.59359
▁자기	-9.59425
탈	-9.59445
ro	-9.59449
▁책임	-9.59465
▁통	-9.5949
K	-9.59558
릴	-9.59646
▁사이	-9.59674
갑	-9.59786
j	-9.59847
했으나	-9.59898
지난	-9.5995
검사	-9.60022
중국	-9.60193
특히	-9.6021
스트	-9.60213
▁최초로	-9.60303
▁정말	-9.60381
▁것이라는	-9.60517
들도	-9.60527
▁인식	-9.60561
▁전문가	-9.60683
▁그래서	-9.60686
기준	-9.60699
▁판단	-9.6074
▁우려	-9.60753
▁감독은	-9.60789
▁서로	-9.60814
T	-9.60819
▁가수	-9.6091
명은	-9.60939
▁취업	-9.60964
▁갈	-9.61006
▁보안	-9.61032
▁상대	-9.61139
테	-9.6124
▁팔	-9.61281
▁방송된	-9.61391
이날	-9.6154
N	-9.61619
▁민	-9.61677
▁○	-9.61701
▁전망	-9.61723
▁시간이	-9.61872
극	-9.61878
▁/	-9.61992
▁남자	-9.62002
메	-9.62105
▁건물	-9.62178
▁열리는	-9.62191
▁기회를	-9.62247
▁것입니다	-9.62378
▁K	-9.62543
주택	-9.62559
▁관련된	-9.62736
▁설명	-9.62743
▁만든	-9.6278
책	-9.62794
▁상반기	-9.62846
▁회장은	-9.63111
회의	-9.63134
▁발표한	-9.63162
록	-9.63229
▁증가했다	-9.63256
▁tv	-9.63486
▁사망	-9.63768
▁처음으로	-9.63825
▁통신	-9.63853
성이	-9.63888
자의	-9.6394
▁상황을	-9.63977
▁대화	-9.64009
】	-9.64147
▁작성	-9.64178
▁대규모	-9.64209
자를	-9.64211
▁그림	-9.64233
▁나갈	-9.64319
황	-9.64467
ity	-9.645
▁모집	-9.64523
▁수립	-9.64543
▁보장	-9.64583
▁전력	-9.64589
조원	-9.64595
▁복지	-9.64637
▁인근	-9.64643
▁자연	-9.64701
제도	-9.64744
▁앞	-9.64751
홍	-9.64768
▁필요가	-9.64883
으로서	-9.6494
▁금지	-9.64951
▁체결	-9.64976
▁앱	-9.64979
▁인증	-9.64999
▁당부했다	-9.65084
▁광고	-9.65134
▁가정	-9.65142
▁암	-9.65197
▁심사	-9.6524
▁스스로	-9.65275
올	-9.65299
▁인정	-9.65354
충	-9.65492
▁마케팅	-9.65553
▁것에	-9.65728
▁피부	-9.6589
▁남성	-9.65909
▁상기	-9.65945
▁한다고	-9.65958
▁여자	-9.6605
▁위험	-9.66138
▁이하	-9.66166
볼	-9.66186
▁있던	-9.66197
▁작업	-9.662
협	-9.66272
▁t	-9.6629
대회	-9.66299
id	-9.66328
▁만들	-9.66331
▁우리나라	-9.66337
▁요청	-9.66385
us	-9.66449
▁요	-9.66484
▁no	-9.66505
하겠다는	-9.66548
주는	-9.66575
활동	-9.66745
▁조치	-9.66775
▁인기	-9.66916
▁도로	-9.66941
▁우리는	-9.6707
▁정도로	-9.6713
▁많다	-9.67178
▁취소	-9.67185
▁초기	-9.67256
▁근무	-9.6726
줄	-9.67522
▁맞춰	-9.67559
▁왜	-9.67614
지구	-9.67649
▁진행한다	-9.67715
▁그대로	-9.67728
거리	-9.67912
▁그의	-9.67914
▁through	-9.6795
현재	-9.68003
▁전시	-9.68029
이란	-9.68123
▁부분	-9.68159
합	-9.68223
▁실제로	-9.68229
▁발굴	-9.68301
▁효과를	-9.68336
▁위기	-9.68339
▁제출	-9.68437
보험	-9.68518
션	-9.68548
▁누적	-9.68712
▁등은	-9.68725
▁형성	-9.68773
▁돼	-9.68797
▁제도	-9.68859
▁배치	-9.68888
▁반드시	-9.69072
마다	-9.69258
시민	-9.69266
▁경남	-9.69271
▁:	-9.69296
▁보수	-9.69311
▁설정	-9.69337
▁위치한	-9.69353
▁연간	-9.69404
커	-9.69532
▁조선	-9.69679
▁used	-9.6986
▁증가한	-9.69924
▁마무리	-9.69961
▁these	-9.69985
▁기획	-9.7002
갈	-9.70023
씨의	-9.70045
▁북	-9.7008
필	-9.70082
∼	-9.70098
년에	-9.70113
▁해결	-9.70161
본부	-9.70217
카드	-9.70287
▁than	-9.70337
들에	-9.70408
▁유치	-9.70414
▁사장	-9.70715
독	-9.70829
▁마을	-9.70834
▁모델	-9.71033
▁장애인	-9.71068
▁의사	-9.71078
▁걸쳐	-9.71138
▁기타	-9.71313
균	-9.71396
▁시작으로	-9.7142
▁미세먼지	-9.71451
▁되고	-9.71479
▁사실상	-9.7152
▁when	-9.71564
▁안내	-9.71566
▁업계	-9.71583
시키는	-9.71697
▁치	-9.71729
▁오픈	-9.71732
▁주로	-9.71756
▁주문	-9.71777
▁직	-9.71839
대를	-9.71841
▁이야기를	-9.71854
▁기능을	-9.71855
▁BBB	-9.71889
ment	-9.71916
▁가능	-9.71963
▁눈	-9.71998
▁they	-9.72031
▁도전	-9.72057
톤	-9.721
▁접수	-9.72208
▁인구	-9.72276
찬	-9.72326
국가	-9.72335
알	-9.72337
▁맞는	-9.72585
▁강원	-9.72596
발전	-9.72617
▁시작했다	-9.72624
족	-9.72736
▁폐	-9.72746
▁입장	-9.72786
▁출신	-9.72855
▁화	-9.72857
▁작은	-9.72865
▁보이고	-9.729
▁their	-9.72909
▁공모	-9.72913
▁못하고	-9.72941
친	-9.72958
▁h	-9.73026
▁보내	-9.73068
▁새누리당	-9.73071
▁진행된다	-9.73139
▁성과	-9.73146
▁역사	-9.73186
거래	-9.73308
▁남북	-9.73391
cm	-9.73539
▁주제로	-9.7354
밀	-9.73545
분야	-9.73552
미국	-9.73553
▁의원이	-9.73703
함을	-9.73728
완	-9.73803
번째	-9.73814
▁참가	-9.7382
▁^	-9.73842
▁역	-9.73856
▁should	-9.73856
▁me	-9.73901
▁매각	-9.73944
▁디	-9.73949
▁달라	-9.7395
▁예측	-9.74065
▁경험	-9.7408
▁즉	-9.74112
▁인력	-9.74159
사를	-9.74234
▁목표	-9.74247
▁의미	-9.74256
▁표시	-9.74351
▁대책	-9.74427
▁선물	-9.7444
▁여부를	-9.74452
▁교체	-9.74473
▁확진	-9.74534
▁허용	-9.74657
혁신	-9.7474
▁왕	-9.75059
씩	-9.75065
생활	-9.75134
▁기초	-9.75179
개국	-9.75285
▁병원	-9.75371
▁상담	-9.75377
방송	-9.75465
▁시장은	-9.75499
▁대선	-9.75582
▁거의	-9.75609
▁보도했다	-9.75623
촌	-9.7575
▁언론	-9.75756
▁넘어	-9.75781
▁적극적으로	-9.75821
▁de	-9.7589
▁등이다	-9.75924
이지만	-9.75935
▁원하는	-9.75986
▁기업의	-9.76076
▁베트남	-9.76169
▁늘었다	-9.76239
▁범죄	-9.76266
도로	-9.76269
최근	-9.76342
▁훈련	-9.76348
▁지자체	-9.76366
▁피해자	-9.76409
력을	-9.76414
▁공간	-9.76479
협력	-9.76486
▁동기	-9.7649
▁담	-9.76527
▁프로그램을	-9.76537
▁자금	-9.76539
▁종	-9.76543
ive	-9.76582
▁use	-9.76597
돌	-9.76682
▁순	-9.76683
▁비용	-9.76686
▁자리	-9.76705
성과	-9.76783
전자	-9.76843
caption	-9.7698
▁식	-9.77013
▁목	-9.77038
▁참	-9.77128
뿐만	-9.77147
▁희망	-9.77264
아이	-9.77267
▁아동	-9.77291
F	-9.77305
▁것과	-9.77428
▁발견	-9.77586
▁전에	-9.77979
▁기념	-9.78037
취	-9.78052
▁수요	-9.78057
▁결제	-9.78068
▁장기	-9.78074
▁data	-9.78148
경영	-9.78156
▁아니	-9.78186
▁홈페이지	-9.78197
▁추가로	-9.78299
▁전주	-9.78301
▁성과를	-9.78302
▁우리가	-9.78334
▁노력	-9.78373
▁이용해	-9.78403
지방	-9.78422
▁부문	-9.78437
기가	-9.78519
▁between	-9.78554
해왔다	-9.78579
▁좋다	-9.78598
베	-9.78629
▁제가	-9.78715
시는	-9.7889
왔다	-9.7889
▁채널	-9.78898
▁승리	-9.79047
▁조치를	-9.79103
▁담당	-9.79142
그는	-9.79158
▁활용해	-9.79247
▁내가	-9.7925
업계	-9.79254
▁가구	-9.79259
▁종료	-9.79444
긴	-9.79469
슨	-9.79514
ar	-9.79546
▁소개	-9.79548
▁소득	-9.79578
▁혐의	-9.79651
▁맞춤형	-9.79669
▁발행	-9.79691
▁말을	-9.79763
▁삼성전자	-9.79764
▁효과가	-9.79785
마을	-9.79794
▁충남	-9.8005
▁상황이	-9.80137
▁부과	-9.80171
▁중심	-9.80301
▁빠르게	-9.80341
▁출연	-9.80349
되기	-9.80395
올해	-9.80398
▁So	-9.80413
몰	-9.80432
▁방안	-9.80441
▁캐릭터	-9.80638
전략	-9.80733
▁방법	-9.80744
있는	-9.80787
▁분양	-9.80831
R	-9.80846
▁저희	-9.8087
ine	-9.80895
▁혐의를	-9.80939
▁되어	-9.80944
▁스포츠	-9.80971
▁않도록	-9.81022
▁사상	-9.81038
▁저는	-9.81082
kg	-9.81157
▁ai	-9.81165
▁자유	-9.81209
련	-9.81303
▁농업	-9.81308
옥	-9.8132
▁국회의원	-9.81358
▁수준	-9.81409
▁상호	-9.81434
▁사람은	-9.81438
▁위치	-9.81453
서를	-9.81548
협의회	-9.81616
▁고려	-9.81659
▁수상	-9.81811
▁밝힌	-9.81814
▁회의	-9.81816
ll	-9.81934
원으로	-9.81974
원에	-9.81982
▁보는	-9.82008
▁kbs	-9.82011
)’	-9.82061
이닝	-9.82073
▁즐길	-9.82106
▁주는	-9.82117
▁교	-9.82151
개를	-9.82165
▁임상	-9.82244
▁징역	-9.82263
냐	-9.82316
▁친환경	-9.82431
▁활용한	-9.82448
▁who	-9.82508
▁불구하고	-9.82632
▁경찰은	-9.82675
▁있어서	-9.82747
▁최소	-9.82752
▁도내	-9.82805
운영	-9.82889
받은	-9.82932
▁w	-9.83055
▁경우에는	-9.8307
▁쓰	-9.83098
학과	-9.83133
▁나온	-9.83141
버스	-9.83174
▁study	-9.83209
▁귀	-9.83233
원을	-9.83234
▁수밖에	-9.83273
▁어려움을	-9.83277
▁작품	-9.83344
했다는	-9.83368
▁단지	-9.83374
▁식품	-9.83438
시부터	-9.83517
폐	-9.83555
▁사람들이	-9.83561
▁의심	-9.83619
▁싶다	-9.83661
▁전면	-9.83673
▁신설	-9.83754
▁#	-9.83766
▁i	-9.83785
측	-9.83869
▁의혹	-9.83895
▁my	-9.83902
▁레	-9.83924
공원	-9.83929
▁보험	-9.83973
▁자료	-9.84034
▁바이오	-9.84059
▁이행	-9.84187
체계	-9.84245
▁연계	-9.84272
▁노력을	-9.84324
▁만드는	-9.84356
▁다음달	-9.84364
▁patients	-9.84377
▁기대한다	-9.84406
대전	-9.84425
지도	-9.8446
▁전화	-9.84562
▁앨범	-9.84625
▁과정을	-9.84665
▁담은	-9.84704
▁무역	-9.84738
▁기반으로	-9.84797
▁몸	-9.84809
▁빠른	-9.84811
농	-9.84858
▁전용	-9.84971
▁회원	-9.84976
했는데	-9.84985
▁마음을	-9.84987
행정	-9.85046
▁포함해	-9.85064
▁사용자	-9.85084
▁등에서	-9.85135
▁ᄋ	-9.85157
▁조기	-9.85217
▁네이버	-9.85223
▁온라인	-9.85319
▁And	-9.85386
시킬	-9.85409
뿐	-9.85463
▁사례	-9.85541
▁공개했다	-9.85564
례	-9.8557
보다는	-9.85593
사가	-9.85614
▁여기에	-9.85658
ate	-9.85678
펀드	-9.85731
▁대해서도	-9.85735
▁투입	-9.85737
구조	-9.85783
▁들	-9.85815
▁새롭게	-9.859
▁도움을	-9.85955
▁점에서	-9.85968
플	-9.85972
▁우려가	-9.85983
▁내린	-9.85994
▁접종	-9.86035
▁mbc	-9.86061
코리아	-9.86078
기로	-9.86103
▁나머지	-9.86115
위는	-9.86279
ers	-9.863
장이	-9.86365
▁수원	-9.86387
able	-9.86415
처리	-9.86469
자로	-9.86496
▁상장	-9.86504
▁국민의	-9.86509
▁높다	-9.86538
▁평화	-9.8666
▁모습이	-9.86685
▁사용하여	-9.86713
▁청구	-9.86717
▁전통	-9.8672
▁데이터를	-9.86721
▁협의	-9.86787
→	-9.86797
▁나라	-9.868
▁규정	-9.8681
▁정당	-9.86846
앤	-9.86874
▁분야에서	-9.86892
▁열어	-9.86893
▁목표로	-9.87008
▁없다는	-9.87013
▁강한	-9.87034
▁비상	-9.87063
▁system	-9.87065
▁카드	-9.87096
▁다소	-9.87105
▁시장에서	-9.87128
▁라	-9.87171
▁가능성을	-9.87196
’,	-9.87279
만명	-9.87326
케	-9.87384
판매	-9.8739
▁참석	-9.87529
▁무료	-9.87532
▁피해를	-9.87579
O	-9.8762
▁오히려	-9.87758
존	-9.87766
기에	-9.87777
▁홈	-9.87819
▁협상	-9.8782
습	-9.87904
연구원	-9.87923
효	-9.87969
▁소통	-9.87976
▁공장	-9.87993
▁중요하다	-9.87998
헌	-9.88002
돈	-9.88012
▁계산	-9.8808
연구	-9.88106
ᆞ	-9.88252
▁집행	-9.88303
▁금리	-9.88329
▁매장	-9.8833
▁인하	-9.88334
▁나서	-9.88382
▁축제	-9.88433
▁최고의	-9.88471
▁권	-9.88501
▁사용하는	-9.8857
국제	-9.88692
▁방법을	-9.88698
▁홍콩	-9.88713
▁노인	-9.88732
▁전해졌다	-9.88795
제를	-9.88816
▁분류	-9.88834
▁그린	-9.88883
▁information	-9.88883
▁구현	-9.88903
▁부족	-9.88907
\	-9.88948
제품	-9.89086
▁위원장은	-9.89087
법인	-9.89127
▁결혼	-9.89159
▁대체	-9.89191
대책	-9.89193
▁화재	-9.89202
하려는	-9.89216
▁다음과	-9.89225
▁맞	-9.89229
W	-9.89247
▁병	-9.89304
▁겸	-9.89338
▁예약	-9.89388
▁행동	-9.89416
됐고	-9.89417
다는	-9.89485
▁안에	-9.89528
▁조금	-9.89567
위원	-9.89576
운동	-9.89608
▁연구원은	-9.8966
▁V	-9.89754
▁상황이다	-9.89764
▁최초	-9.89792
▁일을	-9.89857
▁스타트업	-9.89888
▁한번	-9.89907
페	-9.89912
▁준	-9.89932
ad	-9.89951
▁역대	-9.89969
▁만들기	-9.89983
▁지역의	-9.89985
▁선고	-9.90024
▁공사	-9.90041
벌	-9.90076
▁비판	-9.90079
하라	-9.90101
▁충분히	-9.90117
쪽	-9.90239
▁품질	-9.90305
지고	-9.90333
▁구속	-9.90428
일간	-9.90498
▁창출	-9.90523
▁제주도	-9.90543
▁되	-9.90638
▁차례	-9.90662
▁풀	-9.90682
▁아침	-9.90682
▁v	-9.90715
화를	-9.90718
▁프로	-9.90727
▁투표	-9.90745
▁주장	-9.90781
▁two	-9.90784
하겠다고	-9.90807
▁재개	-9.90863
▁평가를	-9.91296
▁핵	-9.91355
▁정비	-9.91374
▁달성	-9.91445
▁호텔	-9.91476
▁이용한	-9.91498
▁조사를	-9.91615
사는	-9.91616
▁더불어	-9.91639
도를	-9.91659
▁장치	-9.91662
▁반응을	-9.91702
▁펀드	-9.91745
▁입력	-9.91749
전문	-9.91754
싱	-9.91842
▁좋아	-9.91856
▁정확한	-9.91862
▁단계	-9.91898
▁연출	-9.91936
▁측	-9.91982
사고	-9.91999
쳐	-9.92004
▁대변인은	-9.92022
▁대기업	-9.92029
▁신호	-9.92086
▁작년	-9.92087
▁발생할	-9.92129
킹	-9.92194
▁제기	-9.92197
▁마스크	-9.92261
▁비즈니스	-9.9227
▁직후	-9.92309
▁접근	-9.92315
엘	-9.92352
▁판결	-9.9245
▁의견	-9.92478
▁제거	-9.925
▁데뷔	-9.92512
▁공정	-9.92533
▁기대된다	-9.92536
▁자신이	-9.92594
E	-9.92626
혜	-9.92655
	-9.92657
▁into	-9.92685
계약	-9.92705
▁꾸준히	-9.92705
▁자리를	-9.9277
찰	-9.92789
ur	-9.9279
▁하반기	-9.92798
▁전혀	-9.9284
▁등과	-9.9288
움	-9.92882
관광	-9.929
▁자산	-9.92982
▁공시했다	-9.93145
▁계획을	-9.93151
▁프리미엄	-9.93157
▁실행	-9.93202
▁바이러스	-9.93212
▁시는	-9.93331
률	-9.93331
▁투	-9.93369
▁only	-9.93386
▁내려	-9.93392
▁악화	-9.93417
▁개편	-9.93443
기는	-9.93532
▁이번에	-9.93568
▁구성된	-9.93608
▁후보는	-9.9361
▁가치	-9.93673
글	-9.93696
▁관	-9.93709
am	-9.93715
▁한반도	-9.93791
세계	-9.93799
▁스타	-9.93811
▁죽	-9.93843
▁예술	-9.93847
▁차단	-9.93859
▁현실	-9.93867
▁혜택을	-9.93936
억달러	-9.93987
▁있으므로	-9.94063
▁극	-9.94079
구역	-9.94113
▁원내대표는	-9.94132
▁지분	-9.94132
▁나는	-9.94155
▁놓고	-9.9417
▁질환	-9.94188
없이	-9.94239
식품	-9.94265
▁If	-9.94281
▁토지	-9.94318
▁아래	-9.94434
▁생성	-9.94436
z	-9.94449
▁보유	-9.94547
▁음성	-9.94563
▁넘는	-9.94581
단지	-9.94594
▁기억	-9.94637
▁확진자가	-9.94662
▁사이에	-9.94671
▁▶	-9.94735
▁벌	-9.94824
▁발생했다	-9.94826
▁특수	-9.94893
쿠	-9.94907
▁자유한국당	-9.9493
경찰	-9.94949
▁승인	-9.94958
관계	-9.94965
▁복합	-9.94983
▁환자의	-9.95066
▁축소	-9.95082
▁임금	-9.95258
▁골	-9.95337
%(	-9.9536
▁노래	-9.95379
부문	-9.95525
상품	-9.95546
▁응원	-9.95556
▁당초	-9.95614
▁이름을	-9.95615
▁강력한	-9.95618
▁이해	-9.95642
라면	-9.95688
▁꼭	-9.95704
▁대기	-9.95726
으면	-9.95842
보호	-9.95893
▁집단	-9.95907
감독	-9.95926
▁정의	-9.95927
▁공공기관	-9.95958
일에는	-9.95983
▁비교	-9.96033
▁상태다	-9.96041
▁지금까지	-9.96075
앞으로도	-9.96259
▁변호사	-9.96286
▁우승	-9.96305
▁완료	-9.9633
▁국립	-9.96348
▁뉴욕	-9.96367
▁실험	-9.96458
수사	-9.96489
▁시리즈	-9.96506
ter	-9.96515
▁경북	-9.96534
하세요	-9.96641
▁판	-9.96646
▁어렵다	-9.96798
▁방문해	-9.96812
▁high	-9.96863
▁저장	-9.96941
▲	-9.97015
▁sns	-9.97065
인천	-9.97133
▁중국의	-9.97158
▁반응	-9.97161
▁부여	-9.97205
▁올렸다	-9.97262
▁이같은	-9.97276
명이다	-9.97283
▁음식	-9.97287
팅	-9.97299
▁두산	-9.97301
▁인권	-9.97331
됩니다	-9.97345
▁이용할	-9.97397
▁과제	-9.97407
▁마쳤다	-9.97429
▁해소	-9.97433
▁대표가	-9.97446
였던	-9.97468
섭	-9.97495
▁참석한	-9.97529
▁지원하는	-9.97533
▁커	-9.97609
▁복귀	-9.97673
▁적극적인	-9.97725
▁순간	-9.97725
▁고민	-9.97853
▁인공지능	-9.97857
쇼	-9.9791
금리	-9.97921
▁some	-9.97934
착	-9.97938
▁답했다	-9.97978
행사	-9.9801
▁속에서	-9.98056
▁소상공인	-9.98082
▁시스템을	-9.98085
▁국	-9.98092
ent	-9.98097
▁네트워크	-9.98098
머	-9.98155
▁장비	-9.98162
▁위하여	-9.98162
대통령	-9.98182
▁분리	-9.98193
▁절반	-9.98219
▁out	-9.98228
▁판정을	-9.98252
▁실천	-9.983
벨	-9.98344
탁	-9.98451
▁기부	-9.98488
▁차지했다	-9.98498
▁없을	-9.98541
▁그렇게	-9.98696
▁행사를	-9.98749
▁해석	-9.98787
▁지지	-9.98824
사의	-9.98846
연구소	-9.98866
공장	-9.98914
렌	-9.98917
씨를	-9.98926
to	-9.98969
이메일	-9.98985
▁would	-9.98999
▁개별	-9.99041
▁축구	-9.99104
혈	-9.9913
▁발생하는	-9.99138
▁종목	-9.99161
런	-9.99207
▁건축	-9.99211
자원	-9.99235
개선	-9.99295
▁제공할	-9.99301
▁구체적인	-9.99319
▁질	-9.99328
▁즉시	-9.99334
▁using	-9.99351
대가	-9.99416
▁있는지	-9.9942
et	-9.99461
▁건립	-9.99477
▁제외한	-9.99481
▁진행된	-9.99482
ol	-9.99506
▁청주	-9.99551
▁생	-9.99559
▁코스피	-9.99572
▁정책을	-9.99578
▁내용	-9.99599
▁올림픽	-9.99603
▁고려해	-9.99615
age	-9.99621
▁친구	-9.99623
군은	-9.99661
▁복	-9.99683
▁형사	-9.99697
▁해양	-9.99711
▁걱정	-9.99749
척	-9.99753
▁관계자	-9.99823
▁키	-9.99851
▁운영하는	-9.99918
▁눈길을	-9.99957
게임	-9.99983
▁여름	-9.9999
시험	-10.0002
▁올라	-10.0003
▁시절	-10.0003
▁성인	-10.0004
견	-10.0004
▁돈	-10.0009
▁특별한	-10.0028
▁있지	-10.0029
▁경기를	-10.0033
▁As	-10.0044
▁약물	-10.0046
에게는	-10.0049
의원	-10.005
▁경우가	-10.0053
▁되면	-10.0053
▁향상	-10.0057
▁본다	-10.0065
렸다	-10.0067
▁product	-10.0069
▁국회에서	-10.0079
▁+	-10.008
빙	-10.0083
년대	-10.0084
」	-10.0084
▁표준	-10.0085
▁사과	-10.0085
▁법인	-10.0086
▁돌	-10.0086
▁가치를	-10.0087
임을	-10.0089
▁지적	-10.009
▁책임을	-10.0094
▁하겠다	-10.0096
▁폐지	-10.0096
▁관찰	-10.0098
▁계약을	-10.0103
▁해서	-10.0103
베이	-10.0105
▁상황에	-10.0109
침	-10.0112
▁여야	-10.0116
▁시장에	-10.0116
▁파악	-10.0117
▁이유	-10.0123
▁후반	-10.0133
비용	-10.0137
▁검사를	-10.0137
▁부진	-10.014
문제	-10.0142
▁항	-10.0142
▁up	-10.0143
▁관련한	-10.0144
읍	-10.0145
제주	-10.0145
▁존재	-10.0149
is	-10.0151
자금	-10.0156
▁메	-10.0156
▁위해서	-10.0164
죠	-10.0171
▁진입	-10.0186
▁논란이	-10.0192
▁지연	-10.0192
▁받지	-10.0193
▁마음	-10.0197
억원의	-10.0198
▁내에서	-10.0199
▁기업이	-10.0203
▁개혁	-10.0206
▁함	-10.0206
▁망	-10.0208
복지	-10.0212
▁뿐만	-10.0218
▁배터리	-10.022
▁출범	-10.0221
▁치료를	-10.0222
▁new	-10.0224
▁자세한	-10.0225
>(	-10.0226
시켰다	-10.0228
축제	-10.0234
▁태	-10.0237
▁{\	-10.0238
시즌	-10.0239
수를	-10.0241
기구	-10.0243
식을	-10.0246
른	-10.0251
▁나선다	-10.0253
환자	-10.0256
▁출전	-10.0259
▁강원도	-10.0259
el	-10.0263
▁집계됐다	-10.0265
▁제재	-10.0265
비를	-10.0265
▁보이는	-10.0266
▁|	-10.0268
면서도	-10.0272
▁노동	-10.0272
▁kb	-10.0273
▁뜻을	-10.0275
ia	-10.0279
)·(	-10.0283
▁진행했다	-10.0284
▁국민의당	-10.0291
▁향해	-10.0298
나는	-10.0309
▁때는	-10.0311
▁받는다	-10.0314
감을	-10.0316
▁제외	-10.0325
▁검찰은	-10.033
▁case	-10.0331
▁배출	-10.0349
▁변화를	-10.0353
▁반복	-10.0364
장관	-10.0369
▁여부	-10.0372
▁cj	-10.0373
▁보여	-10.0376
▁크다	-10.0377
▁경쟁력	-10.0379
▁실현	-10.0384
▁이유는	-10.0391
▁예능	-10.0392
▁원내대표	-10.0395
행위	-10.0402
인지	-10.0404
하고자	-10.0414
▁딸	-10.0416
년도	-10.0417
▁부품	-10.0428
▁누구나	-10.0431
▁허가	-10.0434
▁없다고	-10.0434
▁증상	-10.0443
개소	-10.0445
▁질문에	-10.0447
통신	-10.045
▁보상	-10.0456
st	-10.0457
U	-10.0459
▁지원한다	-10.046
에너지	-10.0462
▁인프라	-10.0468
▁한화	-10.0471
▁선임	-10.0473
▁문제는	-10.0473
지수	-10.0481
▁막	-10.0482
▁그런데	-10.0483
▁교사	-10.0493
▁의장	-10.0499
▁농	-10.05
▁가동	-10.0504
▁행	-10.0509
▁매입	-10.0511
년생	-10.0513
▁내용은	-10.0514
▁지속적인	-10.0514
▁풍	-10.0517
▁경험을	-10.0519
▁패션	-10.0519
광주	-10.0534
▁현재까지	-10.0546
바이오	-10.0547
맨	-10.055
▁반영	-10.0552
▁차원에서	-10.0558
▁적	-10.0561
▁after	-10.0563
▁FFF	-10.0563
▁검증	-10.0567
▁제시	-10.0575
원은	-10.0585
부산	-10.0586
▁해도	-10.0588
as	-10.0591
만원으로	-10.0591
▁돈을	-10.0597
▁sbs	-10.0599
▁기회	-10.0599
▁나선	-10.06
▁갖춘	-10.0603
▁수용	-10.0604
칭	-10.0605
▁예비	-10.0607
ha	-10.061
▁지도	-10.0612
▁</	-10.0615
▁육	-10.0617
▁중간	-10.0617
▁폭	-10.062
▁하며	-10.0626
▁내에	-10.0627
▁company	-10.0634
▁현장에서	-10.0643
낸	-10.0652
▁감소했다	-10.0654
사항	-10.0671
▁근로자	-10.0673
겠다는	-10.0673
▁because	-10.0681
▁향	-10.0683
▁한국의	-10.0684
▁찾는	-10.0689
▁사실이	-10.069
▁국내외	-10.0691
귀	-10.0694
▁수준으로	-10.0699
▁미치는	-10.0709
▁셈이다	-10.0711
▁책	-10.0712
▁비판했다	-10.0713
일본	-10.0717
▁얼마나	-10.073
▁제공하고	-10.0734
▁주말	-10.0739
누	-10.0739
im	-10.0742
▁평	-10.0743
선거	-10.0746
세를	-10.0749
▁때문	-10.0751
▁늘어난	-10.0755
았다	-10.0758
▁언급	-10.0762
▁구글	-10.0763
▁동의	-10.0767
▁접	-10.078
▁없고	-10.0786
재단	-10.0791
▁운행	-10.0797
▁곳이	-10.0798
\_	-10.0802
▁시장의	-10.0804
▁범	-10.0804
▁대폭	-10.0804
▁노력하겠다	-10.0805
▁다하겠다	-10.0809
▁제정	-10.0809
대구	-10.0812
▁로봇	-10.0813
년에는	-10.0814
▁인간	-10.0819
se	-10.082
만달러	-10.082
검	-10.0822
▁싶은	-10.0823
▁절차	-10.0826
▁보유한	-10.0828
▁입주	-10.0829
▁거리	-10.0834
소득	-10.0836
▁새로	-10.0838
▁보완	-10.0844
▁include	-10.0853
▁총리는	-10.0854
젠	-10.0855
‘	-10.0856
▁위협	-10.086
웨이	-10.0863
▁클라우드	-10.0865
▁확인됐다	-10.0874
안을	-10.0875
▁지나	-10.0875
적이고	-10.0879
▁중요	-10.089
녀	-10.0893
▁소프트웨어	-10.0897
님	-10.0897
ve	-10.0898
▁x	-10.0901
자동차	-10.0904
▁끝에	-10.0908
▁높이	-10.091
▁베	-10.0911
▁정치적	-10.0923
▁대법원	-10.0925
▁대하여	-10.0937
▁its	-10.0942
▁studies	-10.0943
q	-10.0947
▁미리	-10.0949
▁very	-10.0957
▁한국당	-10.0958
라도	-10.0965
▁미디어	-10.0965
최	-10.097
an	-10.0976
▁필	-10.0981
▁출력	-10.099
▁내용이	-10.0995
▁캠페인	-10.0999
▁듯	-10.0999
▁버	-10.1002
보고	-10.1003
▁However	-10.1005
▁수집	-10.1006
춘	-10.1007
▁거듭	-10.1008
▁추정	-10.1008
시까지	-10.1012
▁W	-10.1016
▁분석했다	-10.1017
▁패	-10.1019
▁착용	-10.1026
▁진행하고	-10.1035
▁총선	-10.1039
▁행복	-10.1043
▁법무부	-10.1048
압	-10.105
▁아들	-10.1057
주년	-10.1061
흥	-10.1064
▁농가	-10.1071
▁보기	-10.1076
▁창	-10.1079
▁선박	-10.1083
▁들어가	-10.1083
▁업종	-10.1086
차례	-10.1093
▁세포	-10.1095
▁빨리	-10.1097
▁상대적으로	-10.11
▁표	-10.1103
▁북한의	-10.1106
▁수준의	-10.1109
▁얘기	-10.1116
▁간의	-10.1117
▁직무	-10.1129
▁못하는	-10.113
▁보도	-10.113
▁외에도	-10.1135
▁운용	-10.1142
▁기록한	-10.1142
국회	-10.1144
▁인기를	-10.1144
▁차이가	-10.1145
▁우수한	-10.1146
▁동물	-10.1149
시키고	-10.1151
이기	-10.1151
▁보관	-10.1152
▁합	-10.1157
▁부인	-10.1166
▁울	-10.117
▁each	-10.1181
▁취임	-10.1182
▁AI	-10.1187
▁유명	-10.1187
▁이란	-10.1189
리는	-10.1199
▁버스	-10.1199
▁속에	-10.12
▁채권	-10.1202
▁선언	-10.1207
▁any	-10.1209
▁이중	-10.121
▁결	-10.1216
▁수주	-10.1217
자산	-10.122
▁지역사회	-10.1235
혼	-10.1236
▁검색	-10.1241
▁양국	-10.1243
at	-10.1246
▁밖에	-10.1246
▁수정	-10.1249
선을	-10.1249
▁분위기	-10.1249
오늘	-10.1254
▁앞에서	-10.1255
증권	-10.126
▁J	-10.1262
▁진행할	-10.1264
▁조절	-10.1266
▁법적	-10.1266
혁	-10.1271
▁시작한	-10.1274
▁자주	-10.1275
▁미만	-10.1292
▁있었던	-10.1294
슬	-10.1297
▁상승했다	-10.13
월에	-10.1301
▁많아	-10.1301
▁j	-10.131
▁시각	-10.1316
▁O	-10.1325
▁전기차	-10.1328
▁야	-10.1332
▁un	-10.1332
▁사장은	-10.1333
▁상품을	-10.1334
▁길이	-10.1335
I	-10.1343
▁통화	-10.1344
키로	-10.1344
▁사업자	-10.1351
죄	-10.1351
▁출발	-10.1352
▁전개	-10.1362
▁카페	-10.1363
▁과정	-10.1372
▁열린다	-10.1373
▁유튜브	-10.1378
▁수는	-10.1379
▁지역에	-10.138
▁별	-10.1385
▁통계	-10.1393
가격	-10.1396
▁전쟁	-10.1397
▁준수	-10.14
▁명의	-10.1402
▁범위	-10.1404
▁방지	-10.1411
▁적절한	-10.1413
▁석	-10.1416
▁호주	-10.1419
앞으로	-10.1433
▁뇌	-10.1436
▁주고	-10.1436
학년	-10.1436
▁북미	-10.1438
▁세대	-10.1439
▁독	-10.1443
▁적이	-10.1444
▁사태	-10.1448
▁제어	-10.1454
▁pro	-10.1467
X	-10.147
▁사진을	-10.1473
▁처벌	-10.1478
▁꽃	-10.1479
▁지하	-10.1479
등급	-10.1483
▁소송	-10.1485
▁l	-10.149
▁사업에	-10.1498
▁얼굴	-10.1507
▁You	-10.1509
▁참석했다	-10.1511
▁수요가	-10.1511
▁되지	-10.1512
그러나	-10.1516
치는	-10.1516
궁	-10.153
▁팬	-10.1538
장비	-10.1549
▁결과가	-10.1551
객	-10.1554
예산	-10.1556
▁하나의	-10.1559
▁활약	-10.1564
▁중에	-10.1573
화학	-10.1584
▁For	-10.1585
▁잠	-10.1585
콘	-10.159
▁매일	-10.1603
▁루	-10.1607
▁실무	-10.1607
▁전망했다	-10.1607
▁평가했다	-10.1611
▁자리에서	-10.1621
▁카메라	-10.1623
▁둔	-10.1624
만큼	-10.1628
전을	-10.1632
▁장애	-10.1636
▁형태로	-10.1637
지수는	-10.1642
▁완전히	-10.1643
데이	-10.1647
값	-10.1652
서는	-10.1654
▁가는	-10.1654
▁의회	-10.1659
▁유입	-10.166
▁단독	-10.1661
▁가량	-10.1664
▁젊은	-10.1665
▁treatment	-10.167
과학	-10.1671
▁실패	-10.1674
가족	-10.1676
te	-10.1677
▁지역에서	-10.1678
ip	-10.1681
학생	-10.1687
되었습니다	-10.1689
▁시기	-10.1689
▁폐쇄	-10.1694
▁재난	-10.17
▁논란	-10.1701
▁대통령과	-10.1713
▁마감	-10.1713
함에	-10.1717
▁하는데	-10.172
▁쉽지	-10.1721
▁힘	-10.1723
▁영어	-10.1727
▁수석	-10.1729
틀	-10.173
▁설명이다	-10.1731
위로	-10.1731
▁특	-10.1734
▁곧	-10.1736
▁second	-10.1736
▁참여한	-10.1741
▁복용	-10.1743
▁밀	-10.1747
▁거부	-10.1749
지난해	-10.175
▁시대	-10.1751
▁독립	-10.1753
여명이	-10.1764
▁돌파	-10.1764
조직	-10.1766
장애	-10.1767
▁추석	-10.1769
▁재산	-10.1769
▁임명	-10.177
▁구간	-10.1773
▁투수	-10.1774
돼야	-10.1778
의료	-10.1789
앞서	-10.1795
un	-10.1796
▁것처럼	-10.1801
슈	-10.1802
▁악	-10.1802
▁용	-10.1806
▁멤버	-10.1807
▁투자를	-10.1808
▁노선	-10.1813
여성	-10.1813
▁most	-10.1814
폰	-10.1818
명에	-10.1821
▁강남	-10.1824
▁U	-10.1827
▁보급	-10.1831
▁낙	-10.1835
▁위원	-10.1837
▁확진자는	-10.184
됐던	-10.1844
▁유도	-10.1845
▁구입	-10.1846
스는	-10.1846
걸	-10.1851
▁안정	-10.1852
▁수익	-10.1855
▁항공	-10.1856
라운드	-10.1863
▁통제	-10.1868
▁경찰에	-10.1869
▁최저	-10.1873
▁노출	-10.1876
▁시청	-10.1878
▁need	-10.1881
▁해제	-10.1882
▁본격적인	-10.1886
▁계기로	-10.1886
▁부처	-10.1887
참	-10.1889
▁일상	-10.1891
회장	-10.1893
대출	-10.1894
▁우리의	-10.1901
▁방향	-10.1903
▁않으면	-10.1904
사랑	-10.1905
▁진행됐다	-10.1907
▁외교	-10.1909
▁절차를	-10.1913
받아	-10.1914
탕	-10.1914
ary	-10.1918
▁초과	-10.1922
▁플레이	-10.1924
▁카카오	-10.1924
어요	-10.1927
▁상승한	-10.1929
ir	-10.1937
▁경제적	-10.1943
▁사업은	-10.1945
시킨	-10.1945
▁관심	-10.1948
▁민원	-10.1948
▁주거	-10.1948
공간	-10.1951
>\(	-10.1953
▁항상	-10.1953
▁조사됐다	-10.1953
쉬	-10.1954
▁구분	-10.1956
징	-10.1958
▁총리	-10.1958
스포츠	-10.1961
수는	-10.1963
스터	-10.1965
up	-10.1966
▁신경	-10.1967
▁공개된	-10.1969
체험	-10.1976
▁만족	-10.1976
▁비슷한	-10.1978
▁목적	-10.1979
▁주가	-10.198
▁불러	-10.1982
육	-10.1985
▁시장을	-10.1989
▁임직원	-10.1992
관련	-10.1992
주간	-10.1995
▁하락했다	-10.1995
분석	-10.2005
치료	-10.201
▁품목	-10.2016
ci	-10.2023
ant	-10.2025
꽃	-10.2027
▁행위	-10.2031
▁영상을	-10.2036
▁이상의	-10.204
한국시간	-10.2042
랜	-10.2044
수가	-10.2049
▁교육을	-10.2051
▁work	-10.2054
▁법안	-10.2054
잡	-10.2057
▁매수	-10.2057
▁봄	-10.2065
▁하이	-10.2066
▁봉	-10.2069
▁군사	-10.2069
▁교류	-10.207
▁역량	-10.2074
사업을	-10.2079
▁감정	-10.2088
▁중심의	-10.2089
▁나와	-10.2089
심사	-10.2089
법을	-10.209
▁됩니다	-10.2093
▁현금	-10.2099
▁편성	-10.2099
▁많았다	-10.2104
▁계	-10.2105
▁수가	-10.2108
▁증상이	-10.2108
▁조작	-10.2109
▁증시	-10.2112
▁약은	-10.2115
▁인재	-10.2117
▁의무	-10.2121
ated	-10.2125
▁이내	-10.2131
▁기존의	-10.2132
▁좋겠다	-10.2132
▁격리	-10.2134
▁입원	-10.2137
▁대표적인	-10.2147
▁가격이	-10.2149
원의	-10.215
▁아내	-10.2151
있다	-10.2154
생산	-10.2155
제약	-10.2157
름	-10.2158
▁초청	-10.216
▁동일한	-10.2162
▁심각한	-10.2163
▁하락한	-10.2171
▁&	-10.2174
칠	-10.2176
원이	-10.2177
진다	-10.2181
▁역량을	-10.2182
▁유엔	-10.219
다가	-10.2191
리스	-10.2193
▁대만	-10.2197
▁세종	-10.2198
}\	-10.2199
▁늘	-10.2202
▁운전	-10.2207
프로	-10.2208
▁패키지	-10.2208
울산	-10.2211
▁때까지	-10.2216
▁세월호	-10.2218
▁웃음을	-10.2219
▁겪고	-10.2223
▁자동	-10.2226
▁구단	-10.2236
업무	-10.2237
▁내렸다	-10.2241
▁낸	-10.2245
▁병용	-10.2252
▁over	-10.2254
랜드	-10.2257
▁마감했다	-10.2261
▁process	-10.2263
사건	-10.2265
▁different	-10.2269
▁접촉	-10.227
▁심의	-10.227
▁추진하고	-10.2277
제가	-10.2277
▁결정했다	-10.2277
▁처	-10.2281
ai	-10.2282
▁지구	-10.2295
▁사건을	-10.2298
▁신임	-10.2301
▁제조업	-10.2303
▁사람의	-10.2305
ri	-10.2307
▁투자자	-10.2309
력이	-10.2312
테크	-10.2313
?'	-10.2315
상의	-10.2319
하려면	-10.2319
▁감독이	-10.2326
▁안보	-10.2331
▁us	-10.2333
▁목소리를	-10.2333
▁지표	-10.2339
▁불안	-10.2341
▁등도	-10.2343
이었던	-10.2344
▁업무를	-10.2345
삼성	-10.2345
▁경계	-10.2346
결과	-10.2348
▁유출	-10.2351
lo	-10.236
▁답	-10.2367
세종	-10.2367
▁협업	-10.2371
▁재판	-10.2372
분께	-10.2373
▁모아	-10.2373
▁나타냈다	-10.2374
▁주목	-10.2376
▁원인	-10.2377
▁중증	-10.238
▁디스플레이	-10.2382
▁촉구했다	-10.2382
▁컴퓨터	-10.2386
▁후보자	-10.2392
▁영업이익	-10.2395
질환	-10.24
▁활성화를	-10.2401
ap	-10.2404
▁co	-10.241
▁what	-10.2411
▁소속사	-10.2412
▁나오는	-10.2413
▁부상	-10.2419
▁There	-10.2422
frac	-10.2423
국내	-10.2423
▁자료를	-10.2434
▁라인	-10.2437
했기	-10.2438
허	-10.2439
▁관계를	-10.2442
▁결합	-10.2446
▁커피	-10.2449
▁number	-10.2449
▁점이	-10.2458
▁높였다	-10.2464
▁만들었다	-10.247
▁con	-10.2476
▁후원	-10.2477
▁직업	-10.2477
▁목적으로	-10.248
ase	-10.2485
통합	-10.2487
글로벌	-10.2491
▁대표이사	-10.2492
▁혹은	-10.2494
▁특허	-10.2495
▁달하는	-10.2501
▁발사	-10.2503
▁수준을	-10.2504
▁device	-10.2508
▁위험이	-10.2508
턴	-10.2511
▁세부	-10.2512
▁잡	-10.2516
▁부담을	-10.2519
▁확충	-10.2521
▁부정	-10.2528
▁질병	-10.2529
먼	-10.2531
▁이어질	-10.2534
▁절대	-10.254
모델	-10.2541
정치	-10.2546
▁주제	-10.2549
▁이벤트를	-10.255
세포	-10.2553
op	-10.2555
▁않습니다	-10.2556
▁he	-10.2558
▁나눠	-10.2563
▁언제	-10.2564
▁가까운	-10.2565
▁취득	-10.2574
▁작업을	-10.2575
▁실시간	-10.2577
▁무대	-10.2578
▁강조	-10.2583
▁가졌다	-10.2587
▁완	-10.2598
▁채택	-10.2599
▁안전한	-10.2602
ac	-10.2603
▁참여하는	-10.2605
▁것이란	-10.2606
▁환자는	-10.2607
납	-10.2607
▁지원할	-10.2608
▁주력	-10.2609
만의	-10.2614
▁개설	-10.2617
▁알려져	-10.2617
▁둘	-10.2619
▁협력을	-10.2627
▁상당	-10.2628
▁알려	-10.2638
▁연휴	-10.264
▁운영하고	-10.2641
상담	-10.2644
▁due	-10.2648
▁갈등	-10.2651
min	-10.2654
▁이용하여	-10.2654
▁영향으로	-10.2665
▁성장을	-10.2666
▁경쟁력을	-10.2667
한다면	-10.2668
▁탈	-10.2668
▁가격은	-10.2669
다만	-10.2674
▁증거	-10.2674
인력	-10.2676
▁외국	-10.2681
셀	-10.2689
범죄	-10.2691
규제	-10.2691
낼	-10.2694
▁담긴	-10.2696
mo	-10.2696
▁언어	-10.2697
▁따	-10.2698
▁고발	-10.2701
▁이용자	-10.2718
기능	-10.2719
▁기회가	-10.272
▁여당	-10.2722
▁본격	-10.2728
▁risk	-10.2742
▁them	-10.2746
▁여러분	-10.2747
▁예를	-10.2754
▁수사를	-10.2754
실적	-10.2756
la	-10.2761
▁완성	-10.2761
받을	-10.2761
▁결정을	-10.2765
▁임신	-10.2766
웅	-10.2767
시티	-10.2769
▁right	-10.2772
▁해당하는	-10.2772
▁추적	-10.2776
▁뉴	-10.2777
▁저녁	-10.2777
힐	-10.278
▁정신	-10.2784
▁처분	-10.2785
▁잘못	-10.2786
▁타고	-10.279
홀	-10.2791
▁전송	-10.2791
▁속도	-10.2795
▁개발한	-10.2795
▁대중	-10.2797
▁well	-10.2801
▁나타날	-10.2805
▁훨씬	-10.2809
조치	-10.281
▁내고	-10.2814
▁근거	-10.2816
▁영역	-10.2816
▁과학	-10.2817
▁정권	-10.2819
팔	-10.2822
▁정리	-10.2828
겨	-10.283
▁마친	-10.2838
▁임시	-10.2839
▁현대차	-10.2843
▁내용의	-10.285
▁기계	-10.285
▁효과	-10.2851
▁환	-10.2852
▁공항	-10.2852
▁치료제	-10.2859
▁출마	-10.2861
▁다수	-10.2862
텍	-10.2864
one	-10.2865
▁상생	-10.2866
▁수업	-10.2872
▁초반	-10.2877
▁피고	-10.2878
▁see	-10.2879
▁대사	-10.2882
▁철도	-10.2884
▁선보였다	-10.2885
▁kbo	-10.2888
▁콘텐츠를	-10.2891
▁도널드	-10.2892
여행	-10.2894
▁휴	-10.2896
▁present	-10.2897
▁전반	-10.2902
건강	-10.2908
▁나올	-10.2911
▁기여	-10.2912
▁밝혀	-10.2913
공항	-10.2914
물을	-10.2916
차량	-10.2917
▁제품은	-10.2923
▁그간	-10.2923
▁보니	-10.2932
▁헤	-10.2933
▁various	-10.2934
전북	-10.2945
▁뜻	-10.2949
▁먹	-10.2949
▁꿈	-10.2956
리스트	-10.2958
세기	-10.2959
▁발급	-10.2962
▁높아	-10.2962
선수	-10.2962
▁자극	-10.2962
▁조합	-10.2963
▁솔루션	-10.2966
▁줄었다	-10.2969
지지	-10.297
▁통일	-10.2972
▁order	-10.2973
프로그램	-10.2979
▁자녀	-10.2985
▁결과에	-10.2985
▁according	-10.2988
▁수급	-10.2989
▁씨	-10.2993
▁적은	-10.2997
▁분위기를	-10.2998
만원의	-10.2999
co	-10.3001
▁빈	-10.3001
하였으며	-10.3004
▁여기	-10.3005
▁◆	-10.3009
)</	-10.3015
▁현황	-10.302
▁주도	-10.3027
▁아주	-10.3028
▁격	-10.3035
▁대해서	-10.3036
현장	-10.3037
▁배송	-10.3039
▁추진할	-10.304
▁선정된	-10.3041
▁곡	-10.3041
상황	-10.3042
▁경고	-10.3042
교통	-10.3044
탑	-10.3045
됐으며	-10.3047
▁있음을	-10.3049
▁평소	-10.3064
▁그가	-10.3064
▁마련했다	-10.3067
틴	-10.3079
량이	-10.308
제로	-10.3085
▁승리를	-10.3096
▁알려진	-10.3109
▁누	-10.3109
▁역할	-10.3111
ps	-10.3111
분의	-10.3113
▁권리	-10.3113
▁최신	-10.3114
▁깊은	-10.3115
▁의지를	-10.3116
▁단축	-10.312
▁개방	-10.3125
▁갤럭시	-10.3127
▁출석	-10.3135
▁노조	-10.3138
윈	-10.314
▁말한다	-10.3143
▁입증	-10.3145
▁본인	-10.3147
▁이사	-10.3148
▁자원	-10.3151
▁떨어진	-10.3156
▁외에	-10.3162
▁섬	-10.3163
▁고정	-10.3163
▁입법	-10.3165
▁진짜	-10.3165
▁know	-10.3167
▁원고	-10.317
▁리그	-10.3172
오전	-10.3172
빛	-10.3173
▁무선	-10.3176
▁점차	-10.3178
장치	-10.3178
▁하다	-10.3181
▁떠나	-10.3185
▁동부	-10.3195
▁이탈리아	-10.3197
▁브라질	-10.3197
쳤다	-10.3201
▁소아	-10.3202
▁정기	-10.3214
▁나설	-10.3216
나무	-10.3217
네요	-10.3219
▁작가	-10.3222
▁진료	-10.3223
▁세트	-10.3227
고객	-10.3228
욱	-10.3229
▁취	-10.3229
으로는	-10.3231
▁최저임금	-10.3235
▁방법으로	-10.3236
▁올해는	-10.3241
▁앞으로도	-10.3243
사진	-10.3248
▁발매	-10.3253
▁가까이	-10.3256
▁일단	-10.3257
▁남편	-10.3258
▁부모	-10.3259
▁활용할	-10.3259
▁근	-10.3264
▁화장품	-10.3267
▁현행	-10.3268
▁침해	-10.327
▁포인트	-10.3272
the	-10.3274
기획	-10.3277
▁눈에	-10.3278
▁야당	-10.328
▁선도	-10.3281
월에는	-10.3281
▁필수	-10.3281
센	-10.3283
▁인터뷰에서	-10.3284
조선	-10.3284
▁중구	-10.3285
▁자신	-10.3286
▁의혹을	-10.3288
▁하나로	-10.3289
▁이들의	-10.3291
▁숨	-10.3295
사와	-10.3295
▁메뉴	-10.3297
▁징계	-10.3298
▁납부	-10.3305
▁대해선	-10.3308
딩	-10.3312
▁바다	-10.3313
▁교육부	-10.3313
▁계열사	-10.3316
▁페이스북	-10.3317
시에	-10.3319
▁삶의	-10.3321
▁참여할	-10.3324
▁직장	-10.3325
▁남은	-10.3326
▁거리두기	-10.333
▁where	-10.3331
▁보유하고	-10.3336
▁못해	-10.3337
제한	-10.334
▁감소한	-10.3341
▁전세	-10.3341
▁특성을	-10.3342
▁시장이	-10.3352
▁페	-10.3355
▁수준이다	-10.3362
▁Re	-10.3363
▁냈다	-10.3366
밥	-10.337
▁임대	-10.3373
▁경선	-10.3379
▁앞에	-10.3383
▁겨울	-10.3384
건의	-10.3385
명에게	-10.3391
▁관객	-10.3391
지금	-10.3397
▁거래를	-10.3401
▁모니터링	-10.3401
▁Korea	-10.3402
ne	-10.3403
▁pre	-10.3403
▁control	-10.3405
그러면서	-10.3408
os	-10.3413
▁전파	-10.3418
▁학	-10.3418
풀	-10.342
▁성적	-10.3421
▁기자회견을	-10.3424
▁사업장	-10.3441
자에게	-10.3442
na	-10.3443
▁들었다	-10.3443
씨와	-10.3444
▁저하	-10.3446
▁소화	-10.3446
▁심리	-10.3447
▁뉴스	-10.3451
널	-10.3453
com	-10.3454
문을	-10.3463
하려고	-10.3466
lg	-10.3472
▁실내	-10.3477
룡	-10.3477
능	-10.3479
▁아버지	-10.3479
▁일반적으로	-10.3479
▁사랑을	-10.3482
▁충족	-10.3483
개혁	-10.3484
과정	-10.3495
▁애플	-10.3498
하면서도	-10.3503
▁개의	-10.3513
▁오래	-10.3513
ch	-10.3516
▁개입	-10.3517
▁선출	-10.3517
방향	-10.3517
▁개념	-10.3519
▁극복	-10.3525
응	-10.3526
니다	-10.3526
▁방식	-10.3527
▁분야의	-10.3529
▁테스트	-10.353
▁협약	-10.3531
▁날씨	-10.3532
></	-10.3532
▁영향	-10.3533
▁배달	-10.3533
▁관광객	-10.3542
▁작용	-10.3543
▁단속	-10.3544
▁티	-10.3545
▁규모로	-10.3548
▁research	-10.355
라인	-10.3553
▁코스닥	-10.3555
il	-10.3555
▁있으나	-10.3556
▁만난	-10.3563
▁during	-10.3564
이면	-10.3566
▁후속	-10.3569
▁응	-10.357
▁크기	-10.3571
학회	-10.3573
용품	-10.3573
▁나아가	-10.3574
▁혼	-10.3577
▁측면에서	-10.3578
▁group	-10.3579
▁참여해	-10.358
▁토대로	-10.3583
▁농촌	-10.3584
수록	-10.3587
하나	-10.3587
▁회의를	-10.3588
다면	-10.3588
회말	-10.3588
인증	-10.3593
▁금액	-10.3598
▁엄마	-10.3603
법에	-10.3612
상태	-10.3614
▁가스	-10.3614
시대	-10.3616
셔	-10.3618
▁글	-10.3618
▁안정적인	-10.3623
ts	-10.3628
엠	-10.3628
▁당일	-10.3632
케이	-10.3643
▁열심히	-10.3643
사실	-10.3644
▁능력	-10.3649
람	-10.3649
오후	-10.365
자료	-10.3651
창업	-10.3653
▁based	-10.3654
▁메시지를	-10.3654
▁헌법	-10.3656
▁미국과	-10.3658
▁집회	-10.366
명과	-10.3663
고용	-10.3664
▁합동	-10.3667
▁반발	-10.3674
▁직전	-10.3676
▁method	-10.3679
▁사기	-10.3679
▁제고	-10.3681
▁보건	-10.3683
냈다	-10.3685
▁요리	-10.3688
혀	-10.3692
▁오랜	-10.3696
tic	-10.3696
회를	-10.3702
▁블록체인	-10.3703
▁공기	-10.3704
▁풀이된다	-10.3704
랩	-10.3705
▁받	-10.3707
▁류	-10.3708
▁발언	-10.3713
(-	-10.3714
▁손을	-10.3719
신고	-10.3724
룸	-10.3731
▁부회장	-10.3732
겠습니다	-10.3745
▁신뢰	-10.3747
▁people	-10.3748
▁의미를	-10.3748
▁사항	-10.3749
▁생각을	-10.3753
▁including	-10.3759
▁강제	-10.376
▁발전을	-10.3762
ance	-10.3763
▁스타일	-10.3764
▁드러냈다	-10.3766
▁부분이	-10.3767
▁유전자	-10.3772
방법	-10.3782
▁토론	-10.3782
▁높이고	-10.3787
▁위원장	-10.3787
활	-10.3789
▁기사	-10.379
▁동반	-10.3796
▁연구개발	-10.3801
▁약속	-10.3804
포럼	-10.3806
sk	-10.3807
▁美	-10.3815
▁열었다	-10.3819
주기	-10.382
됨에	-10.382
▁있으면	-10.3821
미래	-10.3823
대응	-10.3826
▁low	-10.383
곤	-10.383
▁수소	-10.3835
eu	-10.3845
▁얻을	-10.3845
▁대책을	-10.3847
▁성공했다	-10.3848
▁스페인	-10.3849
▁상위	-10.3856
▁결과는	-10.3867
됐지만	-10.3876
활동을	-10.388
▁압박	-10.3882
▁파견	-10.3886
▁매출액	-10.3896
▁빛	-10.3897
으	-10.3898
▁마치	-10.3901
머니	-10.3909
노조	-10.391
▁제약	-10.3911
▁우주	-10.3911
▁보조	-10.3916
▁음	-10.3918
중앙	-10.3918
▁실시한	-10.3918
’(	-10.392
▁의결	-10.3923
▁동료	-10.3927
▁불과	-10.3927
▁테	-10.3935
▁공천	-10.3936
하였고	-10.3941
▁유형	-10.3945
▁원을	-10.3952
▁듣고	-10.3956
등록	-10.3958
▁진행한	-10.3959
▁섭취	-10.3959
▁포스코	-10.3961
▁주파수	-10.3963
▁필요합니다	-10.3963
▁same	-10.3975
▁일본의	-10.3979
해온	-10.3979
▁물류	-10.3984
솔	-10.3987
영화	-10.3988
▁임원	-10.3997
엄	-10.4005
▁만들고	-10.4007
▁손상	-10.4012
▁글을	-10.4019
▁gs	-10.402
콜	-10.402
▁소감을	-10.4022
▁화학	-10.4027
▁These	-10.4029
▁단위	-10.4031
조차	-10.4033
▁억제	-10.4033
▁cases	-10.4035
▁성능	-10.4037
으나	-10.404
▁첨단	-10.4041
▁거주	-10.4041
공무원	-10.4044
▁공감	-10.4044
▁태풍	-10.4048
▁result	-10.405
▁이른바	-10.405
▁신체	-10.4055
▁how	-10.4056
▁대학생	-10.4058
▁있어야	-10.406
▁촉진	-10.4061
▁후보가	-10.4061
벽	-10.4061
▁협조	-10.4062
▁just	-10.4066
▁대상자	-10.4067
▁had	-10.4079
▁합병	-10.408
특	-10.4083
▁건강한	-10.4086
▁경기에서	-10.4088
청소년	-10.409
자와	-10.4094
▁허위	-10.4095
니까	-10.4099
▁총장	-10.41
스러운	-10.4102
달라	-10.4108
▁받게	-10.4109
▁이익	-10.4113
더라도	-10.4114
▁있다면	-10.4114
um	-10.4119
▁힘든	-10.4121
밤	-10.4122
▁이사장	-10.4124
▁벌금	-10.4124
▁센서	-10.4125
해주는	-10.4127
장으로	-10.4129
▁여의도	-10.413
금을	-10.4132
때	-10.4133
닝	-10.4134
칙	-10.4136
▁탄핵	-10.4138
▁충돌	-10.4143
▁절감	-10.4146
▁존	-10.4146
▁매주	-10.4147
▁비가	-10.4148
생명	-10.4155
▁요소	-10.4157
▁강화를	-10.4157
텔레콤	-10.4158
▁월드컵	-10.4159
현대	-10.416
▁국방부	-10.4167
▁부서	-10.417
▁등장	-10.417
▁콘서트	-10.4173
ut	-10.4175
주가	-10.4178
▁가능성	-10.418
무역	-10.4192
▁입찰	-10.4194
▁의미가	-10.4194
▁소방	-10.4195
인이	-10.4196
▁맛	-10.4203
▁이웃	-10.421
청주	-10.4211
text	-10.4212
▁굉장히	-10.4213
▁가을	-10.4216
▁화면	-10.4216
▁좋지	-10.4217
est	-10.4217
▁웹	-10.4218
▁있음	-10.4222
ill	-10.4224
▁감시	-10.4225
▁시점	-10.4226
기금	-10.423
▁위로	-10.4231
▁비중이	-10.4235
▁대한민국	-10.4236
▁캐나다	-10.4238
▁야구	-10.4238
▁행사는	-10.4239
▁환경을	-10.424
▁잡아	-10.424
회초	-10.4241
▁참석해	-10.4244
▁산업혁명	-10.4248
▁쿠	-10.4251
▁긴장	-10.4253
▁용량	-10.4263
대비	-10.4263
▁크	-10.4264
▁벗어나	-10.4271
▁한미	-10.4271
▁순위	-10.4272
▁혈액	-10.4276
▁만기	-10.4277
하였습니다	-10.428
▁개봉	-10.4283
▁끝	-10.4284
▁nc	-10.4284
예술	-10.4284
▁캐	-10.4287
▁했지만	-10.429
호선	-10.4294
항공	-10.4294
▁st	-10.4295
▁dis	-10.4295
텔	-10.4297
▁위탁	-10.43
다고	-10.4305
자들이	-10.431
▁도민	-10.4314
ized	-10.4319
▁비대면	-10.432
▁정부와	-10.4322
▁나눔	-10.4324
▁개선을	-10.4324
▁포함된	-10.4325
▁매체	-10.4327
▁지방자치단체	-10.4328
▁충전	-10.4331
청년	-10.4335
▁want	-10.434
하여야	-10.4341
▁하였다	-10.4341
조정	-10.4343
▁공약	-10.4347
지가	-10.4354
▁생각이	-10.4359
▁권고	-10.436
▁염	-10.436
▁앞둔	-10.4361
짐	-10.4362
▁성분	-10.4364
띠	-10.4365
▁붙	-10.4368
▁놓	-10.437
▁논	-10.4372
▁봤다	-10.4375
잔	-10.4377
투어	-10.4377
▁비핵화	-10.4378
pi	-10.4378
end	-10.4381
큐	-10.4383
째	-10.4383
▁선보인다	-10.4387
▁찬성	-10.4391
▁교환	-10.4395
혹	-10.4396
주년을	-10.4396
치를	-10.4396
▁테러	-10.4397
▁환자가	-10.4397
▁개막	-10.4402
장애인	-10.4404
성장	-10.4408
능력	-10.4409
▁소식을	-10.4413
▁이래	-10.4418
▁상향	-10.4418
▁unit	-10.4419
▁아이폰	-10.4419
▁요청했다	-10.4421
▁쇼핑	-10.4421
▁깨	-10.4423
▁본격적으로	-10.4423
▁축하	-10.4426
▁체계	-10.4431
▁철저히	-10.4432
▁아이디어	-10.4432
▁문제에	-10.4433
▁관내	-10.4435
▁보건복지부	-10.4437
검찰	-10.4439
▁식사	-10.4442
▁여기서	-10.4443
특별	-10.4444
▁방향으로	-10.4447
전에	-10.4453
▁명이	-10.4457
°	-10.4459
▁맡은	-10.446
▁이때	-10.4461
▁국채	-10.4461
▁지출	-10.4467
득	-10.4467
▁이처럼	-10.4479
▁소리	-10.448
▁노후	-10.4482
▁유사	-10.4482
▁것인지	-10.4484
▁사용한	-10.4485
량을	-10.4487
▁주주	-10.4488
▁생명	-10.4494
▁높게	-10.4495
▁청약	-10.4496
▁소폭	-10.4497
▁엄	-10.4505
클	-10.4505
만을	-10.4508
▁나가	-10.4509
또한	-10.4509
▁감염병	-10.4513
▁달한다	-10.4513
▁가입자	-10.4517
▁법정	-10.4519
감사	-10.452
▁당장	-10.4529
▁도심	-10.4531
▁싱가포르	-10.4532
단은	-10.4532
▁사례가	-10.4534
▁기소	-10.4534
▁자율	-10.4534
ang	-10.4535
ge	-10.4535
점이	-10.4535
Y	-10.4536
▁전원	-10.4538
▁환경부	-10.454
▁신장	-10.4541
▁한층	-10.4546
▁조례	-10.4546
em	-10.4547
▁나이	-10.4548
▁서울대	-10.4555
노동	-10.4557
안타	-10.4558
▁나오고	-10.4564
cc	-10.4568
▁배당	-10.4572
▁순으로	-10.4573
엔터테인먼트	-10.4578
▁제시했다	-10.4579
기반	-10.458
ure	-10.4583
▁마련됐다	-10.4584
▁미사일	-10.4584
ti	-10.4585
▁정상회담	-10.4588
▁향한	-10.4592
▁특징이다	-10.4594
▁온도	-10.4594
▁동작	-10.4597
▁나가겠다	-10.4597
▁출입	-10.4598
되어야	-10.4598
전에서	-10.4599
▁회장이	-10.46
영상	-10.4601
▁둔화	-10.4601
▁빅데이터	-10.4602
▁results	-10.4606
년을	-10.4607
▁지원하고	-10.4608
ry	-10.4613
▁항목	-10.4619
수원	-10.4622
▁세금	-10.4622
▁드러났다	-10.4623
받았다	-10.4624
위원회는	-10.4624
▁연말	-10.4625
▁원유	-10.4627
세트	-10.4628
▁공략	-10.4628
▁노사	-10.463
▁쌀	-10.463
▁하기	-10.4633
▁본사	-10.4634
▁기대하고	-10.4635
▁products	-10.4641
▁자체가	-10.4641
액은	-10.4642
▁추진한다	-10.4645
국장	-10.4645
지원센터	-10.465
과장은	-10.4653
▁내다봤다	-10.4655
▁대처	-10.4662
▁산하	-10.4664
go	-10.4665
▁부족한	-10.4666
국장은	-10.4668
▁국무총리	-10.4668
▁쓴	-10.467
율을	-10.4671
▁무엇보다	-10.4675
▁가능성도	-10.4675
세요	-10.4678
▁중소	-10.4689
▁코스	-10.4694
▁진행되는	-10.4701
▁의원의	-10.4702
▁development	-10.4703
▁컬러	-10.4704
▁전략을	-10.4709
장에서	-10.471
▁주기	-10.4712
▁모여	-10.4713
트로	-10.4713
▁간담회	-10.4716
▁검출	-10.4716
개월간	-10.4719
▁예산을	-10.472
▁시작된	-10.472
▁영양	-10.4721
▁전세계	-10.4724
▁u	-10.4724
▁사람을	-10.473
▁미칠	-10.4731
▁자문	-10.4734
▁긍정적인	-10.4739
▁요구했다	-10.474
▁들고	-10.4741
▁피해가	-10.4748
ization	-10.4748
마켓	-10.4751
▁모델을	-10.4751
리아	-10.4754
▁방식을	-10.4759
더라	-10.476
기자	-10.4762
▁솔로	-10.4765
스키	-10.4766
▁넘게	-10.4766
▁사는	-10.4772
▁강하게	-10.4775
▁점도	-10.4776
▁말해	-10.4776
▁모드	-10.4778
▁유리	-10.4778
▁자신을	-10.4781
▁non	-10.4783
▁말이	-10.4784
▁조건	-10.4786
▁시범	-10.4789
▁전담	-10.4793
▁슈퍼	-10.4797
▁모습	-10.4797
▁정식	-10.4799
▁서버	-10.4804
▁엔진	-10.4805
▁답변	-10.4807
▁내지	-10.4812
▁영입	-10.4814
호텔	-10.4815
▁many	-10.4815
▁form	-10.4821
▁택시	-10.4824
▁덕	-10.4827
▁말까지	-10.4827
▁지사는	-10.4828
되자	-10.4833
여명	-10.4835
▁통상	-10.4836
▁만약	-10.4837
▁진화	-10.4837
▁커뮤니티	-10.4839
▁기준을	-10.484
▁누구	-10.4841
▁매매	-10.4844
▁포기	-10.4846
▁없	-10.4849
받고	-10.4849
▁공부	-10.485
었던	-10.4859
▁선정됐다	-10.4861
▁어린이집	-10.4863
▁충분한	-10.4866
▁life	-10.4869
▁인천시	-10.4871
▁비용을	-10.4878
▁이상을	-10.488
▁드론	-10.4883
대의	-10.4884
▁곳	-10.4888
▁X	-10.4888
▁장소	-10.4891
▁가슴	-10.4892
▁프리	-10.4895
지에	-10.4897
바이	-10.4898
▁옥	-10.4904
오는	-10.4904
퇴	-10.4906
▁블랙	-10.4918
▁막기	-10.4919
인사	-10.4919
▁매출이	-10.4929
▁강화하고	-10.4934
▁공포	-10.4936
훈련	-10.4937
▁무료로	-10.494
▁국토교통부	-10.4941
되	-10.4944
하우스	-10.4945
▁기기	-10.4947
▁정치권	-10.4948
▁미니	-10.4948
▁전문가들은	-10.4949
▁문을	-10.4949
▁그리스	-10.4949
▁일정을	-10.4951
▁어린	-10.4956
▁되었다	-10.4957
▁면접	-10.4963
▁condition	-10.4963
ft	-10.4964
▁컨설팅	-10.4966
ness	-10.4967
▁지시	-10.4968
▁판단했다	-10.4968
지로	-10.4968
그림	-10.4972
▁의견이	-10.4974
▁의약품	-10.4975
▁even	-10.4975
▁장관이	-10.4982
뜨	-10.4984
없는	-10.4987
▁지수	-10.4988
우리는	-10.499
▁국내에서	-10.4995
▁반등	-10.4996
소리	-10.4996
▁삶을	-10.5
려고	-10.5002
금액	-10.5004
▁effects	-10.5005
▁부담이	-10.501
▁while	-10.5011
▁계기가	-10.5012
뉴	-10.5013
▁철	-10.5015
▁o	-10.5017
▁새벽	-10.5023
▁부지	-10.5023
.◇	-10.5025
▁검찰에	-10.5025
▁속도를	-10.5025
▁입은	-10.5026
▁절	-10.5027
▁출연해	-10.5027
▁수치	-10.5028
이상	-10.5029
▁획득	-10.503
율이	-10.5031
▁자회사	-10.5034
▁통보	-10.5034
▁당선	-10.5036
▁이들이	-10.5041
▁물질	-10.5041
▁변화가	-10.5041
농협	-10.5041
장과	-10.5045
▁방침	-10.5047
▁이사회	-10.5049
들로	-10.5049
▁폭행	-10.5051
▁태국	-10.5052
▁훼손	-10.5053
▁신제품	-10.5055
▁가맹점	-10.5056
▁시청률	-10.5057
▁개발을	-10.5062
물질	-10.5064
의회	-10.5067
▁국민의힘	-10.5069
▁참여를	-10.5072
▁운전자	-10.5074
먹	-10.5076
점으로	-10.5077
▁부분을	-10.5078
공단	-10.5078
▁일대	-10.5084
▁긴	-10.5086
▁고객에게	-10.5088
▁make	-10.509
▁specific	-10.5091
ot	-10.5094
▁사이트	-10.5099
▁three	-10.5099
▁무대를	-10.5099
▁북한이	-10.5102
▁적발	-10.5105
▁입고	-10.5108
▁낼	-10.511
▁통해서	-10.511
▁보통	-10.5113
ta	-10.5114
▁쓸	-10.5114
▁확대해	-10.5123
▁gene	-10.5125
▁가상	-10.5127
▁모임	-10.5128
▁기획재정부	-10.5131
▁under	-10.5134
해달라	-10.5138
▁대부분의	-10.5144
▁support	-10.5145
▁질문	-10.5145
▁말고	-10.5149
교사	-10.515
팩	-10.5154
▁example	-10.5155
▁잔	-10.5158
나라	-10.5159
▁목표를	-10.517
▁준다	-10.517
▁예고	-10.517
▁	-10.5172
▁now	-10.5173
▁클럽	-10.5177
▁mc	-10.5177
▁사항은	-10.5177
▁재판부는	-10.518
▁보증	-10.518
억원에	-10.5182
▁응답	-10.5182
▁있	-10.5183
▁농산물	-10.5184
▁기여할	-10.5184
▁rate	-10.5186
▁조달	-10.5187
컬	-10.5188
▁증가하고	-10.5189
▁per	-10.519
공동	-10.5191
▁추세	-10.5195
▁그리	-10.5195
▁end	-10.5195
인당	-10.5198
건으로	-10.52
▁느낄	-10.52
▁산림	-10.5201
▁고급	-10.5202
▁function	-10.5203
▁생존	-10.5203
▁도는	-10.5205
▁운	-10.5206
▁돌아가	-10.5209
▁자아냈다	-10.5212
▁불리는	-10.5212
▁비밀	-10.5212
▁얻어	-10.5214
엽	-10.5219
마저	-10.5219
씨에게	-10.522
▁차관	-10.5223
중심	-10.5231
▁면적	-10.5232
con	-10.5232
주식	-10.5239
▁능력을	-10.5239
and	-10.524
▁전투	-10.524
▁케이	-10.5241
▁선두	-10.5246
▁형태	-10.5249
맥	-10.5251
▁자본	-10.5251
가량	-10.5252
▁di	-10.5256
▁머리	-10.5256
▁좌	-10.5258
신청	-10.526
▁원칙	-10.5265
▁축	-10.5267
▁맥	-10.5267
▁상태에서	-10.5268
▁수신	-10.5269
▁한국은	-10.5271
▁뛰어난	-10.5274
▁then	-10.5279
▁모두가	-10.5281
▁비교해	-10.5283
▁정착	-10.5284
파크	-10.5288
▁get	-10.5289
▁상당의	-10.529
▁값	-10.5292
▁밑	-10.5293
인의	-10.5295
▁help	-10.5297
▁규모가	-10.5298
안정	-10.5299
▁국정	-10.53
▁무기	-10.5301
니아	-10.5306
▁확대를	-10.5314
▁규모는	-10.5316
▁연구를	-10.5317
▁클	-10.5319
죽	-10.5322
방안	-10.5323
▁인물	-10.5328
▁effect	-10.5331
▁분야에	-10.5333
▁sub	-10.5334
▁분쟁	-10.5337
▁압수수색	-10.534
▁내달	-10.5343
▁뒷	-10.5344
▁단기	-10.5345
▁나타나	-10.5349
▁이유를	-10.535
나가	-10.535
▁마지막으로	-10.5351
사업자	-10.5351
▁요금	-10.5354
▁good	-10.5355
cu	-10.5357
fc	-10.5359
▁숲	-10.536
▁기록하며	-10.5367
bl	-10.5368
ex	-10.537
여개	-10.5375
▁바랍니다	-10.5375
멘	-10.5376
▁eu	-10.5376
▁융합	-10.5378
▁홈런	-10.5378
▁입학	-10.538
ting	-10.5383
▁의료기관	-10.5391
▁요인	-10.5395
박스	-10.5396
▁언급했다	-10.5398
▁사이의	-10.5399
▁이끌어	-10.54
▁퍼	-10.5401
▁센터	-10.5401
▁참고	-10.5406
앱	-10.5406
▁증권	-10.5413
개사	-10.5417
▁착수	-10.5417
겠다고	-10.5419
▁특검	-10.5423
▁차세대	-10.5431
넷	-10.5433
보증	-10.5433
▁차지하는	-10.5434
▁십	-10.5434
▁실시한다	-10.544
얼	-10.5442
▁입장이다	-10.5442
▁입국	-10.5442
같은	-10.5443
▁전압	-10.5445
이기도	-10.5447
▁추진하는	-10.5449
▁면제	-10.5454
▁버전	-10.5455
▁문제로	-10.5456
▁인도네시아	-10.5456
ib	-10.5456
▁물가	-10.5459
▁치매	-10.546
하려	-10.5461
주를	-10.5465
께	-10.5466
▁출	-10.5466
▁회사의	-10.5467
▁이슈	-10.5468
비는	-10.5471
▁공동으로	-10.5473
▁education	-10.5475
듯	-10.5476
▁pc	-10.5477
de	-10.548
▁이하의	-10.5481
▁상태를	-10.5484
컴	-10.5485
oc	-10.5492
▁disease	-10.5493
섬	-10.5496
▁사이버	-10.5498
해외	-10.5505
▁현안	-10.5505
▁정의당	-10.5507
▁높이기	-10.5508
▁셀	-10.5511
대는	-10.5511
일보	-10.5512
▁골프	-10.5514
▁전망된다	-10.5514
▁충격	-10.5517
▁y	-10.5522
▁있어요	-10.5529
▁메모리	-10.5529
낭	-10.553
▁significant	-10.5531
▁뭐	-10.5535
mb	-10.5537
예방	-10.5537
▁의사를	-10.554
▁미래를	-10.5541
만으로	-10.5542
▁특징	-10.5543
▁학생들이	-10.5548
be	-10.5548
no	-10.5551
▁사업이	-10.5553
▁등급	-10.5554
);	-10.556
장의	-10.556
부는	-10.5564
묘	-10.5574
▁individuals	-10.5575
vi	-10.5578
▁진행하는	-10.559
▁방법은	-10.5591
▁올린	-10.5593
아시아	-10.5594
▁졸업	-10.5596
▁증명	-10.5603
▁떨어졌다	-10.5609
▁type	-10.561
▁면역	-10.5612
▁패턴	-10.5613
lt	-10.5616
▁국토부	-10.5617
▁연락	-10.5618
힌	-10.5621
▁강도	-10.5623
설계	-10.5623
페이	-10.5625
▁could	-10.5628
▁단일	-10.563
▁학부모	-10.5631
▁도쿄	-10.5638
▁차별	-10.5642
▁깊이	-10.5643
핑	-10.5647
▁both	-10.5648
▁높이는	-10.5657
▁지점	-10.566
▁배경	-10.5663
▁사이에서	-10.5663
조합	-10.5667
험	-10.5669
몬	-10.567
번호	-10.5671
▁탄	-10.5671
트럼프	-10.5678
책임	-10.5679
모씨	-10.568
▁analysis	-10.5682
▁끌었다	-10.5682
이런	-10.5684
▁사유	-10.5687
▁수수료	-10.5687
▁유발	-10.5689
▁경력	-10.5695
해도	-10.5696
조제	-10.5699
공개	-10.5701
▁기업들이	-10.5702
▁포함되어	-10.5705
▁브	-10.5706
ms	-10.5708
▁증가할	-10.5709
▁지진	-10.5714
휴	-10.5715
▁방해	-10.5723
▁개발에	-10.5724
▁파트너	-10.5728
▁별도의	-10.5732
좌	-10.5734
▁끼	-10.574
했	-10.574
▁인생	-10.574
▁감지	-10.5744
▁투어	-10.5744
▁남부	-10.5749
절차	-10.5751
▁kia	-10.5751
참여	-10.5753
▁길을	-10.5754
▁이어졌다	-10.5755
▁따뜻한	-10.5755
▁삭제	-10.5756
▁소유	-10.5757
▁동참	-10.5759
▁도착	-10.5761
▁배제	-10.5761
▁때마다	-10.5765
▁종류	-10.5765
분쯤	-10.5767
▁맡아	-10.5768
▁위에	-10.577
▁지수는	-10.5773
▁힘입어	-10.5775
▁갖는	-10.5777
▁너	-10.5778
▁같습니다	-10.5778
▁진행될	-10.5778
▁안전성	-10.5778
▁폭발	-10.5779
되도록	-10.5788
셋	-10.579
▁아름다운	-10.5791
룩	-10.5794
▁찾기	-10.5796
▁이미지	-10.5797
▁사퇴	-10.5798
푸드	-10.58
유통	-10.5804
tion	-10.5807
▁공시	-10.5807
하다는	-10.5809
쯤	-10.581
▁덜	-10.581
▁급	-10.5812
화된	-10.5813
▁혼자	-10.5813
공연	-10.5816
피아	-10.5817
▁작동	-10.5818
되었으며	-10.5823
▁없습니다	-10.5824
▁휘	-10.5825
▁슈	-10.5827
▁기대를	-10.583
받는	-10.5831
▁인사를	-10.5832
율은	-10.5835
mu	-10.5837
샤	-10.584
▁이전에	-10.5843
▁총괄	-10.5843
쾌	-10.5843
▁보여주는	-10.5845
▁부실	-10.585
▁철회	-10.585
▁재판에	-10.5854
채권	-10.5856
▁끝난	-10.5858
컵	-10.5859
di	-10.5861
▁대북	-10.5862
▁cells	-10.5866
▁동영상	-10.5867
▁매력을	-10.5867
▁사전에	-10.5867
ating	-10.5867
▁고소	-10.5872
▁실적을	-10.5874
▁신청을	-10.5876
▁백악관	-10.5877
▁펼쳐	-10.5878
▁나무	-10.588
▁다르다	-10.5881
▁tax	-10.5882
조건	-10.5883
▁존중	-10.5888
▁법원	-10.5889
▁범행	-10.5891
▁터	-10.5897
투표	-10.5898
▁상당히	-10.5901
▁음원	-10.5902
▁숫자	-10.5911
▁곳에	-10.5915
▁생태계	-10.592
▁남아	-10.5926
▁강남구	-10.5928
농업	-10.5931
▁사무실	-10.5934
닉	-10.5935
▁있을지	-10.5936
▁am	-10.5937
▁메시지	-10.5938
▁손실	-10.5938
▁체	-10.5942
▁만한	-10.5943
사로	-10.5945
▁본격화	-10.5949
전국	-10.5951
▁사용해	-10.5958
▁이틀	-10.5968
▁경험이	-10.5969
▁폭력	-10.5972
▁자리에	-10.5974
재정	-10.5979
내가	-10.5981
▁형태의	-10.5982
본부장	-10.5985
▁구체적으로	-10.5989
맛	-10.599
▁전부	-10.5996
▁정규	-10.5999
▁관세	-10.5999
▁go	-10.6002
▁지역경제	-10.6004
▁재배	-10.6005
▁심장	-10.6006
▁보존	-10.6009
ca	-10.6011
▁불편	-10.6011
▁무슨	-10.6013
▁동해	-10.6013
@	-10.6015
▁환율	-10.6016
▁문의	-10.6018
▁급여	-10.6019
▁프랜차이즈	-10.602
스마트	-10.6021
연맹	-10.6023
웰	-10.6026
▁원전	-10.6028
▁지적이	-10.6029
▁소형	-10.6033
▁추진해	-10.6034
▁고객이	-10.6035
했는지	-10.6044
▁맞게	-10.6045
공급	-10.6047
▁동일	-10.605
▁compared	-10.605
▁found	-10.6051
▁커지고	-10.6051
▁주인공	-10.6052
▁에어	-10.6054
▁군수	-10.6055
려는	-10.606
▁part	-10.6067
교육청	-10.6067
▁엘	-10.6067
▁비교적	-10.6077
▁의식	-10.6078
per	-10.6078
▁\)<	-10.6078
▁자전거	-10.6079
▁value	-10.608
▁국방	-10.6081
종의	-10.6083
▁땅	-10.6088
▁잡고	-10.6089
▁어머니	-10.6089
원장	-10.6089
십	-10.609
타점	-10.6091
▁important	-10.6094
▁극대화	-10.6097
▁줄어들	-10.61
▁비난	-10.6101
▁지난주	-10.6103
▁전남도	-10.6103
▁얼마	-10.6106
▁쉬	-10.6109
억원이	-10.6111
롯데	-10.6112
▁병행	-10.6113
신문	-10.6116
▁강릉	-10.6119
오늘의	-10.6122
사무소	-10.6124
▁노동자	-10.6132
▁못할	-10.6135
해진	-10.6135
▁높일	-10.614
▁추경	-10.614
▁편의점	-10.6141
률이	-10.6142
방식	-10.6146
▁작	-10.615
▁개시	-10.615
▁논의를	-10.6153
▁지하철	-10.6153
▁사안	-10.6155
“	-10.6156
비가	-10.6157
▁옮겨	-10.6159
▁제도를	-10.6161
▁포럼	-10.6164
▁라이브	-10.6164
체계를	-10.6165
▁계좌	-10.6165
구청장	-10.6165
접	-10.6172
▁대표팀	-10.6172
▁처음이다	-10.6174
▁안전을	-10.6175
▁높여	-10.6176
▁업데이트	-10.6188
▁years	-10.619
기기	-10.6192
피해	-10.6193
▁종사자	-10.6203
▁역전	-10.6205
▁북부	-10.6205
▁예산안	-10.6209
▁참여했다	-10.6209
데이터	-10.621
▁신용	-10.6214
▁이뤄질	-10.622
위험	-10.6228
하므로	-10.6231
▁포장	-10.6231
연대	-10.6232
▁유기	-10.6236
▁의장은	-10.6237
도서관	-10.6243
▁말씀	-10.6244
관을	-10.6245
▁했는데	-10.6245
▁칼	-10.6245
시키기	-10.6248
▁외교부	-10.625
▁매출은	-10.6251
#	-10.6253
기록	-10.6254
▁일환으로	-10.6257
▁없도록	-10.6262
▁세상	-10.6262
법원	-10.6263
▁관람	-10.6263
부를	-10.6265
▁오프라인	-10.6268
▁being	-10.6268
장에	-10.6269
에만	-10.627
▁분할	-10.6272
▁의뢰	-10.6272
▁해상	-10.6273
▁business	-10.6273
타운	-10.6276
진흥원	-10.6277
▁아이템	-10.6279
▁흡수	-10.628
▁증대	-10.6281
평화	-10.6281
▁측면	-10.6282
▁그냥	-10.6287
▁어려워	-10.6287
연합	-10.6291
▁특성	-10.6294
▁점점	-10.6297
▁한국인	-10.6297
me	-10.6297
코드	-10.6298
쓰	-10.6302
▁layer	-10.6303
▁이뤄졌다	-10.6306
▁원장	-10.6306
▁올려	-10.6308
▁복원	-10.6309
비율	-10.6309
유럽	-10.6313
▁균형	-10.6313
▁도출	-10.6317
▁뜨거운	-10.632
개로	-10.6322
만대	-10.6323
▁알아	-10.6325
▁회계	-10.6325
▁삼성전자는	-10.6326
▁준공	-10.6335
경남	-10.634
▁매도	-10.634
▁대표의	-10.6341
▁별도	-10.6341
▁전달했다	-10.6346
ous	-10.6347
▁유행	-10.6353
▁규정에	-10.6355
▁용역	-10.6356
▁확인했다	-10.6357
▁전공	-10.6357
▁To	-10.6358
▁흥행	-10.636
▁사용되는	-10.6361
▁추출	-10.6364
서비스를	-10.6369
▁모았다	-10.6371
▁코드	-10.6372
▁사람들	-10.6372
▁대외	-10.6373
별로는	-10.6374
▁늘고	-10.6377
▁확인하고	-10.6378
▁시정	-10.6378
▁재고	-10.6378
▁보이지	-10.638
▁level	-10.6383
▁산불	-10.6384
▁근로	-10.6397
▁감독의	-10.6399
대에	-10.6403
흐	-10.6404
▁급성	-10.6405
▁음료	-10.6405
▁찾은	-10.6407
▁재무	-10.6409
▁성공적으로	-10.6409
▁득점	-10.641
시장에서	-10.641
▁필리핀	-10.6411
조의	-10.6414
▁대화를	-10.6415
세가	-10.6419
▁운항	-10.642
승을	-10.642
▁명시	-10.642
▁Yes	-10.6422
▁회담	-10.6423
군의	-10.6423
▁made	-10.6424
▁When	-10.6427
▁광주시	-10.6427
▁재료	-10.643
od	-10.6437
▁높았다	-10.6439
▁들여	-10.644
▁비전	-10.6441
▁초등학교	-10.6442
순위	-10.6446
ce	-10.6447
▁대한항공	-10.6447
▁의료진	-10.6448
▁국민이	-10.6449
▁초대	-10.645
▁유사한	-10.645
▁색	-10.6456
▁유지하고	-10.6457
▁상환	-10.6461
▁부채	-10.6461
▁합류	-10.6466
▁감축	-10.6466
▁의존	-10.6467
▁문서	-10.6467
▁리스크	-10.6468
▁색상	-10.647
▁진로	-10.6476
▁단순	-10.6479
▁위축	-10.6484
교류	-10.6484
▁찬	-10.6486
▁변화에	-10.6489
▁적용해	-10.6489
▁blood	-10.6492
▁탄생	-10.6494
▁동원	-10.6494
▁둘러싼	-10.6495
▁공모전	-10.6497
▁영업이익은	-10.65
line	-10.6502
▁cell	-10.6505
▁전까지	-10.6509
▁분석한	-10.6511
극본	-10.6514
랄	-10.6518
▁함께하는	-10.6519
▁매출액은	-10.6522
▁즉각	-10.6525
위가	-10.6525
▁대체로	-10.6526
▁숙	-10.6526
▁here	-10.6527
▁요구하는	-10.6527
자들의	-10.6529
▁long	-10.653
▁반환	-10.6532
▁풀어	-10.6532
▁evidence	-10.6534
▁within	-10.6535
▁시행령	-10.654
▁멕시코	-10.6541
지기	-10.6542
▁적자	-10.6543
▁거뒀다	-10.6543
▁전류	-10.6547
작업	-10.6549
▁기자들과	-10.6566
▁응급	-10.6568
실에서	-10.6568
▁검찰이	-10.6572
▁제품의	-10.6572
▁설비	-10.6576
▁표면	-10.6579
▁변수	-10.6583
▁완전	-10.6584
▁지식	-10.6584
▁떠	-10.6587
circ	-10.6588
▁방향을	-10.659
감이	-10.659
▁그쳤다	-10.6592
▁state	-10.6593
▁ex	-10.6594
▁민생	-10.6597
▁상태로	-10.6598
민주당	-10.6599
▁예정인	-10.6601
우스	-10.6605
▁회장의	-10.6606
▁넥센	-10.6607
▁항공기	-10.6607
▁실질적인	-10.6608
▁those	-10.6609
▁재발	-10.6611
▁술	-10.6613
▁코리아	-10.6616
▁꼽	-10.6625
▁지켜	-10.6625
▁기업에	-10.6628
▁강연	-10.6628
협약	-10.6628
▁전날보다	-10.6633
▁고위	-10.6634
▁세계적인	-10.6639
▁배포	-10.6642
)-(	-10.6642
답	-10.6642
됨	-10.6643
.	-10.6645
▁이어지고	-10.6645
▁특화	-10.6645
▁수익을	-10.6646
▁취약	-10.6646
▁세미나	-10.6647
▁누가	-10.6648
전환	-10.6648
ial	-10.6648
멜	-10.6653
▁묻는	-10.6654
▁대거	-10.6656
회에	-10.6659
됐다고	-10.6661
▁논문	-10.6663
](	-10.6668
▁tvn	-10.6668
▁선보일	-10.6671
▁분산	-10.6671
당시	-10.6672
하라고	-10.6674
▁contact	-10.6676
▁권력	-10.668
아파트	-10.6681
▁장을	-10.6682
표를	-10.6683
dr	-10.6686
▁related	-10.6688
▁수많은	-10.6689
▁미국에서	-10.6689
회로	-10.669
군이	-10.6695
▁더해	-10.6697
▁지상	-10.6699
▁주의가	-10.6699
▁안에서	-10.67
▁지명	-10.6701
▁어르신	-10.6701
▁사례를	-10.6702
클럽	-10.6704
▁당사자	-10.6707
▁don	-10.6708
▁거점	-10.671
▁다수의	-10.6714
심을	-10.6717
▁수렴	-10.6718
▁맞은	-10.6719
▁사항을	-10.6721
▁작품을	-10.6722
ism	-10.6727
▁운영을	-10.6731
▁끌고	-10.6734
칸	-10.6734
느	-10.6735
▁근육	-10.6735
▁급락	-10.6735
박람회	-10.674
▁철강	-10.6741
▁마치고	-10.6742
▁싱글	-10.6744
▁모듈	-10.6744
▁상당한	-10.6745
▁행복한	-10.6748
▁접속	-10.6751
▁점포	-10.6752
뇨	-10.6753
▁고객의	-10.6754
▁웃	-10.6755
집행	-10.6756
하였음	-10.6756
정부는	-10.6758
▁터키	-10.676
▁캠프	-10.676
▁그때	-10.6761
▁대상이	-10.6762
▁「	-10.6763
▁끌어	-10.6765
ub	-10.6767
▁만남	-10.6772
▁규칙	-10.6773
▁했던	-10.6774
▁아니냐는	-10.6779
정신	-10.6781
▁소개했다	-10.6786
플러스	-10.6786
▁건조	-10.6791
▁패널	-10.6793
▁예상했다	-10.6796
부동산	-10.68
▁휴대폰	-10.68
털	-10.6803
부가	-10.6805
스가	-10.6805
홈런	-10.6805
비아	-10.6807
튼	-10.6807
▁body	-10.6807
틱	-10.681
건을	-10.6813
▁개정안	-10.6815
어야	-10.6824
ra	-10.6825
푸	-10.6826
▁취급	-10.6828
법은	-10.6829
▁대구시	-10.683
▁입을	-10.683
액을	-10.6831
▁실시했다	-10.6834
▁엔	-10.6835
▁목소리가	-10.6837
▁체포	-10.6838
위기	-10.6838
▁set	-10.6839
딜	-10.6841
▁방어	-10.6843
▁정밀	-10.6843
▁단백질	-10.6844
▁시상식	-10.6845
▁개통	-10.6846
▁지사	-10.6847
▁기소된	-10.6848
▁현상	-10.6849
▁위기를	-10.6849
▁design	-10.6851
욕	-10.6855
▁벽	-10.6856
▁원심	-10.6859
▁수십	-10.6861
정당	-10.6861
▁increase	-10.6862
업자	-10.687
▁방문한	-10.6872
▁전시회	-10.6873
▁기반의	-10.6879
▁적합한	-10.688
▁푸	-10.6881
▁산정	-10.6881
즐	-10.6882
ear	-10.6882
▁현장에	-10.6883
▁주차	-10.6888
▁관리를	-10.6889
롤	-10.6889
▁기록을	-10.689
▁서명	-10.6892
▁power	-10.6893
▁협의를	-10.6893
▁model	-10.6894
ob	-10.6894
▁전망이	-10.6895
▁별도로	-10.6901
드리	-10.6902
▁car	-10.6906
▁경찰이	-10.6907
▁이로써	-10.6907
학적	-10.6913
▁강의	-10.6914
▁적응	-10.6916
【	-10.6919
▁가질	-10.6919
▁알게	-10.692
▁실시하고	-10.6923
분을	-10.6923
트리	-10.6923
▁뮤지컬	-10.6926
하다가	-10.6928
이라면	-10.693
▁참가자	-10.6932
▁의도	-10.6937
sion	-10.6938
▁바른미래당	-10.6939
레이	-10.694
념	-10.6943
제는	-10.6944
▁자격	-10.6945
▁교통사고	-10.6947
ag	-10.6948
▁사업의	-10.695
▁따로	-10.695
▁갑자기	-10.6955
수요	-10.6957
▁건의	-10.6965
▁SK	-10.6965
▁ceo	-10.6965
▁채무	-10.6966
▁늘어	-10.6968
아울러	-10.6969
▁체제	-10.6969
▁당뇨병	-10.6971
▁먹는	-10.6971
▁주목된다	-10.6972
▁소규모	-10.6974
리를	-10.6978
▁새해	-10.6981
▁부분에	-10.6981
▁health	-10.6986
▁possible	-10.6986
▁look	-10.6987
▁태양광	-10.6987
자리	-10.6987
▁공익	-10.699
보건	-10.6992
연금	-10.6992
수준	-10.6992
전주	-10.6996
▁마찬가지로	-10.6999
릭	-10.7001
▁기금	-10.7007
마리	-10.7011
▁연구는	-10.7012
방역	-10.7013
▁뿌리	-10.7013
mit	-10.7015
▁필요하다고	-10.7016
시킨다	-10.7016
▁원료	-10.7016
▁변신	-10.7018
학습	-10.7018
▁취약계층	-10.7019
결정	-10.7019
꾼	-10.7022
▁광역	-10.7023
▁호남	-10.7023
▁체크	-10.7032
▁부부	-10.7033
▁집계	-10.7034
▁평창	-10.7035
▁area	-10.704
▁영향이	-10.704
▁홀	-10.7042
▁before	-10.7044
▁도와	-10.7049
ost	-10.7052
▁That	-10.7054
▁펼쳤다	-10.7055
▁재건축	-10.7056
중인	-10.7063
▁팀이	-10.7064
▁통증	-10.7066
▁보인	-10.7067
▁마련해	-10.7068
하겠습니다	-10.7068
▁단어	-10.7071
▁위험을	-10.7073
▁호소	-10.7075
▁곳은	-10.7075
▁사무	-10.7076
▁제일	-10.7077
▁자금을	-10.7079
▁잡았다	-10.708
▁합격	-10.7081
▁light	-10.7081
ies	-10.7083
res	-10.7089
▁들어갔다	-10.709
J	-10.709
▁블록	-10.7093
▁비율이	-10.7094
▁얻고	-10.7096
▁차기	-10.7096
▁구조조정	-10.7098
▁이끌	-10.71
▁세력	-10.7102
▁주관	-10.7102
▁홈페이지를	-10.7103
지사	-10.7105
▁충북도	-10.7107
▁못한다	-10.7107
▁여론조사	-10.7107
▁법령	-10.7107
▁촉구	-10.7108
느냐	-10.7112
▁게임을	-10.7116
▁전부터	-10.7116
채널	-10.7118
▁출산	-10.7122
▁조명	-10.7122
▁변환	-10.7124
갔다	-10.7124
▁주간	-10.7129
▁개장	-10.7132
▁만성	-10.7134
▁매력	-10.7136
보수	-10.7136
▁협약을	-10.7142
▁clinical	-10.7154
▁원래	-10.7154
▁대표하는	-10.7158
▁격려	-10.7169
▁스트레스	-10.7174
▁금속	-10.7178
시행	-10.718
▁associated	-10.7181
브랜드	-10.7184
▁변동	-10.7184
▁개최했다	-10.7185
규모	-10.7188
점검	-10.719
▁시군	-10.7204
▁청문회	-10.7206
▁정체	-10.7216
광고	-10.7216
▁파업	-10.7217
▁리더	-10.722
▁써	-10.7223
▁기재	-10.7225
▁교육과정	-10.7226
▁의미한다	-10.7227
▁돌아	-10.7228
▁동시	-10.723
▁한해	-10.7232
▁체중	-10.7234
후보	-10.7236
닫	-10.7239
▁컴백	-10.724
▁부분은	-10.7243
▁주행	-10.7257
▁인지	-10.7257
▁without	-10.7257
자들은	-10.7259
▁연령	-10.726
▁지금은	-10.726
▁명절	-10.726
▁알고리즘	-10.7261
▁주의	-10.7264
▁주가가	-10.7264
▁지역을	-10.7265
▁화보	-10.7268
▁장면	-10.7269
▁시민들의	-10.7271
닐	-10.7273
▁저항	-10.7274
▁탑승	-10.7279
▁마음이	-10.728
▁경로	-10.7281
▁배정	-10.7286
▁사드	-10.7287
▁지도부	-10.7289
▁앞선	-10.7289
▁must	-10.7295
박물관	-10.7299
교육을	-10.7302
▁일반적인	-10.7306
멸	-10.7308
▁발효	-10.7308
▁진술	-10.7309
▁석유	-10.7313
▁유아	-10.7314
▁생각해	-10.7314
▁만날	-10.7316
▁고령자	-10.7317
▁But	-10.7319
▁찾을	-10.7323
▁감사합니다	-10.7331
▁침	-10.7331
▁포항	-10.7332
▁필요하다는	-10.7336
▁개최한다	-10.7337
아직	-10.7337
▁인공	-10.7339
헤	-10.7341
)((	-10.7341
▁내일	-10.7342
fi	-10.7343
▁겪는	-10.7345
▁수원시	-10.7345
▁서구	-10.7349
▁조국	-10.7351
▁강세	-10.7353
카페	-10.7357
수출	-10.7357
▁class	-10.7362
▁최다	-10.7363
군수	-10.7363
▁유해	-10.7363
▁often	-10.7365
▁집에서	-10.7367
토록	-10.7367
▁Korean	-10.7368
▁세종시	-10.7368
공정	-10.7368
해졌다	-10.7372
▁풍부한	-10.7373
▁우승을	-10.7373
▁원장은	-10.7377
방지	-10.7379
▁얻은	-10.7379
잠	-10.7381
▁차별화된	-10.7381
▁분석을	-10.7386
화가	-10.7388
▁은퇴	-10.7389
▁증권사	-10.7392
▁nh	-10.7395
▁진정	-10.7395
▁간부	-10.7397
디지털	-10.7397
▁회사는	-10.7399
▁정원	-10.74
뷰	-10.74
설비	-10.7401
▁대량	-10.7401
▁much	-10.7402
▁시작해	-10.7402
▁무려	-10.7402
▁의지	-10.7412
▁전략적	-10.7416
▁호흡	-10.7427
연합회	-10.7428
▁소장	-10.7429
잉	-10.7429
▁과세	-10.7429
au	-10.7431
부담	-10.7432
충북	-10.7433
▁연습	-10.7433
▁짧은	-10.7436
▁한정	-10.7437
▁주체	-10.7437
결제	-10.7439
▁지휘	-10.7445
밖에	-10.7446
「	-10.7448
▁하늘	-10.745
▁자랑	-10.745
청장	-10.745
ens	-10.7451
▁sp	-10.7452
▁복구	-10.7455
sc	-10.7455
추진	-10.746
종을	-10.7461
▁바이든	-10.7461
▁추락	-10.7462
▁춘천	-10.7464
▁FIG	-10.7466
▁움직임	-10.7468
ted	-10.7468
펜	-10.7472
▁환영	-10.7475
▁맡았다	-10.7475
▁준비를	-10.7477
▁구상	-10.7478
▁널리	-10.7481
▁주재	-10.7491
gen	-10.7495
▁맡고	-10.7495
으면서	-10.7499
▁가능하며	-10.75
준다	-10.75
▁검	-10.7502
부장	-10.7506
▁기업은	-10.7508
차전	-10.7512
▁LG	-10.7513
▁사법	-10.7514
▁necessary	-10.7515
타워	-10.7519
인권	-10.7519
▁집에	-10.7519
▁test	-10.7521
보고서	-10.7521
기지	-10.7525
▁내수	-10.7526
여건	-10.7527
▁활동에	-10.7527
▁힘이	-10.7528
▁구조를	-10.7528
ph	-10.7534
▁비율	-10.7538
▁빌	-10.7539
▁이어지는	-10.7541
하이닉스	-10.7541
▁청소	-10.7542
▁방법이	-10.7544
▁충	-10.7546
이라면서	-10.7551
▁국비	-10.7554
▁입사	-10.7554
▁메르스	-10.7556
▁이상으로	-10.7557
▁승진	-10.756
▁problem	-10.7565
▁운영한다	-10.7565
▁law	-10.7566
▁water	-10.7567
여명의	-10.7569
▁제출한	-10.7569
▁비행	-10.757
▁성남	-10.7575
▁줄어든	-10.7576
원에서	-10.7577
▁기업들의	-10.7577
▁user	-10.7577
직을	-10.7587
감염	-10.7592
▁운송	-10.7592
▁승객	-10.7595
▁local	-10.7595
▁사건이	-10.7597
▁우려를	-10.7599
▁천안	-10.7602
핀	-10.7604
▁소설	-10.7605
▁지원사업	-10.7606
▁도약	-10.7606
▁하면서	-10.7607
▁편집	-10.7608
▁명품	-10.7609
허가	-10.7611
▁빅	-10.7611
▁상승세를	-10.7611
▁관측	-10.7618
▁선보인	-10.7619
▁접촉자	-10.7619
▁감면	-10.762
▁어려울	-10.7622
구나	-10.7623
▁이뤄진	-10.7624
그동안	-10.7627
▁신축	-10.7631
▁본회의	-10.7631
미디어	-10.7631
▁소송을	-10.7632
▁inter	-10.7634
▁고등학교	-10.7637
▁서울시장	-10.7639
▁자가격리	-10.7643
▁심화	-10.7644
▁액션	-10.7645
▁social	-10.7646
▁침체	-10.7648
▁혜택	-10.765
▁명령	-10.765
▁쇼핑몰	-10.7654
▁측이	-10.7656
eg	-10.7656
▁기술이	-10.7661
▁사망자	-10.7662
▁사고가	-10.7662
금지	-10.7663
▁투기	-10.7664
사용	-10.7665
과장	-10.7666
▁서해	-10.7669
▁잠시	-10.767
▁정도의	-10.7671
부품	-10.7674
▁수면	-10.7676
▁공을	-10.7677
이후	-10.7678
▁인터뷰	-10.7681
▁고통	-10.7684
▁장착	-10.7684
▁체결했다	-10.7687
▁유치원	-10.7689
▁뒤를	-10.7692
▁보냈다	-10.7693
구를	-10.7694
가스	-10.7697
교회	-10.7697
일자리	-10.7698
▁빠진	-10.7698
▁대표와	-10.7698
▁does	-10.7704
▁side	-10.7704
▁개인정보	-10.7706
▁그러니	-10.7707
ok	-10.7707
천만	-10.7709
▁현장을	-10.771
▁학생들의	-10.771
▁protein	-10.7711
기존	-10.7714
기와	-10.7715
공업	-10.7717
▁식당	-10.7718
▁모색	-10.7721
▁change	-10.7728
▁태도	-10.7729
▁늘어날	-10.7733
가치	-10.7733
▁차원의	-10.7734
▁메인	-10.7737
▁선수들이	-10.7738
빌	-10.7739
▁바람	-10.774
음악	-10.7742
▁심사를	-10.7748
▁사업비	-10.775
타임	-10.7754
▁합성	-10.7757
▁옆	-10.7757
▁public	-10.7757
▁임상시험	-10.7758
▁수여	-10.776
▁적정	-10.7761
▁기업을	-10.7765
▁아프리카	-10.7769
▁빚	-10.777
몽	-10.777
▁미국이	-10.7771
▁위생	-10.7772
▁아티스트	-10.7774
▁pd	-10.7776
▁분명히	-10.7779
▁경과	-10.7781
▁included	-10.7782
ide	-10.7784
▁시기에	-10.7786
▁상용화	-10.7786
▁파일	-10.7786
효과	-10.7787
▁걸어	-10.7797
▁대비해	-10.7798
▁일자리를	-10.7799
전문가	-10.78
▁방송에서	-10.7804
스티	-10.7806
▁페이지	-10.7806
▁가득	-10.781
▁수준이	-10.7812
▁살아	-10.7815
▁잠정	-10.782
둥	-10.782
▁살펴보면	-10.7821
▁자가	-10.7823
▁담당자	-10.7825
▁대상은	-10.7829
▁신한은행	-10.7831
진단	-10.7832
▁이익을	-10.7835
▁런던	-10.7841
▁대결	-10.7842
▁서류	-10.7842
▁확대하고	-10.7843
act	-10.7845
▁제품에	-10.7845
세로	-10.7846
▁이어갔다	-10.7849
▁과정에	-10.7849
▁등판	-10.7851
▁take	-10.7855
기의	-10.7856
▁양산	-10.7857
▁최근에는	-10.7857
▁▁▁▁▁▁▁	-10.7857
▁피의자	-10.7858
▁백화점	-10.7858
▁수비	-10.7862
▁수익성	-10.7864
경기도	-10.7865
자인	-10.7866
경북	-10.787
▁발달	-10.7871
sum	-10.7871
까요	-10.7872
▁점은	-10.7872
▁이론	-10.7874
통화	-10.7876
▁빼	-10.7878
행복	-10.7878
▁댓글	-10.7881
▁제안했다	-10.7885
▁모양	-10.7887
comp	-10.7889
▁차지	-10.789
다른	-10.7892
ical	-10.7899
▁경주	-10.7899
올림픽	-10.7899
▁부사장	-10.7902
이어서	-10.7903
디자인	-10.7904
▁안테나	-10.7907
▁철저한	-10.7907
▁반영해	-10.7912
▁유로	-10.7914
▁심판	-10.7915
▁발언을	-10.7917
port	-10.7917
▁얻었다	-10.7919
▁오염	-10.7919
▁비리	-10.792
▁곧바로	-10.7922
▁부대	-10.7925
지면	-10.7925
▁이내에	-10.7926
▁투입해	-10.7926
▁품	-10.7928
▁고속도로	-10.7929
▁이유로	-10.7932
첩	-10.7932
▁공간을	-10.7936
▁내외	-10.7938
▁가공	-10.7941
▁급등	-10.7942
차원	-10.7943
고등학교	-10.7943
▁지방선거	-10.7946
▁signal	-10.7947
전남	-10.7949
리지	-10.795
▁쓰레기	-10.7951
▁민족	-10.7953
▁입점	-10.7956
▁마이	-10.7957
bo	-10.7958
▁가치가	-10.7959
▁소외	-10.796
그룹은	-10.7962
▁higher	-10.7962
콤	-10.7964
▁민주	-10.7964
공공	-10.7965
▁회의에서	-10.7965
▁전년대비	-10.7968
▁whether	-10.7969
▁승부	-10.797
보자	-10.7971
▁희생	-10.7973
센터는	-10.7973
▁청주시	-10.7974
▁갖추고	-10.7974
tal	-10.7975
▁발주	-10.7975
▁sc	-10.7976
▁민주주의	-10.7976
▁녹	-10.7978
▁전통시장	-10.798
▁hand	-10.7981
▁업무협약	-10.7988
간의	-10.7989
▁일주일	-10.799
협상	-10.7992
▁않게	-10.7993
학기	-10.7997
월드	-10.7999
▁공개한	-10.8005
▁확대할	-10.8005
▁요즘	-10.8006
럼	-10.801
▁보낸	-10.8011
▁발휘	-10.8011
업종	-10.8014
▁계속해서	-10.8015
▁받아야	-10.8016
▁조합원	-10.8019
▁블루	-10.8024
찍	-10.8024
▁food	-10.8024
▁손님	-10.8029
▁답은	-10.8029
면적	-10.803
▁국민연금	-10.8032
▁남녀	-10.8035
▁성능을	-10.804
▁창원	-10.804
▁손해배상	-10.804
▁진행되고	-10.804
▁와인	-10.804
위원회를	-10.8041
▁모습으로	-10.8041
▁기능이	-10.8042
▁일부를	-10.8042
ack	-10.8046
▁지역은	-10.8048
끼	-10.8049
▁신속한	-10.805
▁위기에	-10.8055
▁달려	-10.8058
▁고시	-10.806
ee	-10.8061
▁잇따라	-10.8064
▁어디	-10.8065
▁대통령을	-10.8069
▁옛	-10.807
었고	-10.807
▁권장	-10.807
▁밥	-10.8071
팝	-10.8074
▁symptoms	-10.8076
▁cancer	-10.8076
▁전액	-10.8077
▁사람들은	-10.8079
▁지침	-10.8079
▁공원	-10.808
br	-10.8082
▁중국이	-10.8083
▁탑재	-10.8084
▁수학	-10.8085
▁최초의	-10.8088
▁체육	-10.809
▁자살	-10.8093
▁지불	-10.8093
▁시위	-10.8097
인구	-10.8098
북한	-10.8101
▁늘려	-10.8101
▁꿈을	-10.8102
▁착공	-10.8104
▁넘치는	-10.8106
곳을	-10.8106
▁납품	-10.8108
맘	-10.811
일로	-10.8116
수익	-10.8118
▁연내	-10.8118
ud	-10.8119
촉	-10.8122
▁담아	-10.8123
년이	-10.8124
▁기반을	-10.8124
Q	-10.8126
린다	-10.8127
▁열렸다	-10.8129
▁재생	-10.8129
▁비타민	-10.8131
렬	-10.8133
원이다	-10.8134
▁결정할	-10.8135
▁교회	-10.8136
이익	-10.8137
소재	-10.8138
▁담배	-10.8138
▁사용됩니다	-10.8139
재산	-10.8139
소를	-10.8141
딘	-10.8141
▁자제	-10.8143
것	-10.8144
▁쓰는	-10.8145
▁공연을	-10.8149
▁깜짝	-10.815
▁jtbc	-10.8152
▁야간	-10.8154
이지	-10.8155
▁기업인	-10.8156
▁경우는	-10.8157
픽	-10.8157
▁자사	-10.8158
제작	-10.8159
처분	-10.816
해질	-10.8161
ml	-10.8162
겠지만	-10.8162
▁폭염	-10.8166
▁소환	-10.8166
봤	-10.8166
▁생각하는	-10.8167
▁관심과	-10.8168
▁긍정적	-10.817
▁가격을	-10.8173
투자증권	-10.8175
▁중동	-10.8175
▁떨어져	-10.8177
▁아베	-10.8178
▁농협	-10.8182
▁타이	-10.8184
▁image	-10.8184
▁연수	-10.8185
자본	-10.8187
▁provide	-10.8188
보는	-10.8188
▁분석이다	-10.819
▁미술	-10.8193
차관	-10.8193
센터에서	-10.8193
▁동생	-10.8197
▁문자	-10.8197
)◇	-10.8198
▁여파로	-10.82
▁파리	-10.82
ist	-10.8201
덴	-10.8202
▁결의	-10.8203
▁period	-10.8203
▁전반에	-10.8205
▁la	-10.8208
▁방송된다	-10.8209
▁의하여	-10.8211
▁상징	-10.8212
수술	-10.8213
일반	-10.8214
규정	-10.8215
▁다음은	-10.8218
▁참사	-10.8222
▁종전	-10.8222
▁연합	-10.8223
▁small	-10.8223
do	-10.8224
철도	-10.8225
년만에	-10.8227
종목	-10.8228
▁경기가	-10.8229
되기도	-10.823
콘텐츠	-10.8231
▁뒷받침	-10.8232
▁현상이	-10.8234
▁주차장	-10.8237
▁▁▁▁▁▁▁▁	-10.8237
▁애플리케이션	-10.8238
▁후보를	-10.8238
했었다	-10.8239
▁quality	-10.8241
▁추모	-10.8242
전기	-10.8242
시장은	-10.8245
▁분들이	-10.8254
ds	-10.8255
▁증진	-10.8256
둘	-10.8257
ma	-10.8258
▁유가	-10.8258
하자는	-10.826
개가	-10.8261
▁했다고	-10.8261
기업의	-10.8261
▁뇌물	-10.8262
택시	-10.8263
▁검토하고	-10.8263
▁판매한다	-10.8264
▁강사	-10.8266
ong	-10.827
하이	-10.8272
▁배상	-10.8273
법상	-10.8274
▁생태	-10.8277
자산운용	-10.8279
회는	-10.828
▁드러내	-10.8282
▁비트코인	-10.8283
▁결승	-10.8285
따	-10.8285
급여	-10.8288
▁연대	-10.8289
io	-10.8289
▁둘째	-10.8291
▁반전	-10.8293
▁진출을	-10.8295
▁수능	-10.8296
▁적지	-10.8296
▁강화해	-10.83
pro	-10.8301
▁성남시	-10.8303
▁중에서	-10.8305
되었고	-10.8311
다니	-10.8312
▁참조	-10.8314
▁타자	-10.8318
▁몰아	-10.8319
▁기업과	-10.8319
▁한국과	-10.832
▁부착	-10.8322
루수	-10.8323
드는	-10.8324
▁섬유	-10.8324
▁전월	-10.8326
농가	-10.8327
▁시대에	-10.8328
▁나타내는	-10.8334
▁높아지고	-10.8334
한테	-10.8334
▁기록하고	-10.8335
▁확보를	-10.834
▁지지를	-10.8344
월말	-10.8344
▁신곡	-10.8346
량은	-10.8346
▁덕분에	-10.8347
이즈	-10.8349
▁쓰고	-10.8356
▁장르	-10.8357
▁월드	-10.8359
▁머	-10.836
▁시간에	-10.8362
▁수상자	-10.8365
ual	-10.8376
▁한국에서	-10.8377
▁맞서	-10.8377
되거나	-10.8379
▁이외에도	-10.8381
kr	-10.8382
▁곳에서	-10.8383
▁레드	-10.8383
스코	-10.8388
▁출장	-10.8388
▁선전	-10.8389
▁잘못된	-10.839
▁전일	-10.839
▁기대감을	-10.8392
cl	-10.8393
▁발생하지	-10.84
시의회	-10.84
pl	-10.8401
▁원격	-10.8404
▁increased	-10.8405
▁약속했다	-10.8406
▁차이	-10.8409
▁종교	-10.841
롬	-10.8413
▁방탄소년단	-10.8415
▁알리	-10.8415
▁급증	-10.8416
둔	-10.8416
▁시리아	-10.8418
곳에	-10.8419
▁묘	-10.842
줘	-10.8424
▁일은	-10.8426
학원	-10.8428
▁발열	-10.8429
단을	-10.8431
▁스토리	-10.8434
▁price	-10.8438
▁박사	-10.8438
▁돌봄	-10.8438
▁감성	-10.844
▁굴	-10.8441
법이	-10.8441
지게	-10.8444
갔	-10.8446
사례	-10.8448
▁봉사	-10.8448
▁논의가	-10.845
▁회수	-10.845
▁자국	-10.845
전력	-10.8452
▁보이	-10.8455
▁군산	-10.8455
▁제시한	-10.8456
대한	-10.8457
▁평양	-10.846
▁넘	-10.846
▁무인	-10.846
역사	-10.846
▁스크린	-10.8462
미터	-10.8462
▁영광	-10.8464
▁당사	-10.8466
▁과도한	-10.8466
▁유족	-10.8467
봤다	-10.8471
▁role	-10.8471
▁보여준다	-10.8473
all	-10.8476
▁위법	-10.8482
▁당부	-10.8483
남부	-10.8484
과정에서	-10.8489
정보를	-10.8489
램	-10.8491
▁산업통상자원부	-10.8491
속도	-10.8495
▁끝내	-10.8501
▁귀국	-10.8502
최고	-10.8502
▁살인	-10.8505
▁보건소	-10.8505
▁꼽았다	-10.8506
▁experience	-10.8507
률은	-10.8508
밍	-10.851
▁삶	-10.8511
▁제공해	-10.8512
자에	-10.8515
▁걸그룹	-10.8515
▁그만큼	-10.8515
▁봐	-10.8519
운용	-10.8521
▁실적이	-10.8522
청사	-10.8522
▁real	-10.8523
▁known	-10.8524
▁값을	-10.8525
▁물품	-10.853
스럽다	-10.8531
ally	-10.8533
▁있었지만	-10.8533
▁것이라	-10.8537
▁연봉	-10.8538
▁모습이다	-10.8538
▁약세	-10.854
▁일원	-10.8543
▁몰	-10.8544
ize	-10.8545
웠다	-10.8546
▁review	-10.8546
하다고	-10.8547
타수	-10.8548
▁담고	-10.8548
▁please	-10.8548
▁데다	-10.8551
보안	-10.8552
▁이르는	-10.8553
찌	-10.8554
홀딩스	-10.8556
▁파괴	-10.8558
▁이상반응	-10.8559
안보	-10.8561
호가	-10.8562
▁과학기술	-10.8565
요법	-10.8567
사람	-10.8568
▁않기	-10.8569
렛	-10.857
▁끝까지	-10.8573
MS	-10.8574
▁증가하는	-10.8577
▁정책에	-10.8578
마이	-10.8579
겼다	-10.858
▁시선을	-10.8583
홈	-10.8584
▁시대를	-10.8588
경쟁	-10.859
경찰서	-10.859
케어	-10.8591
▁초점을	-10.8591
희망	-10.8592
▁혈관	-10.8593
▁수리	-10.8593
▁되도록	-10.8594
▁돌입	-10.8594
ver	-10.8595
분에	-10.8598
▁그려	-10.8599
▁꼬	-10.86
ice	-10.8601
▁비중은	-10.8602
▁박람회	-10.8603
▁칠	-10.8604
▁수치다	-10.8606
▁사업으로	-10.8608
동의	-10.861
벤	-10.8614
▁일치	-10.8617
ite	-10.8618
▁아마존	-10.8619
mon	-10.8622
▁드	-10.8622
로서의	-10.8624
▁되길	-10.8625
▁levels	-10.8625
▁점이다	-10.8627
▁저렴한	-10.8629
▁협상을	-10.8634
▁주사	-10.8635
▁소독	-10.8635
▁과연	-10.8638
눈	-10.8641
』	-10.8641
보통	-10.8642
▁유일한	-10.8643
▁공고	-10.8646
▁정규직	-10.8647
▁성향	-10.8649
▁예상되는	-10.8649
영업	-10.865
▁예방접종	-10.8651
▁pain	-10.8651
톡	-10.8653
▁이마트	-10.8654
합의	-10.8655
▁지역구	-10.8661
▁받기	-10.8662
▁이끄는	-10.8662
빅	-10.8663
▁성격	-10.8663
▁제조업체	-10.8666
충남	-10.8667
계획을	-10.867
직원	-10.8672
▁줄이기	-10.8675
▁개헌	-10.8676
▁관할	-10.8679
중소기업	-10.868
▁과일	-10.8683
▁용인	-10.8686
▁기존에	-10.8686
의약품	-10.8689
▁기각	-10.869
스크	-10.8691
▁체결했다고	-10.8692
시아	-10.8696
▁예정된	-10.8697
▁후에	-10.8698
▁공동체	-10.8701
▁야권	-10.8701
단계로	-10.8702
지검	-10.8703
▁보험사	-10.8706
▁대안	-10.8706
▁넣어	-10.8706
컨	-10.8709
▁공화당	-10.8709
▁빠져	-10.8711
▁때도	-10.8712
▁위상	-10.8713
▁고양시	-10.8714
▁슬	-10.8714
▁혼란	-10.8719
섹	-10.872
▁행위를	-10.8724
nc	-10.8726
ose	-10.8727
▁올바른	-10.8728
모든	-10.8731
▁조항	-10.8735
▁호조	-10.8737
▁정확히	-10.8737
▁라디오	-10.8742
▁행정안전부	-10.8743
▁메이저리그	-10.8744
▁줄여	-10.8746
sa	-10.8752
이던	-10.8752
니스	-10.8759
▁연금	-10.8759
▁파워	-10.8761
▁무상	-10.8761
▁순환	-10.8761
▁market	-10.8761
놀이	-10.8762
▁청원	-10.8767
▁다섯	-10.8772
▁전신	-10.8773
▁의혹이	-10.8774
▁point	-10.8774
▁대변인	-10.8777
▁신속하게	-10.8778
▁lower	-10.8778
▁눈을	-10.8781
▁management	-10.8782
복합	-10.8782
▁구역	-10.8788
▁공조	-10.8788
▁나타내고	-10.8789
▁se	-10.8791
교수	-10.8791
▁발의	-10.8791
▁입지	-10.8791
▁테이블	-10.8791
▁가져	-10.8793
▁size	-10.88
앙	-10.8801
▁※	-10.8802
▁도서	-10.8802
▁없지만	-10.8805
하더라도	-10.8806
▁추후	-10.8806
▁폐기	-10.8807
▁발령	-10.8807
▁에이	-10.8808
▁맥주	-10.8808
▁예상치	-10.8809
▁함유	-10.8812
▁도발	-10.8813
▁임대료	-10.8815
패를	-10.8816
▁발전에	-10.8817
▁check	-10.8822
▁유지했다	-10.8823
▁마스크를	-10.8825
사설	-10.8827
▁상가	-10.8828
▁담았다	-10.883
▁아니고	-10.8832
▁필터	-10.8832
체제	-10.8833
내용	-10.8835
▁유동성	-10.8835
▁이스라엘	-10.8836
▁이혼	-10.8837
▁발표된	-10.8837
▁거주하는	-10.8838
▁신인	-10.8839
▁performance	-10.8841
었	-10.8842
▁factors	-10.8843
om	-10.8844
스의	-10.8845
프리	-10.8845
▁암호화폐	-10.8845
함이	-10.8846
주고	-10.8846
▁매월	-10.8847
요금	-10.8848
볼넷	-10.8856
▁범위를	-10.8856
▁준비하고	-10.8856
▁sm	-10.8856
▁신뢰를	-10.8856
AR	-10.8858
▁흐름을	-10.886
만이	-10.886
주민	-10.8862
yl	-10.8862
▁무대에	-10.8866
▁did	-10.8866
포트	-10.8866
▁먹거리	-10.8868
피안타	-10.8869
▁군민	-10.8873
po	-10.8874
▁주최	-10.8877
▁당분간	-10.8877
▁돌려	-10.8878
▁순매수	-10.8881
소송	-10.8881
▁Y	-10.8885
▁경매	-10.8886
▁향상을	-10.8886
내년	-10.8887
유플러스	-10.8887
▁맞지	-10.8889
▁배려	-10.889
▁협력해	-10.8891
▁lot	-10.8891
실장	-10.8892
▁하자	-10.8899
▁통하여	-10.8902
수단	-10.8903
▁human	-10.8903
해양	-10.8904
▁말한	-10.8904
▁음식을	-10.8905
회계	-10.8907
▁중재	-10.8907
▁죄	-10.8909
칼	-10.8909
▁나타나는	-10.8911
개교	-10.8912
▁에스	-10.8913
▁회로	-10.8915
▁진행해	-10.8915
들로부터	-10.8917
전화번호	-10.8919
▁어떠한	-10.8923
▁▁▁▁	-10.8925
▁거친	-10.8925
▁중국에서	-10.8927
▁아니면	-10.8927
▁patient	-10.8927
▁군은	-10.893
▁경우도	-10.8932
▁way	-10.8932
▁휴대전화	-10.8933
‧	-10.8933
sign	-10.8935
▁신문	-10.8936
▁먹고	-10.8941
▁차트	-10.8942
▁연주	-10.8945
조에	-10.8945
▁역을	-10.8946
흔	-10.895
룰	-10.8952
▁당내	-10.8953
▁지인	-10.8954
릿	-10.8955
▁총재	-10.8956
▁Act	-10.8956
▁total	-10.8956
▁새정치민주연합	-10.8957
▁고향	-10.8959
관은	-10.896
짜리	-10.896
리가	-10.8962
▁있으니	-10.8963
▁권한	-10.8963
▁이것은	-10.8964
▁밟	-10.8964
▁위촉	-10.8964
께서	-10.8965
산업의	-10.8969
▁처방	-10.8973
골을	-10.8975
ty	-10.8975
▁경우에	-10.8976
▁자유롭게	-10.8978
▁구성됐다	-10.8988
▁판정	-10.8989
향후	-10.899
▁재직	-10.8992
▁효과적으로	-10.8997
▁클래스	-10.8999
▁시술	-10.9003
▁No	-10.9003
▁단순히	-10.9004
기계	-10.9005
▁환경에서	-10.9005
▁시사	-10.9006
▁vs	-10.9006
▁동구	-10.9006
▁집을	-10.9007
편의	-10.9009
지법	-10.9009
▁서부	-10.901
▁점에	-10.9013
kt	-10.9015
▁공통	-10.9015
마당	-10.9017
▁부문에서	-10.9017
항에	-10.9019
ile	-10.9021
센터를	-10.9022
▁창립	-10.9022
▁승인을	-10.9023
μ	-10.9024
였	-10.9025
▁줄일	-10.9025
▁여부에	-10.9025
▁화이트	-10.9026
▁의무화	-10.9026
▁가격에	-10.9027
텐	-10.9027
▁울산시	-10.903
▁평균자책점	-10.903
▁response	-10.9031
시설을	-10.9032
수입	-10.9032
▁좋아하는	-10.9033
▁나노	-10.9034
▁What	-10.9035
▁도구	-10.9035
▁large	-10.9036
▁안녕하세요	-10.9037
▁방송을	-10.9038
전화	-10.9039
▁것이고	-10.904
▁보일	-10.904
▁예방을	-10.9042
이라도	-10.9042
▁fa	-10.9043
▁가능할	-10.9043
▁있었고	-10.9047
▁실력	-10.9047
▁않았지만	-10.9048
음을	-10.905
▁피고인	-10.9052
굿	-10.9053
닥	-10.9058
ven	-10.9062
tri	-10.9068
▁기조	-10.9068
짓	-10.9069
지면서	-10.907
▁늦	-10.9071
교실	-10.9071
▁차이를	-10.9072
▁고객을	-10.9075
▁비용이	-10.9077
▁하향	-10.9081
▁유명한	-10.9081
▁콜	-10.9084
▁view	-10.9086
▁surface	-10.9089
Z	-10.909
▁세계적으로	-10.9093
▁안전하게	-10.9098
▁두께	-10.9098
▁물량	-10.91
반도체	-10.91
배우	-10.9101
▁개인의	-10.9101
▁뒤에	-10.9103
▁medical	-10.9106
▁적립	-10.9106
if	-10.9109
행동	-10.9109
▁점수를	-10.911
▁설치된	-10.9111
▁점수	-10.9113
▁확산을	-10.9113
▁분노	-10.9113
▁토론회	-10.9116
ak	-10.9118
▁갖는다	-10.9122
▁주장을	-10.9125
소비	-10.9126
▁보육	-10.9126
bi	-10.9126
ep	-10.9129
▁들어서	-10.9129
▁트렌드	-10.913
▁냉	-10.9134
▁누리	-10.9135
군에	-10.9136
제공	-10.9138
▁지내	-10.9139
▁론칭	-10.9142
▁당했다	-10.9143
▁시민들이	-10.9147
백신	-10.9148
▁화웨이	-10.9148
목표	-10.9148
홀에서	-10.9149
▁상영	-10.915
퓨	-10.915
▁지배	-10.9151
으니	-10.9151
ue	-10.9154
▁쇼	-10.9155
▁상무	-10.9156
▁건축물	-10.9157
더니	-10.9157
년째	-10.9159
▁내놓	-10.916
▁이어가고	-10.9161
▁콘셉트	-10.9163
▁쪽	-10.9163
▁마주	-10.9166
▁여수	-10.9166
▁정부에	-10.917
▁규모를	-10.9171
아웃	-10.9172
▁상시	-10.9172
▁성장할	-10.9174
로운	-10.9176
▁q	-10.9179
▁계절	-10.9181
근로	-10.9182
▁day	-10.9182
▁싶어	-10.9183
가요	-10.9184
▁경기에	-10.9185
▁시나리오	-10.9187
연패	-10.9187
위안	-10.9187
▁강력	-10.9188
산단	-10.9188
▁관리에	-10.9191
▁강화할	-10.9192
▁제공하기	-10.9195
▁빠지	-10.9195
▁옷	-10.9196
▁팀의	-10.9196
▁기준금리	-10.9196
하신	-10.9197
▁확립	-10.9199
▁도서관	-10.92
▁current	-10.9201
set	-10.9203
▁케	-10.9203
차를	-10.9207
플랫폼	-10.9208
▁하더라도	-10.9211
▁특유의	-10.9212
준비	-10.9212
▁홈페이지에서	-10.9214
▁통일부	-10.9215
▁그에	-10.9215
전쟁	-10.9216
▁신약	-10.9218
▁Do	-10.9219
mer	-10.9219
▁invention	-10.922
▁service	-10.9221
▁야외	-10.9222
마케팅	-10.9223
률을	-10.9223
▁내야	-10.9223
캠프	-10.9225
▁아빠	-10.9226
만원에	-10.923
▁안전사고	-10.923
▁힘들	-10.9231
▁부각	-10.9231
▁바꿔	-10.9232
wi	-10.9235
▁_	-10.9236
모임	-10.9236
비스	-10.9236
▁규정을	-10.9237
▁이제는	-10.9237
베르	-10.9238
▁시공	-10.9238
▁가능성은	-10.9241
▁막을	-10.9244
▁역사를	-10.9244
DC	-10.9245
▁줄이고	-10.9246
▁후보로	-10.9246
▁해결하기	-10.9248
▁드리	-10.9251
▁양식	-10.9256
하되	-10.9258
ish	-10.9259
▁대로	-10.926
▁교수가	-10.9261
▁구성해	-10.9262
개인	-10.9266
▁주석	-10.9267
▁조사한	-10.9267
▁전북도	-10.9267
사이트	-10.9269
▁중점	-10.927
▁선사	-10.9271
▁플랫폼을	-10.9272
▁필요할	-10.9274
▁안심	-10.9276
▁상정	-10.9277
▁주민들의	-10.9285
폴	-10.9289
bp	-10.9295
▁거래소	-10.9296
▁대전시	-10.9299
sh	-10.9299
ab	-10.9303
▁연다	-10.9303
▁amount	-10.9303
▁멀티	-10.9304
▁화상	-10.9304
짜	-10.9304
▁녹색	-10.9304
▁즐기는	-10.9305
▁육군	-10.9306
▁내놨다	-10.9308
롱	-10.9308
▁제안한	-10.9311
▁회동	-10.9312
오프	-10.9314
▁content	-10.9316
이므로	-10.932
▁ch	-10.932
▁영동	-10.9322
▁사람들의	-10.9323
셰	-10.9324
▁최고기온은	-10.9329
▁세상을	-10.933
스쿨	-10.9336
▁선호	-10.934
▁보험료	-10.9341
▁포함할	-10.9343
▁행사에	-10.9345
공학	-10.9345
▁환자에서	-10.9347
하시	-10.9348
▁행정부	-10.9352
액이	-10.9352
▁반영한	-10.9354
▁비율은	-10.9355
▁독자	-10.9356
스를	-10.9358
특위	-10.9358
▁효과적인	-10.936
융합	-10.936
▁이천	-10.936
▁오해	-10.9361
소프트	-10.9362
▁결심	-10.9363
하니	-10.9366
모바일	-10.9367
사회적	-10.9369
▁수상했다	-10.9369
▁찾고	-10.937
▁규제를	-10.9371
▁선택할	-10.9375
▁줄이는	-10.9375
▁중국과	-10.9376
▁스튜디오	-10.9377
▁중국은	-10.9377
려면	-10.9377
▁이밖에	-10.9379
▁남성이	-10.9379
▁독점	-10.9381
팬	-10.9382
▁연기를	-10.9382
임금	-10.9383
담당	-10.9383
▁꼽힌다	-10.9383
차로	-10.9384
▁달했다	-10.9384
부장판사	-10.9384
▁그렇지	-10.9385
▁합리적인	-10.9385
의료원	-10.9388
▁지켜보	-10.9389
▁여론	-10.939
▁embodiment	-10.9391
▁syndrome	-10.9391
▁연구가	-10.9393
▁대응을	-10.9395
경찰은	-10.9396
축구	-10.9398
▁강행	-10.9401
▁구매할	-10.9402
▁붕괴	-10.9402
함과	-10.9403
젤	-10.9405
▁개척	-10.9405
성은	-10.9409
▁요건	-10.9412
▁진실	-10.9413
▁선진국	-10.9417
▁진보	-10.9419
su	-10.942
▁규명	-10.9425
▁성적을	-10.9425
▁베이징	-10.9427
▁집권	-10.9427
book	-10.9427
▁내내	-10.9433
AI	-10.9436
▁연동	-10.9438
▁지닌	-10.9438
다음	-10.9438
▁과태료	-10.9441
ho	-10.9441
▁출자	-10.9443
▁형식	-10.9444
▁제품이	-10.9445
▁컸다	-10.9446
협동조합	-10.9446
▁포함됐다	-10.9446
협정	-10.9447
▁우리은행	-10.9447
▁이들을	-10.9448
▁변호사는	-10.9449
▁general	-10.945
밭	-10.945
내는	-10.9451
ight	-10.9451
▁소집	-10.9452
▁\%	-10.9453
▁맛을	-10.9455
▁충주	-10.9456
ST	-10.9456
▁경제가	-10.9457
▁가야	-10.9457
논	-10.9459
▁느낌	-10.9459
▁않을까	-10.9462
▁저희가	-10.9463
▁무시	-10.9463
▁기간을	-10.9463
▁제휴	-10.9464
스와	-10.9466
▁상상	-10.9467
▁맺	-10.9467
▁테마	-10.9469
▁조리	-10.947
실점	-10.947
fe	-10.947
▁저감	-10.9472
의무	-10.9473
국민은행	-10.9474
▁직장인	-10.9475
▁혁신을	-10.9476
▁코치	-10.9477
▁relationship	-10.9478
▁수혜	-10.9478
벤처	-10.9479
▁中	-10.948
▁operation	-10.9481
▁드러나	-10.9481
▁기상	-10.9482
▁어려움이	-10.9484
했어요	-10.9486
▁브렉시트	-10.9486
▁회사가	-10.9487
▁지원해	-10.9487
▁아이돌	-10.9487
▁가사	-10.9488
▁선수단	-10.9489
웨어	-10.949
▁회전	-10.9491
▁structure	-10.9495
▁기후	-10.9496
았	-10.9496
으로써	-10.9496
▁화려한	-10.9499
▁해군	-10.95
했음	-10.9502
▁양자	-10.9502
▁conditions	-10.9504
▁He	-10.9504
▁소요	-10.9507
故	-10.9508
여자	-10.9509
▁수령	-10.9512
▁age	-10.9513
▁클래식	-10.9515
▁탄소	-10.9516
▁조치가	-10.9518
측은	-10.952
▁치킨	-10.9522
▁관여	-10.9523
뱅크	-10.9526
팜	-10.9526
이제	-10.9527
▁air	-10.9528
▁place	-10.9528
힘	-10.9528
들어	-10.953
▁기관은	-10.9531
숲	-10.9532
톱	-10.9534
▁기아차	-10.9534
▁올해부터	-10.9536
▁산업부	-10.9537
▁동결	-10.9538
gu	-10.9539
▁지역주민	-10.954
▁관해	-10.9543
서도	-10.9543
삭	-10.9544
사에	-10.9548
▁아무	-10.9549
▁팀을	-10.9551
ative	-10.9553
▁children	-10.9554
ig	-10.9554
▁발표할	-10.9555
▁짜	-10.9556
▁탈퇴	-10.9557
▁매달	-10.9559
계약을	-10.9559
변경	-10.956
효율	-10.9561
▁있었습니다	-10.9564
▁한계	-10.9565
팀장	-10.9565
당국	-10.9568
hi	-10.9568
큰	-10.9569
gt	-10.9569
si	-10.9569
▁구축을	-10.957
▁앱을	-10.9571
▁사용하고	-10.9573
▁관계가	-10.9575
▁창작	-10.9577
▁문화를	-10.9579
해요	-10.958
▁선정해	-10.958
민주	-10.9582
커피	-10.9583
해줄	-10.9585
시청	-10.9585
▁불과하다	-10.9587
▁혼합	-10.9588
▁복잡	-10.9589
▁acid	-10.9591
▁conducted	-10.9593
▁치열한	-10.9594
채용	-10.9595
▁시민의	-10.9595
▁설득	-10.96
▁국회에	-10.9601
▁방치	-10.9602
▁실시간으로	-10.9603
▁환자에게	-10.9608
▁출혈	-10.9613
회담	-10.9613
▁경찰청	-10.9613
▁부정적	-10.9618
▁year	-10.9618
샵	-10.962
▁국민들의	-10.9623
▁선수가	-10.9625
상에서	-10.9628
▁점유율	-10.9629
소방서	-10.963
▁열정	-10.9631
지대	-10.9634
정부가	-10.9635
▁판매하는	-10.9635
▁인적	-10.9635
▁횡령	-10.9635
▁덮	-10.9636
▁것이며	-10.9637
▁가계	-10.9639
어서	-10.964
▁주자	-10.9641
▁reported	-10.9642
▁연인	-10.9645
놀	-10.9649
▁후보자는	-10.9652
▁플라스틱	-10.9652
}}	-10.9653
▁선보이는	-10.9655
이노베이션	-10.9655
▁불가	-10.9657
▁당국	-10.9659
▁철거	-10.9659
▁페스티벌	-10.9662
수당	-10.9663
▁눈이	-10.9665
▁떨	-10.9668
▁면세점	-10.9668
▁논의했다	-10.967
부의	-10.967
log	-10.9671
▁때에는	-10.9671
▁유지할	-10.9673
pa	-10.9674
▁어제	-10.9674
▁연방	-10.9676
▁보고서	-10.9678
▁students	-10.9679
▁강화하는	-10.9679
▁살고	-10.968
▁가서	-10.9681
▁총장은	-10.9682
▁솔	-10.9682
센터장	-10.9682
▁저희는	-10.9683
pe	-10.9683
▁cause	-10.9684
▁왼쪽	-10.9684
▁명예	-10.9686
▁광장	-10.9689
다리	-10.9689
공유	-10.969
▁비중을	-10.969
▁쟁점	-10.9692
▁모르는	-10.9695
▁sh	-10.9696
▁영하	-10.9698
▁종양	-10.97
eo	-10.9702
닛	-10.9702
▁원인을	-10.9704
▁제공합니다	-10.9706
정지	-10.9708
렉	-10.9708
아동	-10.9708
▁설명회	-10.9712
▁부작용	-10.9714
▁보조금	-10.9714
ian	-10.9717
▁학원	-10.9717
정비	-10.9717
수도	-10.9718
었습니다	-10.9718
▁기간에	-10.9722
신호	-10.9723
▁임기	-10.9724
집단	-10.9725
▁흡연	-10.9725
▁정지	-10.9727
▁많고	-10.9728
▁독특한	-10.9728
▁서면	-10.9737
▁찾았다	-10.9737
▁해결을	-10.9737
▁폐기물	-10.9739
▁유망	-10.9739
▁차량을	-10.974
▁사용하지	-10.9741
당은	-10.9741
▁놀이	-10.9742
▁최소화	-10.9742
▁준비했다	-10.9742
구매	-10.9745
▁타이틀	-10.9747
▁사건에	-10.9747
센트	-10.9748
▁주인	-10.9748
▁자연스럽게	-10.9749
▁발생해	-10.975
▁각국	-10.975
터미널	-10.9752
대와	-10.9753
▁오바마	-10.9755
골프	-10.9756
▁블룸버그	-10.9757
▁성폭력	-10.9758
상에	-10.9759
저는	-10.976
▁서울시는	-10.976
▁back	-10.9761
전망	-10.9761
▁당원	-10.9761
득점	-10.9763
▁퇴	-10.9768
빠	-10.9769
der	-10.977
▁맹	-10.9771
점은	-10.9771
▁They	-10.9772
▁인용	-10.9774
▁오류	-10.9774
▁연극	-10.9774
▁조건을	-10.9775
▁이탈	-10.9776
격차	-10.9777
▁개성	-10.9778
▁맞춘	-10.978
▁프로모션	-10.9784
▁신세계	-10.9784
▁듯한	-10.9784
▁조성을	-10.9784
▁예외	-10.9787
▁합의했다	-10.9788
▁수행할	-10.9791
▁환율은	-10.9792
▁생각하고	-10.9793
보드	-10.9794
▁individual	-10.9796
vo	-10.9796
▁평택	-10.9799
▁신용카드	-10.98
짝	-10.98
▁중복	-10.98
▁반응이	-10.9802
멀	-10.9803
▁지원에	-10.9805
▁양측	-10.9805
▁휴식	-10.9806
▁해당한다	-10.9807
▁청렴	-10.9807
됐다는	-10.9808
▁프레임	-10.981
▁했고	-10.9811
▁스위스	-10.9811
▁농업인	-10.9812
···	-10.9812
▁규정하고	-10.9812
▁전주시	-10.9814
▁추가적인	-10.9817
▁이로	-10.9823
gm	-10.9823
▁서울중앙지검	-10.9823
▁play	-10.9824
▁중순	-10.9827
▁많	-10.9829
▁바닥	-10.9829
▁금융감독원	-10.9831
▁추정된다	-10.9832
▁trials	-10.9833
▁뽑	-10.9835
▁기관이	-10.9835
▁technology	-10.9839
▁바이	-10.984
▁기록해	-10.9844
▁소식에	-10.9846
셨	-10.9846
▁연설	-10.985
}^{	-10.985
▁상하이	-10.9852
▁탈락	-10.9853
▁부회장은	-10.9853
▁근절	-10.9855
지표	-10.9855
```	-10.9857
▁display	-10.9865
▁측에	-10.9868
캐	-10.9872
▁최씨	-10.9872
▁밴드	-10.9873
시스	-10.9877
▁도달	-10.988
▁화물	-10.9881
▁해안	-10.9885
▁번째로	-10.9888
▁인가	-10.989
▁화성	-10.9891
▁집행유예	-10.9892
▁최고위원	-10.9893
▁지적이다	-10.9894
▁소수	-10.9894
▁선생님	-10.9894
▁소스	-10.9895
▁고려할	-10.9896
▁없었던	-10.9896
▁항공사	-10.9899
▁웹사이트	-10.9899
▁담겼다	-10.9906
ard	-10.9906
전자는	-10.9907
▁항의	-10.9907
▁성공적인	-10.9908
서울시	-10.9909
버리	-10.9911
▁진전	-10.9911
▁놀	-10.9912
▁기념해	-10.9913
▁흔들	-10.9918
▁learning	-10.992
▁의류	-10.992
▁종로구	-10.9921
▁음주	-10.9922
our	-10.9922
▁담보	-10.9923
워크	-10.9923
▁가속화	-10.9925
▁뛰어	-10.9925
상은	-10.9926
▁이송	-10.9927
▁내릴	-10.9929
▁대면	-10.993
▁really	-10.9931
인치	-10.9932
▁알렸다	-10.9934
▁하위	-10.9935
▁운영할	-10.9935
▁시청자	-10.9935
▁흑	-10.9937
▁self	-10.9937
단독	-10.9938
}_{	-10.9938
▁shown	-10.9941
광장	-10.9941
되지만	-10.9944
외교	-10.9945
▁제품으로	-10.9945
이용	-10.9946
▁않았습니다	-10.9947
▁일일	-10.995
▁시작됐다	-10.9951
▁수준에	-10.9951
목적	-10.9952
▁싸움	-10.9953
앉	-10.9954
에스	-10.9955
▁영업이익이	-10.9957
▁출생	-10.9958
▁space	-10.9958
발생	-10.9958
▁국적	-10.9959
▁안전관리	-10.9959
▁lh	-10.9959
식이	-10.996
▁주지	-10.9962
▁addition	-10.9964
▁한도	-10.9967
▁나오지	-10.9968
▁사업이다	-10.9969
해당	-10.997
▁going	-10.997
▁수확	-10.9971
▁선별	-10.9973
▁여성이	-10.9975
자재	-10.9976
▁고장	-10.9978
청은	-10.9982
▁세계에서	-10.9984
▁업그레이드	-10.9985
he	-10.9986
▁압력	-10.9986
▁합의를	-10.9986
▁출시한	-10.9986
▁할머니	-10.9992
▁국가의	-10.9993
괴	-10.9993
▁실시할	-10.9994
▁대표를	-10.9995
▁효능	-10.9995
▁적용할	-10.9997
▁마크	-10.9997
었지만	-11
▁판매를	-11.0001
▁생산량	-11.0001
▁효율적인	-11.0001
▁접한	-11.0002
▁common	-11.0003
▁의원과	-11.0004
▁여성의	-11.0005
▁파티	-11.0005
▁유럽연합	-11.0005
▁방지를	-11.0008
▁의료기기	-11.0009
▁목소리	-11.0012
▁장기화	-11.0013
▁국정원	-11.0017
▁안타	-11.0018
▁케이블	-11.0022
▁만들어진	-11.0022
▁기원	-11.0023
ox	-11.0024
▁타율	-11.0025
▁재단	-11.0026
▁장식	-11.0028
▁too	-11.0028
자들	-11.0029
▁떠오르네	-11.0029
mi	-11.003
보상	-11.0031
중이다	-11.0031
▁고도화	-11.0032
▁】	-11.0033
▁let	-11.0035
form	-11.0037
▁확	-11.0038
▁원인이	-11.0039
현황	-11.004
▁선고했다	-11.0041
▁장기간	-11.0041
▁조만간	-11.0041
▁불가능	-11.0041
한데	-11.0043
▁계층	-11.0044
▁편의	-11.0044
▁차질	-11.0044
▁기념식	-11.0047
럽	-11.0048
▁국경	-11.0048
▁영장	-11.005
▁예정이며	-11.0051
▁그러	-11.0051
▁추격	-11.0051
▁심각	-11.0052
▁늘어나	-11.0052
▁발송	-11.0052
▁시설물	-11.0053
man	-11.0053
▁대상을	-11.0054
▁성명을	-11.0056
▁재차	-11.0057
▁부스	-11.0058
▁신청할	-11.0058
▁확인한	-11.0059
▁줬다	-11.0062
▁skin	-11.0062
▁노력이	-11.0062
▁돕기	-11.0062
맥스	-11.0062
▁고려한	-11.0064
코어	-11.0065
▁돕는	-11.0065
▁다할	-11.0066
▁경찰관	-11.0066
▁거론	-11.0066
▁떨어지는	-11.007
ence	-11.0073
소식	-11.0074
전이	-11.0077
▁상금	-11.0083
▁소음	-11.0083
이미	-11.0085
▁도시재생	-11.0088
▁문화예술	-11.0089
남북	-11.0089
▁편입	-11.0089
▁함수	-11.009
▁도중	-11.0092
▁금리인상	-11.0093
근로자	-11.0095
▁아무런	-11.0098
▁약간	-11.0098
▁이사장은	-11.01
▁고양	-11.0101
▁자율주행	-11.0102
▁게이트	-11.0102
▁심한	-11.0102
▁target	-11.0104
▁표명	-11.0106
▁기업으로	-11.0107
인은	-11.0107
▁워크숍	-11.0107
▁기법	-11.0108
▁수색	-11.0108
▁묻	-11.011
변화	-11.011
▁훈련을	-11.0112
▁performed	-11.0112
▁개최한다고	-11.0115
▁필요성을	-11.0117
fa	-11.0118
ake	-11.0121
▁마련할	-11.0121
만여	-11.0121
▁말하는	-11.0122
▁위안화	-11.0123
▁식물	-11.0125
졸	-11.0125
▁pe	-11.0126
까지는	-11.0126
▁미국은	-11.0127
드리겠습니다	-11.013
▁나은	-11.013
▁difference	-11.0135
▁전반적인	-11.0136
스테	-11.0137
▁허리	-11.0139
▁생활을	-11.0139
▁Q	-11.0141
▁예선	-11.0141
▁게시	-11.0141
▁부총리	-11.0144
▁내년부터	-11.0144
▁발간	-11.0144
▁여건	-11.0145
▁청취	-11.0149
청구	-11.0149
▁공개됐다	-11.015
▁school	-11.0151
닷컴	-11.0153
▁고속	-11.0154
▁유저	-11.0154
▁자동으로	-11.0155
▁less	-11.0155
▁마리	-11.0156
잘	-11.0159
▁부정적인	-11.016
▁천연	-11.0162
고속도로	-11.0162
▁프로젝트를	-11.0162
▁경고했다	-11.0162
▁재원	-11.0165
▁열릴	-11.0165
▁다리	-11.0166
▁주목을	-11.0166
!'	-11.0166
교육감	-11.0168
▁것인가	-11.0169
▁숨진	-11.0169
핵	-11.017
▁내놓은	-11.017
▁입건	-11.0171
레스	-11.0173
▁소중한	-11.0173
탈삼진	-11.0175
호의	-11.0177
▁소셜	-11.0178
▁종이	-11.0179
소비자	-11.0179
영역	-11.0181
보기	-11.0182
▁적용한	-11.0183
▁재미	-11.0183
▁워싱턴	-11.0185
▁안된다	-11.0185
▁제기됐다	-11.0189
드림	-11.019
▁파악하고	-11.0193
▁재활용	-11.0196
▁보여주고	-11.0197
▁집값	-11.0199
▁몸을	-11.0202
▁감안하면	-11.0207
gb	-11.0208
ea	-11.0209
▁일시	-11.0209
▁provided	-11.021
▁중앙은행	-11.021
수소	-11.0211
▁시너지	-11.0211
굴	-11.0213
▁지속될	-11.0214
▁언	-11.0216
▁넓은	-11.0218
▁운영에	-11.0218
▁위성	-11.0219
▁떨어지	-11.0221
▁완공	-11.0222
▁녹화	-11.0222
▁규모다	-11.0223
▁고용노동부	-11.0223
▁왜곡	-11.023
▁인증을	-11.0231
▁들어간	-11.0231
▁협력사	-11.0232
프라	-11.0235
구는	-11.0236
▁기판	-11.0239
▁애니메이션	-11.0239
▁여권	-11.0243
▁다르게	-11.0244
▁지역별	-11.0245
해준다	-11.0248
▁목포	-11.0253
명령	-11.0255
les	-11.0256
gi	-11.0257
▁분위기가	-11.0257
▁participants	-11.0257
▁인체	-11.0261
▁있겠다	-11.0262
▁받았	-11.0262
▁시세	-11.0262
트라	-11.0264
▁De	-11.0264
▁사정	-11.0267
▁contract	-11.0267
곳의	-11.027
▁주식을	-11.027
▁한전	-11.0272
▁거절	-11.0274
▁신호를	-11.0274
▁cctv	-11.0276
유로	-11.0278
▁검거	-11.028
▁미군	-11.0282
▁전후	-11.0282
oo	-11.0282
쇄	-11.0283
▁최저기온은	-11.0283
▁감각	-11.0286
▁흉	-11.0288
▁다채로운	-11.0288
▁아웃	-11.0289
간다	-11.0291
트를	-11.0293
▁초래	-11.0295
단의	-11.0295
ulation	-11.0295
▁지도자	-11.0296
ten	-11.0297
▁유포	-11.0298
▁마이너스	-11.0299
ste	-11.03
▁불편을	-11.03
▁쥐	-11.0301
팀은	-11.0304
▁모델로	-11.0304
역량	-11.0305
▁매출을	-11.0309
▁지원하기	-11.031
하라는	-11.031
▁지정된	-11.0311
▁않아도	-11.0314
▁응시	-11.0314
▁인원	-11.0317
나요	-11.0317
▁비정규직	-11.0319
▁계열	-11.032
▁금융권	-11.0323
▁사용자가	-11.0324
▁경우에도	-11.0324
▁고교	-11.0326
▁노력하고	-11.0328
▁흐름	-11.0328
이니	-11.0332
▁쉬운	-11.0334
▁개관	-11.0336
확	-11.0337
▁레벨	-11.0338
매수	-11.0339
▁지지율	-11.034
▁금융기관	-11.0341
▁선행	-11.0341
▁최적의	-11.0342
▁대법관	-11.0342
▁만든다	-11.0343
▁하나인	-11.0345
▁김씨는	-11.0346
▁발병	-11.0347
▁결론	-11.0349
▁이후에도	-11.035
▁관계없이	-11.035
▁늘어났다	-11.0351
▁뮤직비디오	-11.0351
다운	-11.0351
▁고문	-11.0353
▁Our	-11.0354
▁타선	-11.0355
▁조세	-11.0355
^{	-11.0356
용지	-11.0357
브라	-11.0359
해지고	-11.036
▁원주	-11.036
▁주연	-11.0361
▁IT	-11.0362
▁노력할	-11.0363
ring	-11.0363
▁딱	-11.0365
▁said	-11.0366
▁지원이	-11.0366
▁therapy	-11.0367
줬	-11.0367
▁공적	-11.0368
ess	-11.0369
▁실증	-11.0371
정을	-11.0371
자치	-11.0372
▁분양가	-11.0372
보니	-11.0373
졌고	-11.0373
land	-11.0373
전선	-11.0373
▁쏟아	-11.0375
▁업무협약을	-11.0376
▁act	-11.0377
과제	-11.0378
▁커플	-11.0381
▁간담회를	-11.0381
▁틀	-11.0382
▁않는다는	-11.0383
▁삽입	-11.0383
분이	-11.0383
▁주소	-11.0385
ev	-11.0385
▁생각했다	-11.0386
진은	-11.0388
안에	-11.039
하나은행	-11.0391
▁거예요	-11.0392
ni	-11.0395
▁증언	-11.0398
▁물었다	-11.0404
▁확보한	-11.0404
▁증상을	-11.0405
▁인테리어	-11.0406
▁추구	-11.0407
▁정보가	-11.0407
스테이	-11.0408
주의보	-11.0408
▁관점에서	-11.0414
▁퇴직	-11.0416
▁유일하게	-11.0417
▁매니저	-11.0418
▁봐야	-11.0423
▁그를	-11.0423
뇌	-11.0423
▁그들의	-11.0424
였고	-11.0425
▁조사에서	-11.0426
▁운동을	-11.0429
▁상업	-11.0429
▁벌이고	-11.0431
▁연관	-11.0431
ities	-11.0432
킨	-11.0433
▁시상	-11.0434
▁확정했다	-11.0434
낮	-11.0435
▁ict	-11.0437
▁치유	-11.0437
▁제기했다	-11.0443
▁가능해	-11.0446
▁고려하여	-11.0446
▁날짜	-11.0448
▁무효	-11.0451
▁채널을	-11.0452
질서	-11.0453
진흥	-11.0453
▁않았	-11.0453
▁주가는	-11.0455
봐	-11.0458
부대	-11.0458
▁부탁	-11.0459
▁잡은	-11.046
pc	-11.0461
▁결코	-11.0462
▁효	-11.0464
▁철학	-11.0464
▁이메일	-11.0465
▁부위	-11.0466
▁시작한다	-11.0472
▁썼다	-11.0475
펠	-11.0475
▁생계	-11.0475
▁트위터	-11.0476
▁확보했다	-11.0477
▁오른쪽	-11.0478
왔던	-11.0479
▁믿고	-11.048
▁성공한	-11.0481
▁과정이	-11.0482
▁뷰티	-11.0482
▁크지	-11.0483
▁완벽한	-11.0483
본부장은	-11.0484
취업	-11.0484
▁대중교통	-11.0485
▁아이디어를	-11.0492
▁원활한	-11.0493
▁국민들이	-11.0493
강원	-11.0493
▁모범	-11.0496
▁헤어	-11.0499
▁폭로	-11.0499
MA	-11.05
▁의원을	-11.0501
▁같아요	-11.0502
첫	-11.0503
▁days	-11.0504
▁달성했다	-11.0504
▁바꾸	-11.0505
달러로	-11.0506
▁지목	-11.0508
라면서	-11.0508
pt	-11.051
▁인스타그램	-11.051
▁변이	-11.0512
▁사무총장	-11.0514
▁이끌었다	-11.0514
▁이번이	-11.0514
▁확률	-11.0516
ator	-11.0516
평균	-11.0517
day	-11.0518
▁내리	-11.0518
청와대	-11.0519
쇠	-11.052
조사를	-11.0521
물이	-11.0523
강화	-11.0523
하길	-11.0524
▁업계에	-11.0525
물량	-11.0525
▁연료	-11.0526
달러를	-11.0528
▁가전	-11.0529
재난	-11.053
▁매진	-11.0531
▁임부	-11.0532
▁시가총액	-11.0532
도지사	-11.0533
▁일어나	-11.0534
▁팬들의	-11.0538
▁바라	-11.0539
▁유효	-11.054
▁세웠다	-11.054
▁reduce	-11.0542
hy	-11.0545
▁공격을	-11.0545
▁키워드	-11.0545
함께	-11.0545
▁예능프로그램	-11.0546
▁예금	-11.0548
▁일이다	-11.0549
▁마련하고	-11.0549
▁같	-11.0549
▁부총리는	-11.055
▁TV	-11.055
▁가게	-11.0555
▁해결할	-11.0556
iv	-11.0557
▁전체의	-11.0558
구간	-11.0558
▁검찰총장	-11.0558
▁‧	-11.0559
치고	-11.056
렸	-11.056
▁사건의	-11.0562
▁연애	-11.0562
▁된다는	-11.0565
▁출시했다	-11.0566
▁던지	-11.0566
▁진정한	-11.0567
▁유용	-11.0568
언더파	-11.0568
에게도	-11.0569
▁더했다	-11.0569
▁건강보험	-11.0572
늘	-11.0572
▁감안해	-11.0572
▁시민단체	-11.0573
▁반대로	-11.0573
ship	-11.0575
▁한때	-11.0576
▁스페셜	-11.058
sol	-11.058
▁염증	-11.0581
타를	-11.0582
▁이게	-11.0582
▁예비후보	-11.0583
▁인상을	-11.0584
받	-11.0585
▁아카데미	-11.0585
▁분석이	-11.0585
빵	-11.0585
▁탓에	-11.0586
유지	-11.0586
원인	-11.0587
▁도움	-11.0589
▁급격히	-11.059
▁정하는	-11.0592
▁자세	-11.0593
당이	-11.0595
▁인건비	-11.0595
▁생기	-11.0601
▁요금제	-11.0605
▁짓	-11.0605
▁사고로	-11.0606
▁출연했다	-11.0609
▁산소	-11.0609
▁택배	-11.0609
덤	-11.0612
▁숙박	-11.0613
fer	-11.0615
▁입장에서	-11.0615
메디	-11.0616
▁거두	-11.0619
▁않다는	-11.0621
코스	-11.0622
가정	-11.0623
gs	-11.0623
▁싶습니다	-11.0623
▁기술과	-11.0624
나갈	-11.0624
권이	-11.0625
▁부산시	-11.0625
▁신기술	-11.0627
▁한국에	-11.0627
줬다	-11.0629
▁시뮬레이션	-11.0631
▁되기	-11.0634
▁find	-11.0637
특보	-11.0639
바이러스	-11.0644
▁방한	-11.0644
▁companies	-11.0646
▁특별법	-11.0646
▁대행	-11.0647
▁name	-11.065
▁작전	-11.0651
야당	-11.0651
▁비디오	-11.0653
▁나오	-11.0656
대금	-11.0657
out	-11.0658
▁성사	-11.0659
▁미치지	-11.066
사업에	-11.066
▁사태가	-11.0665
▁본선	-11.0668
잎	-11.0669
▁기재부	-11.0671
▁유가족	-11.0672
▁금융시장	-11.0673
▁부패	-11.0674
확대	-11.0675
▁성추행	-11.0676
석을	-11.0676
▁끌	-11.0676
상으로	-11.0678
app	-11.068
▁활	-11.068
▁내륙	-11.068
▁안건	-11.068
▁care	-11.0681
▁부르	-11.0682
▁금감원	-11.0683
경기에서	-11.0683
▁전화를	-11.0683
방문	-11.0683
ID	-11.0684
▁강세를	-11.0685
▁분석해	-11.0686
▁지분을	-11.0686
당한	-11.0686
▁그려졌다	-11.0687
▁진행한다고	-11.0687
▁위원장이	-11.0688
▁시설을	-11.0689
▁협박	-11.0689
▁잠실	-11.0691
▁만들겠다	-11.0691
▁나타난	-11.0692
▁눈물	-11.0694
▁한계가	-11.0695
▁무엇인지	-11.0695
▁어깨	-11.0695
▁불확실성	-11.0698
▁독서	-11.0701
났다	-11.0701
▁응모	-11.0704
위의	-11.0706
▁라이	-11.071
새로운	-11.0711
ors	-11.0712
경쟁력	-11.0713
▁활성화에	-11.0715
▁사로잡	-11.0716
법과	-11.0719
법으로	-11.072
▁lead	-11.0721
▁먹을	-11.0721
▁Z	-11.0722
▁마련한	-11.0725
▁논의할	-11.0726
▁발현	-11.0726
▁사내	-11.0726
선물	-11.0726
▁구성원	-11.0727
▁그들은	-11.0728
so	-11.0728
낙	-11.0729
▁복잡한	-11.073
▁산출	-11.073
▁마약	-11.073
▁기분	-11.0731
맞	-11.0733
▁벌였다	-11.0733
▁계정	-11.0733
확인	-11.0733
▁분포	-11.0733
▁증시가	-11.0734
버그	-11.0734
▁싶	-11.0737
대교	-11.0737
▁현역	-11.0738
▁않지만	-11.074
▁교원	-11.074
▁구체적	-11.074
▁남겼다	-11.0742
ga	-11.0743
베리	-11.0743
▁선포	-11.0745
▁안정적으로	-11.0746
▁유력	-11.0746
▁기온이	-11.0748
▁short	-11.075
지역의	-11.0752
부장검사	-11.0753
▁단말기	-11.0753
▁내년도	-11.0753
▁일제	-11.0754
▁주장하는	-11.0755
친화	-11.0755
▁주문했다	-11.0755
▁통산	-11.0756
▁실시한다고	-11.0756
▁가고	-11.0757
▁면담	-11.0758
{~	-11.0759
인가	-11.0759
▁웹툰	-11.0759
층에	-11.076
ful	-11.0763
▁사회공헌	-11.0768
▁횟수	-11.0771
끊	-11.0771
대사	-11.0772
▁읍	-11.0773
▁이야기가	-11.0774
▁보이며	-11.0775
tin	-11.0776
▁오브	-11.0776
▁제출했다	-11.0777
▁건강을	-11.0778
▁전역	-11.0778
▁보복	-11.0783
하느냐	-11.0785
▁material	-11.0785
▁환자를	-11.0786
통상	-11.0787
문학	-11.0788
▁문학	-11.079
▁짚어봐야겠	-11.0792
▁마련된	-11.0792
▁장관의	-11.0794
신용	-11.0795
ow	-11.0796
릉	-11.0799
▁상인	-11.08
▁Co	-11.0801
시간을	-11.0801
▁오르	-11.0802
▁시스템의	-11.0802
▁보강	-11.0804
▁대립	-11.0806
▁명칭	-11.0806
▁연계해	-11.0807
안이	-11.081
▁유지하는	-11.0811
▁우크라이나	-11.0813
▁고조	-11.0813
▁비중	-11.0815
▁교육감	-11.0815
▁중국인	-11.0818
신도시	-11.0818
ology	-11.0819
▁취지	-11.0824
▁치료에	-11.0824
▁특혜	-11.0826
▁펼치고	-11.0826
라이트	-11.0827
▁다해	-11.0829
실을	-11.0829
▁수험생	-11.0829
▁주장이	-11.0832
▁네덜란드	-11.0834
▁그것이	-11.0835
▁간편	-11.0836
▁투쟁	-11.0836
▁총리가	-11.0836
▁이뤄지지	-11.0839
▁above	-11.0842
시께	-11.0843
▁상대방	-11.0843
사인	-11.0844
▁이것이	-11.0844
▁이적	-11.0844
건축	-11.0845
▁보지	-11.0847
▁자료에	-11.0847
▁government	-11.0852
▁판매량	-11.0854
칩	-11.0859
학년도	-11.086
▁대응할	-11.086
대학원	-11.0862
▁일하는	-11.0863
▁논리	-11.0864
▁능	-11.0865
▁제기한	-11.0868
cal	-11.0869
통제	-11.0869
▁plan	-11.087
▁견	-11.0872
▁있나요	-11.0873
▁거치	-11.0874
www	-11.0875
▁similar	-11.0877
과학기술	-11.0878
머리	-11.0878
체육	-11.088
▁출국	-11.088
▁생산성	-11.088
▁농장	-11.0881
심은	-11.0883
연수	-11.0883
▁높고	-11.0883
▁considered	-11.0884
▁효율적으로	-11.0887
인프라	-11.0887
▁꺼	-11.0888
▁용어	-11.0889
▁행동을	-11.0889
▁내는	-11.089
▁없기	-11.089
▁수사에	-11.0892
▁고수	-11.0893
▁마음으로	-11.0894
▁때보다	-11.0897
주요	-11.0898
▁반사	-11.0899
위원회의	-11.0899
▁changes	-11.0901
▁기후변화	-11.0901
▁후배	-11.0902
▁cat	-11.0904
▁이르면	-11.0905
캠퍼스	-11.0906
분부터	-11.0907
▁위주로	-11.0908
▁Con	-11.0911
나눔	-11.0911
▁그래도	-11.0911
▁아기	-11.0912
▁톱	-11.0913
da	-11.0916
델	-11.0916
▁한일	-11.0916
▁말씀을	-11.0916
▁증정한다	-11.0918
▁열차	-11.0919
CC	-11.092
▁콩	-11.0921
지역에	-11.0924
▁성폭행	-11.0924
많은	-11.0924
▁후에는	-11.0924
▁워	-11.0929
매체	-11.093
▁남해	-11.0933
▁벤처	-11.0934
▁책정	-11.0934
▁아닌가	-11.0934
▁관절	-11.0935
▁싸	-11.0935
▁보전	-11.0936
공시	-11.0936
ions	-11.0937
▁그게	-11.0937
인재	-11.0938
▁바른정당	-11.0939
키스	-11.0939
▁An	-11.0939
만명을	-11.0943
▁수거	-11.0943
▁호응을	-11.0945
▁Thank	-11.0946
▁서비스가	-11.095
▁안산	-11.0951
▁수백	-11.0951
▁상호작용	-11.0953
증을	-11.0953
경찰서는	-11.0954
▁관광지	-11.0955
회가	-11.0956
▁토요일	-11.0957
사장	-11.0958
▁아니냐	-11.0958
▁금융위기	-11.0958
▁혈	-11.096
웨	-11.0961
▁활성	-11.0962
▁국가대표	-11.0963
▁음식점	-11.0965
va	-11.0966
▁방사선	-11.0968
▁공정위	-11.097
플레이	-11.0971
회복	-11.0971
매매	-11.0971
▁알리는	-11.0972
times	-11.0972
▁합병증	-11.0974
▁미세	-11.0975
▁수술을	-11.0975
국의	-11.0978
▁po	-11.0979
▁판결을	-11.0979
▁감찰	-11.098
▁올라가	-11.0982
▁아니라고	-11.0983
▁진심으로	-11.0983
▁분당	-11.0984
▁서비스는	-11.0985
▁털어놨다	-11.0987
▁이라크	-11.0987
▁문화체육관광부	-11.0988
▁제공된다	-11.0991
▁부위원장	-11.0995
▁중요성을	-11.0998
▁재해	-11.1001
▁벤	-11.1004
▁시범사업	-11.101
▁적어도	-11.1011
▁무게	-11.1011
▁직원이	-11.1012
▁led	-11.1012
▁available	-11.1015
▁희망하는	-11.1015
▁것보다	-11.1015
▁그러면	-11.1019
▁당국은	-11.1019
▁해명	-11.1019
▁통화에서	-11.1019
영국	-11.1019
원과	-11.102
하시는	-11.102
▁북측	-11.1023
▁체계를	-11.1024
▁신작	-11.1025
▁창조	-11.1025
▁복지부	-11.1026
▁부천	-11.1026
▁좌우	-11.1027
▁further	-11.1028
▁때부터	-11.1029
▁고혈압	-11.103
▁another	-11.103
▁재활	-11.1031
▁사용을	-11.1032
심의위원회	-11.1041
▁기업들	-11.1042
▁특강	-11.1044
▁세운	-11.1045
사이드	-11.1046
▁금리를	-11.1047
ser	-11.1049
▁기간이	-11.1051
▁장점	-11.1053
▁formed	-11.1054
▁찾아가	-11.1055
▁도모	-11.1056
▁시선	-11.1057
▁On	-11.1058
▁떠난	-11.1061
▁산업의	-11.1064
▁여행을	-11.1066
있	-11.1068
▁한국을	-11.1068
▁차별화	-11.1069
▁world	-11.1072
▁바람이	-11.1073
▁공직자	-11.1073
▁패배	-11.1074
▁상처	-11.1074
▁탈출	-11.1075
▁낮다	-11.1076
▁중부	-11.1077
단이	-11.1079
▁살해	-11.1081
▁사우디	-11.1083
▁질문을	-11.1083
▁포착	-11.1085
▁분들	-11.1088
let	-11.1095
이들은	-11.1096
▁병원으로	-11.1096
▁전직	-11.1098
▁결정에	-11.1099
단위	-11.1099
▁→	-11.1099
▁승용차	-11.11
번지	-11.11
동안	-11.1101
바람	-11.1103
of	-11.1104
▁곽	-11.1105
tra	-11.1106
켓	-11.1106
▁art	-11.1109
▁언급한	-11.111
bc	-11.111
ber	-11.111
수수료	-11.1111
그린	-11.1111
▁휴가	-11.1112
첨	-11.1112
▁결론을	-11.1116
osis	-11.1116
▁한국어	-11.1118
▁파악됐다	-11.112
▁위원회	-11.112
▁sw	-11.1122
▁물을	-11.1123
int	-11.1123
▁않겠다	-11.1123
▁노하우를	-11.1124
공제	-11.1125
▁최적화	-11.1126
호는	-11.1127
▁경쟁을	-11.1128
▁가능합니다	-11.1128
▁차장	-11.113
▁시점에	-11.113
▁평가다	-11.113
ba	-11.1131
▁측의	-11.1132
▁국회의장	-11.1132
파라	-11.1133
▁이어갈	-11.1133
▁삼성물산	-11.1133
▁his	-11.1134
▁수차례	-11.1135
▁폐렴	-11.1136
▁판단을	-11.1137
차례에	-11.1137
hd	-11.1137
몸	-11.1138
▁자치	-11.1139
▁분야별	-11.1139
같이	-11.1141
▁허가를	-11.1142
▁증액	-11.1143
▁상품권	-11.1145
▁대장	-11.1146
▁선정했다	-11.1146
▁종합적으로	-11.1147
▁유니	-11.1147
▁호소했다	-11.1151
▁댄스	-11.1152
▁신속히	-11.1153
▁소년	-11.1154
비서	-11.1155
▁살려	-11.1155
▁중에는	-11.1155
▁확인된	-11.1155
▁있을까	-11.1156
수로	-11.1157
▁연산	-11.116
▁흥	-11.1161
▁만료	-11.1161
▁칸	-11.1164
▁중학교	-11.1165
운전	-11.1165
순환	-11.1166
▁생긴	-11.1168
거래일	-11.1169
▁갈등을	-11.1173
이에요	-11.1174
▁운명	-11.1176
믹	-11.1176
▁체력	-11.1178
▁저지	-11.1178
▁free	-11.1179
됐을	-11.118
▁정치인	-11.118
홍보	-11.1181
ces	-11.1182
▁발생하고	-11.1185
AP	-11.1191
▁공동주택	-11.1191
▁국감	-11.1192
▁속도가	-11.1192
우는	-11.1192
봄	-11.1192
▁말에	-11.1193
▁불리	-11.1194
▁농도가	-11.1194
▁협조를	-11.1195
▁영화를	-11.1195
▁마음에	-11.1197
▁상태가	-11.1199
▁방식의	-11.1201
▁상실	-11.1202
ix	-11.1204
▁북구	-11.1206
▁묵	-11.1206
▁전무	-11.1207
▁양상	-11.1207
학자	-11.1208
▁크고	-11.1209
▁출시된	-11.121
▁셀트리온	-11.1211
댐	-11.1212
▁검찰의	-11.1213
▁사고를	-11.1214
▁정한	-11.1216
▁갈수록	-11.1218
▁요구를	-11.122
▁인류	-11.1222
▁느낌을	-11.1223
▁대피	-11.1223
▁문건	-11.1224
▁interest	-11.1228
만개	-11.1228
아는	-11.123
과거	-11.1231
▁경남도	-11.1232
방위	-11.1236
▁개발해	-11.1236
위와	-11.1238
▁person	-11.1238
부에	-11.1239
▁않았고	-11.124
리브	-11.1241
▁않았던	-11.1242
티스	-11.1242
▁전라남도	-11.1243
시가	-11.1243
한화	-11.1244
▁만났다	-11.125
항의	-11.1255
PA	-11.1257
▁동향	-11.1258
드라	-11.1258
▁인기가	-11.1258
공모	-11.1259
▁경쟁이	-11.1259
그런	-11.1259
사이	-11.1261
▁청사	-11.1262
▁growth	-11.1263
근무	-11.1264
▁사람에게	-11.1264
▁고가	-11.1264
바다	-11.1264
▁같아	-11.1266
듯이	-11.1266
▁유의	-11.1267
▁의혹에	-11.1268
▁PC	-11.127
▁얼굴을	-11.1271
달러에	-11.1273
▁정확하게	-11.1274
냉	-11.1277
▁한류	-11.1279
내기	-11.1281
▁아예	-11.1281
하실	-11.1283
▁사람들에게	-11.1283
위원회가	-11.1283
▁국산	-11.1285
벨트	-11.1285
▁인사청문회	-11.1286
▁기증	-11.1288
붙	-11.129
▁불구속	-11.129
▁활발한	-11.1294
▁개선에	-11.1296
cor	-11.1296
▁그것은	-11.1297
▁화장실	-11.1298
lu	-11.1298
▁still	-11.1302
▁식별	-11.1302
▁activity	-11.1303
인터넷	-11.1304
▁호흡을	-11.1305
▁질의	-11.1309
▁총회	-11.1309
▁앞세워	-11.1316
▁하니	-11.1317
꼬	-11.1317
▁앉아	-11.1317
▁반박했다	-11.1317
▁중계	-11.1318
▁소유자	-11.1318
ations	-11.1319
동부	-11.1321
▁미션	-11.1321
▁끈다	-11.1323
▁출근	-11.1323
▁단장	-11.1323
끈	-11.1325
▁홈런을	-11.1325
관이	-11.1327
왜	-11.133
▁인용해	-11.1333
▁전일대비	-11.1334
닌	-11.1336
▁나왔	-11.1339
▁첫째	-11.1339
▁기자회견	-11.1339
▁추진을	-11.134
그러	-11.134
한국당	-11.1341
폭력	-11.1342
프라이	-11.1345
▁응용	-11.1345
체를	-11.1347
▁나란히	-11.1349
킬	-11.135
▁키워	-11.1353
특별위원회	-11.1353
글로	-11.1353
▁환경에	-11.1355
▁크리스마스	-11.1356
▁곳으로	-11.1357
▁광화문	-11.1358
▁무엇을	-11.1363
였습니다	-11.1363
▁실효성	-11.1363
미를	-11.1365
뚝	-11.1366
▁차지하고	-11.1368
▁신고를	-11.1372
샷	-11.1372
▁게재	-11.1376
▁그럼에도	-11.1378
▁윤리	-11.138
▁프로그램은	-11.1382
▁color	-11.1382
▁핀테크	-11.1383
▁자영업자	-11.1385
팀이	-11.1387
자유	-11.1389
array	-11.1391
▁권한을	-11.1392
▁부당	-11.1393
▁국토	-11.1394
▁후보의	-11.1394
▁테슬라	-11.1396
▁권익	-11.1398
▁연구에서	-11.1399
▁\\	-11.1399
▁저소득층	-11.14
▁아이들	-11.1403
▁희망을	-11.1404
▁피로	-11.1405
스럽게	-11.1406
▁이동통신	-11.1409
▁탈당	-11.1409
▁현대자동차	-11.1412
▁자동화	-11.1412
지부	-11.1412
▁극장	-11.1413
qu	-11.142
토론	-11.142
▁육아	-11.1425
감시	-11.1426
▁원의	-11.1428
▁개발자	-11.1429
▁흘러	-11.1429
▁체계적인	-11.143
▁법인세	-11.143
선언	-11.1432
▁역사적	-11.1433
▁선생	-11.1433
▁CI	-11.1435
▁행사가	-11.1436
▁고지	-11.1437
▁기간은	-11.1439
▁factor	-11.1441
시장의	-11.1443
▁삼성전자가	-11.1444
▁기대감이	-11.1444
▁벗	-11.1444
연승	-11.1446
▁맞았다	-11.1446
▁특집	-11.1447
우리가	-11.145
▁정도가	-11.145
이었습니다	-11.145
▁헌신	-11.1451
▁물건	-11.1452
▁뼈	-11.1452
▁future	-11.1453
ns	-11.1456
▁지방세	-11.1457
▁해체	-11.1458
▁본인의	-11.1464
부서	-11.1465
▁증정	-11.1465
▁솔루션을	-11.1466
▁태양	-11.1469
략	-11.147
▁사용자의	-11.1472
bu	-11.1475
뮤직	-11.1478
닥터	-11.1482
▁주민들이	-11.1482
쏠	-11.1482
▁근거로	-11.1483
망을	-11.1484
▁지급한다	-11.1484
▁여가	-11.1484
▁판매가	-11.1486
▁단행	-11.1487
▁among	-11.1487
점에서	-11.1488
로봇	-11.1488
옹	-11.1489
▁백신을	-11.1492
엇	-11.1492
▁엄청난	-11.1493
▁women	-11.1494
심판	-11.1495
워드	-11.1496
▁복수	-11.1496
▁공백	-11.1497
▁한달	-11.1497
▁이유다	-11.15
만원이다	-11.1501
▁첫날	-11.1502
▁엠	-11.1506
▁개발하고	-11.1506
▁용인시	-11.1509
▁정책이	-11.1511
▁꾸	-11.1512
▁키움	-11.1514
총회	-11.1518
싸	-11.1519
reg	-11.1522
⁄	-11.1522
▁번역	-11.1522
ium	-11.1524
▁대통령에게	-11.1527
▁갖게	-11.1528
▁좋을	-11.1531
증시	-11.1532
집니다	-11.1532
▁연구에서는	-11.1533
▁국세청	-11.1535
▁갔다	-11.1537
드라마	-11.1537
▁지원금	-11.1537
▁고유	-11.1539
여야	-11.154
▁조각	-11.1543
사단	-11.1543
▁부근	-11.1543
▁last	-11.1545
디스플레이	-11.1547
▁차원	-11.1547
▁보여줄	-11.1548
▁제천	-11.1551
▁열기	-11.1551
▁배경으로	-11.1551
▁potential	-11.1553
▁최고경영자	-11.1554
끝	-11.1555
▁조언했다	-11.1556
▁북한은	-11.1556
▁이거	-11.1558
▁평생	-11.156
▁상임위	-11.156
▁페이스북에	-11.1561
꼴	-11.1565
▁positive	-11.1566
났	-11.1566
▁characteristics	-11.1568
▁소자	-11.1569
▁중반	-11.157
컷	-11.1571
▁발견됐다	-11.1572
▁동력	-11.1572
소방	-11.1572
▁조사에	-11.1575
▁과징금	-11.1575
rt	-11.1577
펄	-11.1577
▁박물관	-11.1578
▁중대한	-11.1579
사에서	-11.158
플루	-11.1582
▁맞이	-11.1582
▁박차를	-11.1584
row	-11.1585
치료제	-11.1586
▁몫	-11.1587
계좌	-11.1588
▁아직까지	-11.159
ain	-11.1591
▁참여한다	-11.1591
미술관	-11.1591
▁normal	-11.1591
▁직접적인	-11.1593
▁견인	-11.1593
▁현대중공업	-11.1594
해지는	-11.1594
▁여유	-11.1594
▁정상회의	-11.1595
ect	-11.1596
▁증인	-11.1597
▁위치를	-11.1599
▁선거구	-11.1599
▁맞춤	-11.1599
▁보여주	-11.16
▁코너	-11.16
▁확보하고	-11.16
▁소비자들의	-11.1601
▁상속	-11.1602
▁이뤄진다	-11.1604
▁플러스	-11.1605
렸던	-11.1607
세액	-11.1608
CA	-11.161
▁포스터	-11.161
▁계획이	-11.1611
언론	-11.1612
▁그럼	-11.1613
▁맞고	-11.1613
▁인력을	-11.1615
▁캐릭터를	-11.1617
▁생길	-11.1621
초등학교	-11.1623
▁생략	-11.1624
▁인천공항	-11.1626
수의	-11.1627
▁경비	-11.1628
▁당한	-11.1629
▁의원들	-11.1629
▁징수	-11.163
시스템을	-11.1632
▁범행을	-11.1634
샘	-11.1636
▁인간의	-11.1641
었는데	-11.1642
좋은	-11.1643
▁최우선	-11.1646
▁확실히	-11.1648
였지만	-11.1648
비전	-11.1648
az	-11.1649
▁흑자	-11.1649
▁한강	-11.1654
▁샤	-11.1655
▁give	-11.1655
▁고려해야	-11.1657
tom	-11.1658
약품	-11.1659
▁가능성에	-11.166
▁모으고	-11.1661
제어	-11.1662
tu	-11.1662
▁소지	-11.1663
▁시기를	-11.1664
로서는	-11.1664
▁최악의	-11.1665
▁position	-11.1668
팀을	-11.1668
sy	-11.1668
▁제품이다	-11.1669
▁main	-11.1669
▁견제	-11.167
IC	-11.167
▁시간은	-11.1672
▁경영진	-11.1672
▁또다시	-11.1673
▁구동	-11.1675
▁보고서를	-11.1676
▁step	-11.1677
자격	-11.1677
▁몰려	-11.1677
▁각자	-11.1678
▁$	-11.1678
▁방안도	-11.1679
▁인턴	-11.168
▁중요합니다	-11.168
▁대회에서	-11.1681
▁폭으로	-11.1681
▁맺고	-11.1682
▁소식이	-11.1682
▁공직	-11.1683
▁해킹	-11.1684
▁알아보	-11.1684
▁발견된	-11.1684
▁제작진	-11.1685
ef	-11.1685
쉐	-11.1685
ell	-11.1686
▁Pro	-11.1692
▁key	-11.1693
▁확인하는	-11.1693
▁next	-11.1694
▁여사	-11.1695
▁청정	-11.1695
tor	-11.1696
▁그녀	-11.1696
▁칩	-11.1697
▁전망치	-11.1698
제와	-11.1701
type	-11.1704
▁방식이다	-11.1704
▁챙기	-11.1706
▁본인이	-11.1707
▁계획이라고	-11.1708
▁세제	-11.1713
▁중이며	-11.1713
▁input	-11.1713
▁조사하고	-11.1714
해서는	-11.1714
▁일반인	-11.1715
관계를	-11.1715
▁강화하기	-11.1715
받지	-11.1719
▁신중히	-11.1719
위원장은	-11.172
▁상황은	-11.1721
▁배우자	-11.1726
틸	-11.1727
▁가리	-11.1728
▁수습	-11.1729
▁늘어나는	-11.173
▁사람들을	-11.1733
▁고령	-11.1736
▁체감	-11.1736
공동체	-11.1737
작가	-11.1738
▁캠페인을	-11.1739
▁관련해서는	-11.174
▁우리나라의	-11.174
ling	-11.174
▁김정	-11.1741
▁넷플릭스	-11.1742
유치원	-11.1743
▁communication	-11.1744
▁아끼지	-11.1744
▁당신	-11.1745
놈	-11.1748
통일	-11.1749
▁느껴	-11.175
▁공군	-11.175
▁머리를	-11.1751
▁나를	-11.1752
▁폴	-11.1753
금융지주	-11.1755
▁간단한	-11.1756
▁어렵다는	-11.1758
료를	-11.1761
▁주의사항	-11.1761
▁확보할	-11.1764
책을	-11.1767
▁종류의	-11.1767
▁가중	-11.1769
▁mou	-11.177
▁생겨	-11.1772
▁와서	-11.1773
▁구축하고	-11.1774
▁청춘	-11.1776
▁연구소	-11.1778
PS	-11.1778
보장	-11.1781
갤럭시	-11.1781
▁투자가	-11.1781
시를	-11.1783
파운드	-11.1784
▁혁명	-11.1784
끔	-11.1785
▁폴리	-11.1786
▁마이크	-11.1788
▁아니지만	-11.1788
▁주류	-11.179
▁손해	-11.1792
▁타이틀곡	-11.1794
업체들	-11.1798
▁관하여	-11.1799
▁문장	-11.1799
▁선배	-11.1801
우수	-11.1801
▁명단	-11.1802
▁마이크로	-11.1802
육성	-11.1805
부분	-11.1805
▁단계에서	-11.1805
정원	-11.1805
라이	-11.1806
▁직원들이	-11.1807
▁경제의	-11.1808
▁가능하도록	-11.1808
▁상해	-11.1809
▁이번에는	-11.1809
▁콘	-11.181
▁means	-11.1811
스톤	-11.1811
통계	-11.1812
▁판사	-11.1812
▁대다수	-11.1814
▁눈물을	-11.1814
렁	-11.1815
인원	-11.1815
ore	-11.1818
기사	-11.182
▁관리하는	-11.1824
▁거래되고	-11.1825
법안	-11.1825
▁감정을	-11.1826
사무	-11.1826
▁맞추	-11.1827
승인	-11.1829
▁나가는	-11.1829
시간이	-11.183
▁한국은행	-11.183
▁공방	-11.1831
이번에	-11.1832
▁순차적으로	-11.1832
▁노래를	-11.1837
▁중장기	-11.1837
▁자리매김	-11.1839
▁그것	-11.1841
개정	-11.1841
▁방식이	-11.1841
▁장학금	-11.1842
▁조회	-11.1843
▁신속	-11.1843
▁안정적	-11.1843
▁미중	-11.1845
▁문재인	-11.1846
▁무단	-11.1846
fo	-11.1847
▁ma	-11.1852
▁프로그램으로	-11.1853
▁내용으로	-11.1854
우드	-11.1854
팽	-11.1855
▁현실화	-11.1855
스카	-11.1856
▁사후	-11.1858
▁논란을	-11.1859
▁제조사	-11.186
▁담겨	-11.1861
▁applied	-11.1862
▁반성	-11.1862
▁사라지	-11.1864
▁감사하다	-11.1864
▁서울중앙지법	-11.1864
▁당연히	-11.1867
▁트레	-11.1869
▁영역을	-11.1869
겁	-11.187
▁조속히	-11.187
▁리더십	-11.187
▁탐색	-11.187
사법	-11.1871
▁없게	-11.1876
▁컨퍼런스	-11.1877
▁기자회견에서	-11.1878
▁제한적	-11.1879
▁일제히	-11.188
▁얘기를	-11.188
▁비슷	-11.1882
▁출연한	-11.1882
▁만나볼	-11.1882
▁근처	-11.1883
▁터치	-11.1883
분간	-11.1887
▁하겠습니다	-11.1888
▁용이	-11.1889
권에	-11.1889
▁힘들다	-11.189
du	-11.1892
old	-11.1892
▁사용이	-11.1897
러시아	-11.1897
▁살펴보	-11.19
▁보호를	-11.1902
▁문화재	-11.1902
▁cost	-11.1905
▁상태에	-11.1905
진료	-11.1906
▁손실을	-11.1907
▁시스템이	-11.1907
▁확인해	-11.1907
▁임시회	-11.1908
시기	-11.1908
▁single	-11.1909
▁능력이	-11.1909
▁벌어진	-11.191
▁설치해	-11.1911
정책을	-11.1913
pm	-11.1913
▁넘어섰다	-11.1913
▁다운로드	-11.1915
▁실망	-11.1916
▁각각의	-11.1916
▁range	-11.1916
SA	-11.1919
회의를	-11.1919
▁부족하다	-11.1922
▁드림	-11.1922
뮤	-11.1923
양성	-11.1924
▁기상청은	-11.1924
ys	-11.1924
▁단위로	-11.1927
▁뛰	-11.1927
▁얼	-11.1928
▁처분을	-11.193
▁block	-11.1933
▁대리	-11.1933
▁region	-11.1935
▁difficult	-11.1936
▁양도	-11.1936
▁해지	-11.1938
▁협의체	-11.1939
▁블로그	-11.194
▁최대주주	-11.194
▁권역	-11.1941
par	-11.1941
▁쪽으로	-11.1941
페어	-11.1942
▁발생한다	-11.1942
▁모른다	-11.1942
호기	-11.1942
건이	-11.1943
숭	-11.1944
ability	-11.1948
▁down	-11.1949
▁경품	-11.1951
▁하천	-11.1951
▁도입을	-11.1951
▁활용하는	-11.1953
▁상관없이	-11.1954
찾	-11.1954
▁커질	-11.1958
슈퍼	-11.1959
건에	-11.1961
▁오피스텔	-11.1963
▁티켓	-11.1963
시장을	-11.1964
▁설립된	-11.1966
▁나타낸다	-11.1966
▁재미를	-11.1968
▁전극	-11.1968
▁명확히	-11.197
면을	-11.1972
▁서초구	-11.1972
어업	-11.1973
▁대여	-11.1974
기술을	-11.1976
▁확신	-11.1976
▁공정한	-11.1982
▁호흡기	-11.1983
▁청산	-11.1983
▁삼아	-11.1984
▁전장	-11.1986
▁한글	-11.1987
▁보여줬다	-11.1987
정의	-11.1988
만한	-11.1988
▁제외하고	-11.1991
▁노드	-11.1993
▁곤	-11.1997
리어	-11.2001
▁담당하는	-11.2001
▁대역	-11.2006
▁심지어	-11.2006
▁적용된다	-11.2006
▁거짓	-11.2007
▁services	-11.2007
▁나서고	-11.2009
전용	-11.2013
late	-11.2013
▁오랫동안	-11.2014
남동	-11.2014
▁아는	-11.2015
▁히	-11.2015
획	-11.2015
▁heat	-11.2016
▁말레	-11.2017
▁least	-11.2017
조작	-11.2018
경보	-11.202
▁준비하는	-11.2021
콜라	-11.2022
▁과장	-11.2023
▁수영	-11.2023
▁시작할	-11.2025
▁불공정	-11.2027
▁항만	-11.2028
컴퍼니	-11.2028
분양	-11.2029
치기	-11.2029
▁소식	-11.203
브리핑	-11.203
장터	-11.203
%↑	-11.2031
▁부상을	-11.2032
▁얘기다	-11.2034
▁여름철	-11.2036
크라	-11.2036
마크	-11.2036
손실	-11.2036
▁그것을	-11.2037
▁direction	-11.2038
▁경구	-11.2038
.▶	-11.2038
▁사건은	-11.2039
차전에서	-11.204
어린이	-11.2041
정은	-11.2041
▁얻는	-11.2045
범위	-11.2045
▁요인이	-11.2046
자기	-11.2047
▁수행하는	-11.2051
▁int	-11.2052
반면	-11.2052
▁발표를	-11.2053
ning	-11.2056
▁구리	-11.2056
▁카카오톡	-11.2057
▁이른다	-11.2058
▁탁	-11.2059
▁당황	-11.2059
▁싶었다	-11.2059
▁질병관리본부	-11.206
▁showed	-11.206
▁가족이	-11.2061
▁line	-11.2061
▁아트	-11.2061
▁홀로	-11.2063
으로서의	-11.2064
▁외식	-11.2064
▁드물게	-11.2064
▁방법에	-11.2064
▁제보	-11.2067
▁비서실장	-11.207
호를	-11.2072
▁관련이	-11.2073
▁기능성	-11.2073
▁잇는	-11.2074
겠	-11.2075
▁건너	-11.2082
▁형제	-11.2083
놓고	-11.2087
▁대답	-11.2087
▁취재진	-11.2088
AD	-11.2089
윙	-11.2089
▁소멸	-11.209
▁develop	-11.2092
▁편리하게	-11.2093
엑스포	-11.2094
▁생리	-11.2096
엑스	-11.2096
▁damage	-11.21
▁회원국	-11.21
▁비교하면	-11.2102
▁김치	-11.2104
▁본질	-11.2105
▁느끼는	-11.2106
▁총재는	-11.2107
로스	-11.2108
sim	-11.2109
어스	-11.2111
프레	-11.2112
임에도	-11.2113
▁project	-11.2113
심의	-11.2114
▁일어난	-11.2115
▁주관하는	-11.2115
▁현재는	-11.212
atch	-11.212
▁시즌을	-11.2122
▁승점	-11.2123
▁great	-11.2124
▁강요	-11.2126
정부의	-11.2126
▁항체	-11.2126
▁상담을	-11.2126
군에서	-11.2128
카카오	-11.2129
▁대응하기	-11.213
▁체결한	-11.213
▁감동	-11.2131
낸다	-11.2132
▁성장률	-11.2133
▁구성되어	-11.2134
지요	-11.2136
amp	-11.2137
시쯤	-11.2137
▁조율	-11.2139
▁뉴딜	-11.214
선이	-11.214
▁밀집	-11.2143
▁cannot	-11.2145
▁꾸준한	-11.2146
마트	-11.2147
러스	-11.2147
▁펼칠	-11.2148
▁베스트	-11.215
시켰	-11.215
▁severe	-11.215
▁program	-11.2151
▁참여하고	-11.2152
금액은	-11.2154
itis	-11.2154
▁체류	-11.2155
성에	-11.2155
권의	-11.216
저축은행	-11.216
▁있었는데	-11.216
▁힐링	-11.2162
설명회	-11.2162
▁환자에게는	-11.2163
예정	-11.2163
민간	-11.2164
▁확보해	-11.2164
▁하나는	-11.2164
▁temperature	-11.2167
▁넥슨	-11.2167
▁돌파했다	-11.2168
▁친구들	-11.2171
보전	-11.2171
▁muscle	-11.2171
▁비행기	-11.2176
장소	-11.2176
아침	-11.2177
▁According	-11.2178
▁혈당	-11.2178
▁속에서도	-11.2178
▁메이	-11.2181
▁방침을	-11.2181
begin	-11.2181
블랙	-11.2181
▁합쳐	-11.2181
▁누군가	-11.2182
▁화제를	-11.2183
들과의	-11.2183
▁간사	-11.2183
▁세워	-11.2183
▁영웅	-11.2184
▁강점	-11.2185
▁여부는	-11.2189
time	-11.219
▁트리	-11.2191
▁중점을	-11.2192
▁음악을	-11.2193
▁electronic	-11.2193
▁갈등이	-11.2195
▁단순한	-11.2196
▁권리를	-11.2196
치킨	-11.2198
▁비만	-11.2201
▁협정	-11.2201
곳이	-11.2203
작전	-11.2204
▁production	-11.2205
▁상권	-11.2206
▁기대감	-11.2206
▁해임	-11.2207
묵	-11.2207
▁답변을	-11.2207
▁아산	-11.2208
겼	-11.2208
▁구성된다	-11.2209
▁상당수	-11.221
검찰은	-11.2211
경기에	-11.2212
특구	-11.2213
제조	-11.2214
▁z	-11.2214
▁인터	-11.2214
▁역할이	-11.2215
시장에	-11.2218
▁축산	-11.2219
▁physical	-11.222
▁전반적으로	-11.2221
방안을	-11.2222
▁포함돼	-11.2223
금융그룹	-11.2223
기관의	-11.2223
지급	-11.2224
▁말로	-11.2225
▁동행	-11.2228
세월호	-11.2229
ient	-11.2231
포드	-11.2232
▁아니었다	-11.2233
촉진	-11.2234
기관으로	-11.2235
▁혈압	-11.2235
▁고백	-11.2236
배당	-11.2236
ple	-11.2239
ast	-11.224
▁concept	-11.2241
용으로	-11.2244
▁파주	-11.2244
일부	-11.2244
▁현재의	-11.2245
▁개정안을	-11.2249
▁위해선	-11.2249
▁받았다고	-11.225
지와	-11.2252
▁과제를	-11.2252
▁중도	-11.2253
작물	-11.2254
▁실업	-11.2254
▁알리고	-11.2256
↑	-11.2257
▁남구	-11.2258
노선	-11.2258
▁관행	-11.226
▁스웨덴	-11.226
▁course	-11.226
▁식으로	-11.226
▁금융회사	-11.226
▁상고	-11.2262
▁원정	-11.2266
휘	-11.2267
▁types	-11.2267
▁제안을	-11.2268
▁회피	-11.2269
전압	-11.2269
▁김포	-11.2269
▁업체가	-11.227
▁감사의	-11.2272
보면	-11.2274
성분	-11.2275
▁매장을	-11.2276
▁부모님	-11.2277
tr	-11.2278
▁prevent	-11.2279
▁대출을	-11.2279
▁재판부	-11.228
▁방안이	-11.2281
용량	-11.2282
▁진영	-11.2283
▁내주	-11.2284
▁차관은	-11.2284
공화국	-11.2284
▁field	-11.2285
▁구축해	-11.2286
라이프	-11.2286
진이	-11.2288
총장	-11.2288
▁별다른	-11.2289
▁고성	-11.2289
▁든다	-11.2289
▁show	-11.2291
▁유세	-11.2291
▁빠졌다	-11.2291
▁받아들이	-11.2293
▁확정된	-11.2296
▁required	-11.2297
스케	-11.2298
▁loss	-11.2299
▁receive	-11.2303
지점	-11.2303
▁타당성	-11.2304
▁약정	-11.2305
상환	-11.2306
세력	-11.2306
▁신분	-11.2307
▁난민	-11.2307
커머스	-11.2312
term	-11.2312
▁발명의	-11.2317
▁가축	-11.2317
▁significantly	-11.2318
수석	-11.2319
▁원인으로	-11.232
▁비율을	-11.232
회의실	-11.2323
▁동네	-11.2324
▁과실	-11.2324
▁화합	-11.2325
▁가방	-11.2326
▁observed	-11.2327
▁채취	-11.2328
▁참여자	-11.2328
sing	-11.2329
계의	-11.2331
▁지낸	-11.2332
▁스파	-11.2332
인들의	-11.2333
억원이다	-11.2336
▁타격을	-11.2337
회원	-11.2337
상황실	-11.2341
▁텍사스	-11.2345
사업은	-11.2345
▁선을	-11.2347
▁교과서	-11.2347
▁장비를	-11.2347
군을	-11.2348
디아	-11.2349
▁시내	-11.2351
▁인플레이션	-11.2353
이었고	-11.2356
받았	-11.2356
네트워크	-11.2358
만원이	-11.2359
▁평가가	-11.236
지출	-11.2361
▁목숨을	-11.2361
쿼터	-11.2362
▁프로그램에	-11.2362
▁시간대	-11.2364
럭	-11.2365
타이	-11.2365
▁활약을	-11.2367
단장	-11.2368
▁순천	-11.2369
▁통계청	-11.237
대화	-11.237
▁헬스케어	-11.2371
▁표결	-11.2371
▁필요로	-11.2372
▁되찾	-11.2374
▁공수처	-11.2375
지침	-11.2376
▁산업단지	-11.2377
▁몸에	-11.2377
▁home	-11.2378
▁논란에	-11.2378
▁돼지	-11.2382
(\	-11.2382
▁현직	-11.2382
▁공유하고	-11.2383
▁비공개	-11.2385
비서관	-11.2386
▁안정성	-11.2387
▁since	-11.2389
▁탄력	-11.2391
▁countries	-11.2391
▁취재	-11.2391
▁다양하게	-11.2392
비와	-11.2395
▁매장에서	-11.2396
▁노력해	-11.2397
▁석탄	-11.2398
의학	-11.2399
회관	-11.2401
쌀	-11.2402
매장	-11.2403
▁선택한	-11.2404
사들이	-11.2404
bar	-11.2405
사업의	-11.2406
▁협업을	-11.2406
▁레스토랑	-11.2407
동향	-11.241
OS	-11.2411
▁부활	-11.2411
▁라인업	-11.2413
▁구속영장을	-11.2414
▁넘겨	-11.2416
▁상주	-11.2416
▁현황을	-11.2417
석이	-11.2418
▁인식을	-11.2418
사항을	-11.2419
▁책을	-11.2419
▁소통을	-11.2419
▁용기	-11.242
▁생물	-11.242
▁공판	-11.2423
her	-11.2423
▁생산하는	-11.2425
▁안양	-11.2426
▁혜	-11.2426
lig	-11.2427
▁간호사	-11.2427
▁끝으로	-11.2427
▁통화정책	-11.2428
▁every	-11.2432
▁purpose	-11.2432
▁Se	-11.2433
▁어려움	-11.2433
▁민주당은	-11.2434
▁금액을	-11.2434
버린	-11.2435
▁압	-11.2435
▁약화	-11.2437
▁발탁	-11.2438
▁죽음	-11.2439
▁연평균	-11.2439
▁증폭	-11.2439
판을	-11.244
▁caused	-11.244
잇	-11.2442
활성화	-11.2445
▁생애	-11.2445
▁At	-11.2447
팡	-11.2447
끼리	-11.2449
▁사회복지	-11.245
▁기쁘다	-11.2452
▁증시는	-11.2452
렸고	-11.2453
▁다중	-11.2456
▁기여한	-11.2457
▁막아	-11.2457
▁수록	-11.2458
▁environment	-11.2458
▁증가로	-11.2459
▁두통	-11.2459
▁매물	-11.2459
▁모인	-11.246
organ	-11.246
▁적합	-11.2461
▁나타나고	-11.2462
튀	-11.2462
▁일상생활	-11.2463
▁경상	-11.2466
▁점검하고	-11.2466
검사를	-11.2468
▁샘플	-11.2472
▁문제점을	-11.2474
▁성별	-11.2474
▁일본에서	-11.2474
▁여파	-11.2475
red	-11.2476
▁요구에	-11.2477
적격	-11.2478
▁최선의	-11.2479
▁의원들은	-11.248
▁고려하면	-11.2481
▁추억	-11.2484
▁옵션	-11.2484
▁갖췄다	-11.2484
▁기대가	-11.2485
주로	-11.2486
▁대형마트	-11.2487
mal	-11.2488
▁장악	-11.2488
▁서울에서	-11.249
▁확대에	-11.2491
▁보여준	-11.2491
럴	-11.2492
심에서	-11.2494
▁펜	-11.2495
▁불참	-11.2495
동에	-11.2497
▁갖춰	-11.2497
▁진행되며	-11.25
▁연말까지	-11.25
▁좋습니다	-11.2502
클리	-11.2505
▁아이들이	-11.2508
▁▁▁▁▁	-11.251
▁객실	-11.251
▁출시를	-11.2511
데스	-11.2515
임대	-11.2519
▁의하면	-11.2519
▁추산	-11.2522
자연	-11.2522
▁additional	-11.2526
▁terms	-11.2527
▁around	-11.2527
▁편의를	-11.2528
꿈	-11.2529
▁사태로	-11.2529
식은	-11.253
▁해외에서	-11.2531
▁경영권	-11.2531
협회는	-11.2531
▁그녀는	-11.2532
▁시청자들의	-11.2532
▁감안	-11.2533
▁엔화	-11.2536
▁타결	-11.2537
금속	-11.2539
▁공제	-11.2539
▁교정	-11.2541
▁trans	-11.2541
▁프로세스	-11.2543
▁DNA	-11.2544
▁확대하는	-11.2544
oil	-11.2544
▁효율성	-11.2544
▁energy	-11.2546
▁access	-11.2548
rs	-11.2548
▁되겠다	-11.2548
▁잡음	-11.2549
▁조언	-11.255
◇	-11.2551
pr	-11.2554
▁아직도	-11.2555
▁급식	-11.2556
▁▷	-11.2557
▁동양	-11.2557
하기를	-11.2558
▁가이드	-11.2559
▁독려	-11.2561
▁drug	-11.2562
▁컨	-11.2563
▁음주운전	-11.2563
▁기온은	-11.2565
▁typically	-11.2565
▁결정한	-11.2566
본부는	-11.2567
블록	-11.2567
▁민심	-11.2569
▁시가	-11.257
▁학생들은	-11.2572
사태	-11.2574
▁certain	-11.2575
점에	-11.2576
▁전해	-11.2576
▁기한	-11.2578
▁주변에	-11.2578
▁결함	-11.2581
주시면	-11.2583
▁없으며	-11.2584
▁가족과	-11.2585
▁주위	-11.2585
▁학술	-11.2585
▁치르	-11.2586
제안	-11.2586
군청	-11.2588
▁많지	-11.2589
▁내용에	-11.2591
▁시작하는	-11.2594
▁효율	-11.2596
▁빌려	-11.2596
내일	-11.2598
▁신도시	-11.2601
▁금융위원회	-11.2604
▁자세히	-11.2605
▁수질	-11.2606
ru	-11.2607
▁주방	-11.2607
▁effective	-11.2609
떡	-11.2614
최대	-11.2615
▁예상보다	-11.2615
sis	-11.2617
▁best	-11.2618
▁커졌다	-11.2619
▁막대한	-11.2619
▁요소를	-11.2619
▁과학기술정보통신부	-11.262
아리	-11.2621
▁늘어나고	-11.2622
cap	-11.2623
▁나서는	-11.2625
▁행사에는	-11.2626
▁fta	-11.2627
씨에	-11.2628
▁촬영을	-11.2628
▁필요성이	-11.2628
▁재현	-11.2631
품을	-11.2631
▁듣는	-11.2632
▁높아졌다	-11.2633
fl	-11.2633
▁외신	-11.2636
공사는	-11.2637
▁사외이사	-11.2638
▁도지사	-11.2639
▁악재	-11.2639
▁접종을	-11.2639
▁트랙	-11.2642
▁■	-11.2642
▁원작	-11.2643
이거나	-11.2644
▁프로그램이	-11.2644
▁수료	-11.2646
부모	-11.2646
군과	-11.2647
▁못했던	-11.2648
▁게재했다	-11.2648
get	-11.2649
▁랩	-11.2649
▁시행한다	-11.2651
▁sensor	-11.2654
▁실시하는	-11.2655
▁결정하는	-11.2657
▁지급하는	-11.2657
캡	-11.2657
▁공주	-11.2659
cr	-11.266
ory	-11.2661
▁Com	-11.2662
▁일각에서는	-11.2663
▁된다고	-11.2664
▁집합	-11.2665
▁표기	-11.2666
▁밀려	-11.2666
넣	-11.2669
업소	-11.267
▁시스템은	-11.2671
▁가려	-11.2671
▁에이스	-11.2672
▁쿠팡	-11.2674
▁우편	-11.2675
▁소녀	-11.2677
드립니다	-11.2677
▁금융당국	-11.2677
▁제약사	-11.2677
▁준비한	-11.2677
▁요인으로	-11.2678
▁제목	-11.2679
▁끊임없이	-11.268
▁이뤄	-11.2681
로드	-11.2682
▁변형	-11.2683
▁early	-11.2685
▁pressure	-11.2687
▁지위	-11.2688
▁취지로	-11.2688
▁선보이며	-11.2689
▁standard	-11.269
▁start	-11.2692
▁축사	-11.2692
▁서민	-11.2693
▁간에	-11.2695
된다면	-11.2696
▁디자이너	-11.2696
▁선언했다	-11.2697
▁국민을	-11.2698
▁고객들이	-11.2699
▁결정했다고	-11.27
▁막판	-11.2704
hold	-11.2704
▁실시해	-11.2704
▁교육청	-11.2704
net	-11.2705
▁말하며	-11.2706
▁냉장고	-11.2707
체육회	-11.271
핏	-11.2713
▁컨소시엄	-11.2715
얀	-11.2716
▁물리	-11.2719
▁최대한	-11.2721
▁일찍	-11.2722
▁kind	-11.2723
음식	-11.2724
▁만이다	-11.2724
theta	-11.2726
누리	-11.2727
▁네트워크를	-11.2728
▁존재하는	-11.2729
AS	-11.2729
▁기술은	-11.2732
▁pass	-11.2734
여서	-11.2734
▁사랑하는	-11.2735
▁anti	-11.2735
▁미얀마	-11.2736
오픈	-11.2736
▁밀어	-11.2737
▁최고치를	-11.2738
▁적어	-11.2738
▁제작한	-11.2739
美	-11.2741
▁있기를	-11.2744
▁공사를	-11.2745
발표	-11.2746
▁롤	-11.2746
▁유전	-11.2747
재판	-11.275
ind	-11.2751
▁감사원	-11.2752
▁금연	-11.2752
▁창업자	-11.2754
▁자택	-11.2756
▁영역에서	-11.2756
대행	-11.2758
미세먼지	-11.2758
▁받아들여	-11.276
▁문제와	-11.276
▁이름으로	-11.276
캡슐	-11.2763
▁유료	-11.2764
▁낮아	-11.2764
▁당의	-11.2765
▁수익률	-11.2766
▁중지	-11.2767
▁텍스트	-11.2767
▁쉽고	-11.2767
▁찍은	-11.2768
줘야	-11.2768
▁불어	-11.2769
▁받으며	-11.2769
▁무죄	-11.2769
▁용산	-11.2769
▁수준인	-11.2772
▁습관	-11.2773
▁유인	-11.2774
산업단지	-11.2774
고요	-11.2774
▁세션	-11.2774
▁groups	-11.2775
▁없애	-11.2775
▁무엇인가	-11.2776
상승	-11.2776
자들에게	-11.2777
dia	-11.2777
▁느낌이	-11.2777
▁마련을	-11.2779
▁넘어서	-11.2779
▁충격을	-11.2779
▁장병	-11.2781
▁충남도	-11.2781
▁이루	-11.2781
中	-11.2782
신경	-11.2783
이닝을	-11.2783
보건소	-11.2784
조원을	-11.2785
할까	-11.2787
▁조례안	-11.2787
▁무엇이	-11.279
만원대	-11.279
권은	-11.279
▁가격으로	-11.2791
▁following	-11.2792
▁퍼포먼스	-11.2793
▁다음날	-11.2793
▁media	-11.2794
▁activities	-11.2794
▁안정을	-11.2796
▁반려동물	-11.2797
▁비트	-11.2797
탐	-11.2799
▁legal	-11.2801
▁설문조사	-11.2801
alpha	-11.2803
▁항소	-11.2804
▁multi	-11.2804
▁전국에서	-11.2805
▁말라	-11.2805
할지	-11.2808
▁축적	-11.2811
▁장점이	-11.2811
▁해명했다	-11.2813
기간은	-11.2813
▁나누어	-11.2813
▁경기장	-11.2814
져야	-11.2817
품질	-11.2817
▁만족도	-11.2818
▁연구에	-11.2818
▁티저	-11.2818
▁부재	-11.282
▁않	-11.2821
▁페이	-11.2821
▁subject	-11.2822
▁보낼	-11.2823
강남	-11.2823
▁say	-11.2824
▁행보	-11.2825
▁후에도	-11.2825
▁flow	-11.2828
▁겁니다	-11.2828
▁방안에	-11.2828
비로	-11.2828
▁추진하겠다	-11.283
연예	-11.2834
전형	-11.2835
▁seen	-11.2835
▁김씨	-11.2836
▁리모델링	-11.2836
▁자립	-11.2838
▁안전하고	-11.2839
▁Please	-11.2839
▁several	-11.2841
▁무소속	-11.2841
▁핫	-11.2841
킴	-11.2843
▁즐거운	-11.2844
▁당해	-11.2845
▁구호	-11.2845
▁부합	-11.2847
▁거짓말	-11.2847
▁송파구	-11.2848
▁나중에	-11.2848
헬스	-11.2848
▁인스타그램에	-11.2849
제도를	-11.2849
▁경유	-11.2849
소통	-11.2849
안은	-11.285
▁무사	-11.2852
▁세계적	-11.2853
▁논문에서는	-11.2854
▁비롯	-11.2854
▁철수	-11.2854
정권	-11.2857
val	-11.2858
줍니다	-11.2861
▁돈이	-11.2864
인들이	-11.2864
장기	-11.2867
▁vr	-11.2869
▁레이	-11.2869
▁의원들이	-11.287
▁작성한	-11.287
위생	-11.2872
mp	-11.2874
▁닭	-11.2876
▁활동이	-11.2878
▁해양수산부	-11.2879
▁입시	-11.2882
▁요청을	-11.2885
ie	-11.2886
레이크	-11.2887
▁마시	-11.2887
▁농도는	-11.2888
▁실수	-11.2888
▁올리고	-11.2888
▁원천	-11.2889
반응	-11.2889
▁경기도는	-11.2892
▁다이어트	-11.2893
▁목록	-11.2894
▁special	-11.2895
▁내리는	-11.2896
▁학대	-11.2898
우리나라	-11.2898
▁보내는	-11.2898
분기에	-11.2899
▁ap	-11.2899
▁인근에	-11.2901
따라서	-11.2901
▁시대의	-11.2905
▁분명	-11.2907
▁다이	-11.2907
▁궁금증을	-11.2907
전체	-11.2907
▁stage	-11.2908
리얼	-11.291
▁병역	-11.2911
아야	-11.2913
밴드	-11.2913
했으면	-11.2914
▁절차에	-11.2914
▁꼽히는	-11.2916
▁임용	-11.2916
▁법원에	-11.2917
▁이해를	-11.292
생활을	-11.292
▁갚	-11.292
cdot	-11.2921
▁농도	-11.2921
헬	-11.2922
▁장중	-11.2925
▁거야	-11.2925
▁우대	-11.2926
▁이른	-11.2927
▁남겨	-11.2927
▁회사에	-11.2928
값을	-11.2929
북부	-11.293
▁클러스터	-11.2931
):	-11.2931
▁호투	-11.2932
▁부드러운	-11.2932
▁업	-11.2935
▁일괄	-11.2935
▁경제를	-11.2936
▁cnn	-11.2937
oma	-11.2938
▁대금	-11.2942
▁그래픽	-11.2942
리움	-11.2944
tro	-11.2946
▁원자력	-11.2946
▁국장	-11.2947
▁재판을	-11.2948
연출	-11.2948
밸리	-11.2949
▁유로존	-11.2949
▁이해하고	-11.2949
dy	-11.2951
▁신용등급	-11.2955
▁처리를	-11.2955
py	-11.2956
▁높아질	-11.2956
노인	-11.2956
▁다음으로	-11.2957
▁위안부	-11.2957
▁로맨스	-11.2958
▁전격	-11.2961
▁산지	-11.2962
▁병원에	-11.2964
▁쌍	-11.2964
섰	-11.2965
▁기본계획	-11.2965
▁본부장은	-11.2967
겐	-11.2969
▁소견	-11.2975
▁시중	-11.2975
▁문제점	-11.2976
참모	-11.2976
▁누릴	-11.2977
▁병원에서	-11.2979
졌지만	-11.2979
▁몰입	-11.298
▁게다가	-11.298
의견	-11.298
경찰청	-11.2981
▁주의해야	-11.2982
▁운영해	-11.2985
▁치료가	-11.2986
▁단일화	-11.299
son	-11.299
▁회사를	-11.2992
피해자	-11.2992
문의	-11.2993
▁수산물	-11.2994
혔다	-11.2996
▁양질의	-11.2996
▁항생제	-11.2998
▁디자인을	-11.3
ates	-11.3002
거든요	-11.3003
▁상의	-11.3005
▁전형	-11.3011
▁밖에도	-11.3011
▁기준이	-11.3013
변호사	-11.3013
맹	-11.3013
▁주어진	-11.3014
기념	-11.3018
▁빨	-11.302
▁않으며	-11.3021
▁성립	-11.3021
▁걸리	-11.3023
문화재단	-11.3024
▁배럴당	-11.3026
▁post	-11.303
▁관련하여	-11.303
▁에코	-11.3031
▁micro	-11.3031
▁industry	-11.3033
▁economic	-11.3033
▁오를	-11.3035
링크	-11.3036
▁기본적으로	-11.3038
파이	-11.304
▁KT	-11.3041
▁신뢰성	-11.3042
일째	-11.3043
▁프로야구	-11.3043
디스	-11.3044
▁연결하는	-11.3044
▁술을	-11.3044
▁request	-11.3045
▁▁▁▁▁▁▁▁▁▁▁▁▁▁▁▁	-11.3046
▁전망을	-11.305
▁이자	-11.3054
▁당선인	-11.3055
됐는데	-11.3058
▁꺼내	-11.3058
ole	-11.3058
민의	-11.3059
▁올리는	-11.306
▁협회	-11.3062
대상자	-11.3062
미술	-11.3064
▁outcomes	-11.3065
▁국제유가	-11.307
동물	-11.3073
륜	-11.3074
▁국민에게	-11.3075
ET	-11.3077
▁multiple	-11.3078
ER	-11.3083
ton	-11.3085
▁원칙을	-11.3086
▁분야를	-11.3086
▁공단	-11.3087
▁기록했다고	-11.3088
협의	-11.3088
▁부하	-11.3089
▁말할	-11.3089
▁들어갈	-11.309
▁off	-11.3091
▁대부분이	-11.3093
▁연계한	-11.3095
▁미뤄	-11.3095
▁자신감을	-11.3099
트는	-11.3099
▁시인	-11.3101
▁이하로	-11.3101
▁접근성	-11.3102
▁가지는	-11.3102
▁요구한	-11.3103
▁브랜드를	-11.3105
▁마르	-11.3106
▁정보는	-11.3107
▁진단했다	-11.3107
▁주입	-11.3108
승점	-11.3109
아트	-11.3111
▁limited	-11.3112
▁유예	-11.3112
▁강좌	-11.3113
▁무한	-11.3114
▁일요일	-11.3115
▁연구원	-11.3116
://	-11.3116
▁물리적	-11.3117
▁프로그램이다	-11.3118
▁춤	-11.3119
랭	-11.312
플랜	-11.3123
▁좌석	-11.3123
▁궁	-11.3123
▁초음파	-11.3125
마스크	-11.3127
ay	-11.313
▁공정성	-11.3131
▁행태	-11.3131
▁박원순	-11.3132
만명이	-11.3132
보라	-11.3133
▁악성	-11.3134
▁예고했다	-11.3134
물류	-11.3134
▁차지한	-11.3136
▁전당대회	-11.3136
▁번호	-11.3137
we	-11.3139
▁her	-11.3139
▁출동	-11.3141
▁사례는	-11.3143
▁동선	-11.3143
▁가로	-11.3143
국면	-11.3145
▁정국	-11.3146
▁허브	-11.3147
▁다루	-11.3148
▁작업에	-11.3152
표준	-11.3153
▁중개	-11.3153
증후군	-11.3155
리테일	-11.3156
▁자격증	-11.3157
금은	-11.3159
AT	-11.3159
지역에서	-11.3159
▁수요를	-11.3159
▁용량을	-11.316
았던	-11.3161
▁원형	-11.3162
주차	-11.3163
▁improve	-11.3163
▁홈페이지에	-11.3164
▁국내에	-11.3165
▁추첨을	-11.3166
내고	-11.3167
억원대	-11.3169
▁온실가스	-11.3169
뷰티	-11.3174
EC	-11.3175
리조트	-11.3175
ict	-11.3176
부지	-11.3179
학력	-11.3181
▁법원은	-11.3182
▁관람객	-11.3182
load	-11.3183
▁집안	-11.3185
▁프로세서	-11.3186
▁중독	-11.3186
▁활용하여	-11.3188
노동자	-11.3189
▁맨	-11.3189
▁법안을	-11.3189
▁용도	-11.319
▁months	-11.3191
어드	-11.3191
?"	-11.3192
▁하이브리드	-11.3193
▁학생들에게	-11.3193
▁중견	-11.3194
▁증세	-11.3195
롭게	-11.3197
클린	-11.3199
▁웃음	-11.3199
화와	-11.32
▁situation	-11.32
▁투여를	-11.3202
|	-11.3205
우선	-11.3206
▁보험금	-11.3206
▁입구	-11.3207
▁기술로	-11.3209
▁사각지대	-11.3209
▁아이를	-11.321
round	-11.3212
▁찾아가는	-11.3214
▁이수	-11.3214
▁헌재	-11.3215
▁통합당	-11.3216
▁들어오	-11.3218
▁생체	-11.3219
조달	-11.322
▁메이크업	-11.3221
▁사용된	-11.3223
▁talk	-11.3225
▁존경	-11.3227
▁생각합니다	-11.3228
▁돌아왔다	-11.323
▁이용객	-11.323
▁cr	-11.3231
▁사업화	-11.3231
▁꼬집었다	-11.3232
▁particular	-11.3233
▁동남아	-11.3233
토론회	-11.3236
▁called	-11.3236
▁낙찰	-11.3236
▁기름	-11.3237
▁부장	-11.3238
▁기다리	-11.3238
수도권	-11.3238
년물	-11.3239
적이다	-11.3239
▁노하우	-11.324
▁취향	-11.324
되던	-11.324
▁분해	-11.3241
▁중국에	-11.3243
▁부사장은	-11.3243
DA	-11.3244
Ch	-11.3244
▁방송되는	-11.3247
▁않았다고	-11.3249
비행	-11.3252
▁send	-11.3255
▁기준에	-11.3255
▁St	-11.3255
▁설명을	-11.3256
▁타격	-11.3258
▁골든	-11.3259
▁고개를	-11.3259
▁실종	-11.326
▁감사를	-11.3262
영남	-11.3263
▁실질	-11.3264
현상	-11.3265
▁지시했다	-11.3267
▁특이	-11.3267
▁개선이	-11.3267
▁뒤로	-11.3269
▁요구하고	-11.327
톨	-11.327
▁생일	-11.327
▁경제에	-11.327
▁믿음	-11.327
▁필요성	-11.327
▁선택을	-11.3271
학부	-11.3271
▁멤버들은	-11.3272
▁나쁜	-11.3274
포스	-11.3275
▁fc	-11.3278
▁수상한	-11.328
선은	-11.3283
가격은	-11.3284
ae	-11.3284
▁걸친	-11.3287
▁바뀌	-11.3287
hr	-11.3287
선의	-11.3288
▁밝은	-11.3289
▁four	-11.3289
스탠	-11.329
▁sa	-11.329
▁파장	-11.3296
▁토트넘	-11.3296
▁dose	-11.3296
▁커버	-11.3298
▁무조건	-11.3298
가능	-11.3299
over	-11.33
▁account	-11.3301
▁뉴욕증시	-11.3301
▁심의를	-11.3302
▁등재	-11.3302
▁넘어가	-11.3303
▁의무를	-11.3304
기간을	-11.3304
▁감독과	-11.3304
▁척	-11.3305
▁그럴	-11.3306
▁졸	-11.3306
▁바라는	-11.3307
▁기대했다	-11.3307
▁유리한	-11.3308
▁대회를	-11.331
▁공급하는	-11.331
▁나타내	-11.331
▁규탄	-11.3311
▁입소	-11.3311
야구	-11.3312
▁손쉽게	-11.3313
▁흔히	-11.3313
▁수분	-11.3313
▁곳이다	-11.3314
▁성공을	-11.3317
▁직원들의	-11.3317
사령관	-11.3318
▁의문	-11.3318
▁민선	-11.3321
▁신청한	-11.3321
패스	-11.3322
▁선보여	-11.3322
my	-11.3323
시장이	-11.3324
건물	-11.3324
ification	-11.3326
▁크림	-11.3326
▁기탁	-11.3327
력과	-11.3328
▁없었	-11.3328
여름	-11.3329
▁인민	-11.333
▁again	-11.3331
▁서브	-11.3332
MP	-11.3333
▁보도에	-11.3333
▁긍정적으로	-11.3334
엑	-11.3334
됐습니다	-11.3337
관에서	-11.334
플로	-11.334
▁심사위원	-11.3341
시리즈	-11.3341
▁유의해야	-11.3341
▁live	-11.3342
AC	-11.3342
▁안타를	-11.3342
▁목표주가	-11.3343
▁노동당	-11.3343
▁actually	-11.3344
▁불가능하다	-11.3347
▁수송	-11.3348
데다	-11.3348
기업은행	-11.335
▁불이	-11.335
▁강구	-11.3355
▁소리를	-11.3355
▁우유	-11.3357
▁경찰의	-11.3357
▁더블	-11.3357
▁뜨	-11.3358
세이브	-11.3358
▁소식통	-11.3359
▁있었	-11.3359
▁간편하게	-11.3359
▁특성에	-11.336
▁아나운서	-11.336
▁이해할	-11.3362
▁빼앗	-11.3365
▁buy	-11.3367
프트	-11.3369
▁주당	-11.337
되므로	-11.337
▁app	-11.337
집을	-11.3371
AM	-11.3372
버거	-11.3376
▁간주	-11.3377
ung	-11.3378
▁선착순	-11.3378
▁바르	-11.3379
▁사망한	-11.3379
쉽	-11.3379
▁비례	-11.338
▁불법행위	-11.3381
▁만전을	-11.3382
press	-11.3384
▁여신	-11.3385
mod	-11.3385
▁남긴	-11.3386
":	-11.3387
팀장은	-11.3388
▁올해도	-11.3388
▁고객들의	-11.3388
▁고창	-11.3389
▁바와	-11.339
물품	-11.3391
▁기관의	-11.3392
▁거둔	-11.3393
소장	-11.3395
▁현장의	-11.3399
IT	-11.3399
dc	-11.34
▁open	-11.34
나트륨	-11.34
ct	-11.3401
▁mg	-11.3402
쇼핑	-11.3403
만주	-11.3404
▁대변	-11.3404
▁총력을	-11.3405
돔	-11.3405
동맥	-11.3406
▁특례	-11.3407
심리	-11.3408
▁경위	-11.3409
▁보령	-11.3409
rate	-11.341
▁application	-11.3413
▁기본적인	-11.3413
그룹의	-11.3413
▁유권자	-11.3415
그룹이	-11.3415
▁재개발	-11.3415
▁원리	-11.3416
뚜	-11.3417
▁받았고	-11.342
▁email	-11.3423
▁머물	-11.3423
요소	-11.3423
▁세금을	-11.3423
▁엔터테인먼트	-11.3427
므로	-11.3427
▁지난해보다	-11.3428
타로	-11.3431
해달라고	-11.3432
포를	-11.3433
▁전국적으로	-11.3438
듀	-11.3439
▁맞다	-11.344
▁room	-11.3442
▁대상에	-11.3442
거래소	-11.3442
사옥	-11.3442
▁금요일	-11.3444
▁사회의	-11.3446
▁포함하는	-11.3447
▁실습	-11.3448
▁대표적	-11.3449
샌	-11.3449
나가는	-11.345
▁소모	-11.3451
▁콜센터	-11.3451
스페이스	-11.3451
광역시	-11.3451
▁진주	-11.3453
▁complex	-11.3453
이러한	-11.3454
▁사태를	-11.3456
mic	-11.3457
▁명확한	-11.3457
역을	-11.3458
▁top	-11.3458
자료를	-11.3458
여부	-11.3459
▁소비자가	-11.346
▁면에서	-11.3462
변동	-11.3464
단속	-11.3464
▁이름이	-11.3464
▁선호하는	-11.3465
▁한국거래소	-11.3465
▁모자	-11.3466
▁타인	-11.3466
▁대국민	-11.3466
nd	-11.3469
▁타입	-11.3469
대에서	-11.347
▁지키기	-11.3472
▁증가에	-11.3473
▁결과로	-11.3475
▁민주노총	-11.3475
cre	-11.3476
▁설사	-11.3476
▁오리	-11.3477
▁실질적으로	-11.3477
▁의사결정	-11.3478
▁고객들에게	-11.348
▁운영된다	-11.3481
▁매칭	-11.3481
▁모빌리티	-11.3481
붓	-11.3482
▁갑	-11.3484
▁혁신적인	-11.3484
부와	-11.3484
▁주주총회	-11.3485
중학교	-11.3485
▁근접	-11.3485
▁묻자	-11.3485
▁오르는	-11.3486
▁동맹	-11.3486
▁충청	-11.3486
▁직면	-11.3488
ene	-11.3489
▁남기	-11.3489
▁팀은	-11.3491
▁모터	-11.3492
MC	-11.3495
▁소관	-11.3497
외국인	-11.3499
▁데이터베이스	-11.3499
▁때문입니다	-11.35
▁거래가	-11.3501
채무	-11.3501
▁로비	-11.3502
▁교역	-11.3503
▁보내고	-11.3505
▁CEO	-11.3506
▁에너지를	-11.3508
▁사용하면	-11.351
행위를	-11.3511
▁반대하는	-11.3513
▁개최되는	-11.3513
▁조기에	-11.3514
묶	-11.3514
▁펴	-11.3514
과정을	-11.3515
수익률	-11.3516
▁학계	-11.3516
▁있느냐	-11.3516
▁안다	-11.3517
▁추구하는	-11.3518
처음	-11.3519
왔습니다	-11.3519
▁움직이	-11.352
pu	-11.3521
▁다저스	-11.3522
▁돌아온	-11.3522
▁합리적	-11.3522
▁사실은	-11.3523
▁아시아나항공	-11.3524
▁저해	-11.3524
▁확대될	-11.3525
▁고전	-11.3526
▁손잡고	-11.3528
▁다양성	-11.3528
▁인쇄	-11.3529
▁고통을	-11.353
대장	-11.353
▁삭감	-11.3531
▁성장세를	-11.3533
▁지역으로	-11.3534
론을	-11.3534
▁간다	-11.3535
구가	-11.3535
폼	-11.3535
▁includes	-11.3535
식당	-11.3535
▁감수	-11.3535
이동	-11.3537
▁주식시장	-11.3538
▁활력을	-11.3538
▁무장	-11.3539
▁사운드	-11.3539
▁week	-11.3541
▁예매	-11.3542
▁보면서	-11.3542
▁본관	-11.3543
듣	-11.3544
▁국회가	-11.3544
韓	-11.3545
▁출간	-11.3545
mL	-11.3547
▁Oh	-11.3549
▁출연한다	-11.355
▁portion	-11.355
▁곳곳에	-11.3551
▁에어컨	-11.3551
▁특성상	-11.3552
인에게	-11.3553
▁사람과	-11.3553
▁소위	-11.3556
▁영국의	-11.3556
▁무산	-11.3558
면접	-11.3559
▁지키	-11.3561
대법원	-11.3563
▁거리를	-11.3564
▁작업이	-11.3564
▁실장	-11.3565
▁생중계	-11.3566
▁잊지	-11.3567
회에서	-11.3567
▁저작권	-11.3568
▁나의	-11.3568
▁보며	-11.3569
TV	-11.357
▁들어가는	-11.357
어진	-11.3571
▁디바이스	-11.3571
▁모르겠다	-11.3572
솔루션	-11.3573
▁걷	-11.3575
▁투자유치	-11.3575
▁채소	-11.3578
▁순수	-11.3579
나갔다	-11.3579
▁경향이	-11.3579
▁불펜	-11.3581
▁고품질	-11.3584
나쁨	-11.3587
▁지키는	-11.3588
▁슈팅	-11.3588
종이	-11.3589
▁책임이	-11.3591
농협은행	-11.3591
▁관측이	-11.3592
▁증설	-11.3597
▁예산이	-11.3598
믹스	-11.3598
▁채워	-11.3599
▁마스터	-11.3599
부담금	-11.36
▁조금씩	-11.3601
▁가이드라인	-11.3602
▁위임	-11.3603
▁레이저	-11.3604
▁서비스에	-11.3605
▁제작된	-11.3605
연구원은	-11.3606
des	-11.3608
▁할당	-11.361
▁국가가	-11.3611
문화재	-11.3612
▁개최하고	-11.3612
으려	-11.3614
▁총선에서	-11.3614
교체	-11.3614
▁policy	-11.3615
▁구미	-11.3617
▁유관기관	-11.3617
▁particularly	-11.3617
▁속도로	-11.362
티브	-11.362
▁source	-11.3621
에서만	-11.3623
▁바이어	-11.3624
▁외면	-11.3625
▁캐스팅	-11.3628
▁등장했다	-11.3629
▁정기적으로	-11.3631
ward	-11.3634
ju	-11.3635
▁population	-11.3637
게임즈	-11.3638
리버	-11.3638
▁call	-11.3638
층의	-11.364
▁할지	-11.364
▁연예인	-11.3641
춘천	-11.3642
▁fact	-11.3643
▁차량이	-11.3643
▁iot	-11.3644
▁사이즈	-11.3649
▁hours	-11.3649
리츠	-11.365
▁위해서다	-11.365
▁전년보다	-11.3652
▁기다리고	-11.3652
▁재계	-11.3657
▁영구	-11.3658
단과	-11.3658
컨설팅	-11.3659
▁정신을	-11.366
▁가시	-11.3661
해주고	-11.3662
▁이후에는	-11.3664
▁ac	-11.3664
▁외출	-11.3665
▁third	-11.3666
▁공지	-11.3666
▁이어져	-11.3667
▁Ex	-11.3668
메이	-11.3672
패션	-11.3674
▁반영된	-11.3674
해진다	-11.3674
▁준비가	-11.3674
▁방문하는	-11.3675
▁초등학생	-11.3676
sns	-11.3676
▁visit	-11.3677
▁received	-11.3681
▁behavior	-11.3682
▁보충	-11.3682
▁걸릴	-11.3683
▁자진	-11.3684
두산	-11.3686
됐으나	-11.3687
▁묻고	-11.3687
▁한국이	-11.3688
레드	-11.3688
ction	-11.3689
▁복수의	-11.3689
▁선수들의	-11.3689
▁개최된	-11.3689
▁일종의	-11.3689
▁weight	-11.3691
▁익산	-11.3692
신종	-11.3695
ins	-11.3696
▁괴	-11.3697
▁차를	-11.3699
▁이것	-11.37
밴	-11.3701
▁혹시	-11.3703
▁family	-11.3703
면허	-11.3703
▁있었다고	-11.3705
접수	-11.3705
▁과잉	-11.371
▁탐지	-11.371
▁지나치게	-11.3711
▁재능	-11.3711
법률	-11.3712
▁입장에서는	-11.3712
▁시연	-11.3712
▁일으킨	-11.3713
패로	-11.3715
▁입었다	-11.3716
▁스타벅스	-11.3716
▁알코올	-11.3719
꼼	-11.3723
등급을	-11.3725
▁developed	-11.3725
▁환급	-11.3731
▁나도	-11.3731
▁독도	-11.3732
스토리	-11.3732
▁불필요한	-11.3733
▁After	-11.3733
▁practice	-11.3733
▁교직원	-11.3733
빗	-11.3735
사전	-11.3735
▁불량	-11.3735
▁output	-11.3737
}{	-11.3738
▁척추	-11.3739
▁존재한다	-11.374
켄	-11.374
dB	-11.374
▁집중적으로	-11.374
▁탑	-11.3742
▁독성	-11.3743
▁집단감염	-11.3743
▁지원과	-11.3744
▁하원	-11.3744
▁center	-11.3745
길을	-11.3746
▁비록	-11.3752
스토	-11.3753
▁열려	-11.3753
▁세균	-11.3755
▁나스닥	-11.3755
기본법	-11.3755
▁포털	-11.3756
▁구체화	-11.3758
▁요약	-11.3759
▁하는지	-11.376
▁표정	-11.3762
만원에서	-11.3762
▁전국의	-11.3763
괜찮	-11.3766
▁교통안전	-11.3767
tf	-11.3767
▁주시기	-11.3768
▁크루즈	-11.3768
▁과기정통부	-11.3768
▁연일	-11.377
▁financial	-11.377
학급	-11.3771
▁income	-11.3771
조치를	-11.3771
▁들어간다	-11.3771
▁배양	-11.3772
▁文	-11.3773
bit	-11.3773
▁업무에	-11.3774
▁설문	-11.3775
이었지만	-11.3776
차별	-11.3777
▁승리했다	-11.3777
▁이번주	-11.3777
▁인터뷰를	-11.3778
▁치즈	-11.3779
실험	-11.3779
lf	-11.378
음에도	-11.378
봉사단	-11.3781
▁identified	-11.3782
판결	-11.3784
연승을	-11.3787
way	-11.3787
▁챌린지	-11.3788
인식	-11.3789
▁비례대표	-11.379
▁알파	-11.3791
ES	-11.3791
긋	-11.3792
▁강화한다	-11.3793
▁답하려면	-11.3793
rc	-11.3794
▁주어	-11.3798
▁순매도	-11.3798
로그	-11.3799
▁공중	-11.3799
▁생기는	-11.3802
▁알레르기	-11.3802
재해	-11.3803
che	-11.3803
관세	-11.3806
▁기업들은	-11.3807
▁검토할	-11.3808
▁태도를	-11.3808
▁전환을	-11.3809
▁영세	-11.381
▁복무	-11.3811
패드	-11.3811
▁better	-11.3812
이든	-11.3813
▁타임	-11.3815
▁pattern	-11.3816
위권	-11.3817
tur	-11.3818
▁근거가	-11.3819
▁통신사	-11.382
▁주세요	-11.3822
▁우수사례	-11.3823
홈쇼핑	-11.3828
▁막는	-11.3829
▁일선	-11.3829
▁safety	-11.383
▁기술력을	-11.3831
▁대륙	-11.3831
▁펼친다	-11.3832
특성	-11.3834
스토어	-11.3836
▁그렇다면	-11.3838
▁미래통합당	-11.384
▁났다	-11.3841
▁외모	-11.3842
▁hope	-11.3843
▁리콜	-11.3845
▁식사를	-11.3847
▁공기업	-11.3848
연은	-11.3848
무대	-11.3848
▁예전	-11.3849
▁primary	-11.3849
▁골절	-11.3852
지원을	-11.3852
▁투여해야	-11.3853
서부	-11.3853
rit	-11.3854
▁유재석	-11.3855
▁결산	-11.3856
▁면허	-11.3856
지원금	-11.3856
▁여자친구	-11.386
▁땀	-11.386
MI	-11.386
▁구도	-11.3862
▁shows	-11.3862
▁검사에서	-11.3863
▁offer	-11.3865
▁고민을	-11.3866
▁사건과	-11.387
물가	-11.387
▁하나가	-11.387
▁등교	-11.387
▁경제성장률	-11.387
▁전인	-11.3872
▁방지하기	-11.3872
수행	-11.3872
▁기부금	-11.3874
▁성금	-11.3875
엔지니어링	-11.3875
국이	-11.3876
chi	-11.3877
깃	-11.3878
▁구성돼	-11.3879
생물	-11.3883
▁오차	-11.3884
▁표적	-11.3884
▁빗	-11.3885
ick	-11.3885
▁올리	-11.3887
▁훌륭한	-11.3887
CO	-11.3888
▁플레이어	-11.3889
지인	-11.3889
▁집중할	-11.3892
▁관리가	-11.3892
사업으로	-11.3893
mc	-11.3893
▁수유부	-11.3895
▁How	-11.3896
▁선거운동	-11.3896
여당	-11.3897
▁부탁드린다	-11.3897
▁캔	-11.3898
▁좋았다	-11.3898
▁기술의	-11.3898
▁모금	-11.3901
▁간접	-11.3903
▁객체	-11.3904
▁정책의	-11.3906
위원회에서	-11.3908
▁network	-11.391
국으로	-11.391
민원	-11.3912
▁멋진	-11.3912
▁실력을	-11.3914
▁취할	-11.3914
▁essential	-11.3915
▁잇	-11.3917
▁문의하면	-11.3918
▁당첨	-11.3919
▁넘기	-11.3919
▁추측	-11.392
▁컨테이너	-11.392
▁분석된다	-11.3922
▁특징을	-11.3923
테라	-11.3923
층을	-11.3924
▁paper	-11.3925
▁식약처	-11.3925
▁마포구	-11.3926
▁회의에	-11.3926
▁손에	-11.3929
▁유효성	-11.3932
자로서	-11.3932
▁reduced	-11.3933
▁군인	-11.3934
▁연구결과	-11.3934
NA	-11.3935
▁귀하의	-11.3935
▁피자	-11.3935
▁bi	-11.3937
봉사	-11.3939
▁중대	-11.3939
CT	-11.394
▁긴밀한	-11.394
▁초등	-11.3941
매출	-11.3944
▁나눴다	-11.3945
▁나타낸	-11.3945
지상	-11.3947
▁적용된	-11.3948
▁만화	-11.3948
빌딩	-11.3949
SE	-11.395
기본	-11.3952
SC	-11.3952
▁챙겨	-11.3952
▁모델이	-11.3953
성실	-11.3954
ses	-11.3955
루에서	-11.3957
▁퇴원	-11.3958
▁새만금	-11.3958
▁약속을	-11.3959
▁겨울철	-11.3959
▁항소심	-11.3959
▁고의	-11.396
대책을	-11.3963
▁시청자들	-11.3964
▁지어	-11.3964
▁일산	-11.3968
qui	-11.3969
▁전체적으로	-11.3969
▁확대한다	-11.3972
▁신선한	-11.3972
스틱	-11.3972
콩	-11.3976
▁상원	-11.3976
윗	-11.3977
▁소비자들이	-11.3981
▁목사	-11.3981
요구	-11.3983
▁출판	-11.3988
▁이뤄지는	-11.3989
▁권위	-11.3989
▁베이스	-11.399
되었음	-11.3991
▁싸우	-11.3991
▁역학조사	-11.3991
▁tf	-11.3991
▁계획에	-11.3992
ever	-11.3992
▁주장하고	-11.3994
▁준비해	-11.3995
▁소문	-11.3996
▁주식회사	-11.3996
▁먹어	-11.3998
▁세무	-11.4
주거	-11.4
▁카드사	-11.4
캐피탈	-11.4002
▁questions	-11.4003
수지	-11.4003
▁다운	-11.4005
메르	-11.4007
▁우울증	-11.4007
자들을	-11.4008
▁전체를	-11.401
텔레콤은	-11.401
▁pay	-11.4011
▁신형	-11.4011
▁few	-11.4011
▁타이어	-11.4012
▁물결은	-11.4016
휴양	-11.4016
댄	-11.4017
▁당대표	-11.4018
았고	-11.4018
▁she	-11.4019
▁own	-11.402
ger	-11.402
▁자신감	-11.4021
창원	-11.4022
▁정도를	-11.4023
▁제고를	-11.4023
▁알림	-11.4024
▁배분	-11.4025
▁이뤄지고	-11.4025
lin	-11.4027
▁장면이	-11.4027
▁why	-11.4029
▁대학교	-11.4031
▁지적도	-11.4031
▁크기는	-11.4031
▁개발과	-11.4032
▁아니라는	-11.4032
녹	-11.4032
▁되기를	-11.4033
▁기술개발	-11.4033
▁색깔	-11.4034
드리고	-11.4034
▁학업	-11.4034
▁접목	-11.4036
기관인	-11.4036
전시	-11.4038
쟁	-11.4038
▁했습니다	-11.4039
▁도입해	-11.4039
▁원가	-11.4041
▁일본은	-11.4041
『	-11.4042
▁return	-11.4044
▁민관	-11.4044
▁골드	-11.4044
▁일정한	-11.4046
▁하반기에	-11.4047
▁impact	-11.4047
▁방문객	-11.4051
▁해운	-11.4052
▁한우	-11.4055
리게	-11.4056
▁already	-11.4056
업체인	-11.4058
▁판로	-11.4061
▁과목	-11.4061
▁브리핑을	-11.4062
센서	-11.4063
▁가면	-11.4063
▁엑소	-11.4064
▁보행	-11.4067
▁연세대	-11.4067
▁가해자	-11.4068
▁소비자의	-11.4069
작은	-11.4071
▁강력히	-11.4072
펑	-11.4072
▁가상화폐	-11.4072
레이트	-11.4072
mark	-11.4073
▁col	-11.4073
▁언급하며	-11.4073
ray	-11.4074
▁설명하고	-11.4074
▁추정되는	-11.4075
위성	-11.4076
▁공동대표	-11.4076
▁하도급	-11.4076
▁북핵	-11.4077
▁것이었다	-11.4078
▁분석하고	-11.4078
▁되는데	-11.4079
▁방식은	-11.408
▁신천지	-11.4084
▁제기된	-11.4084
드려	-11.4085
box	-11.4085
▁생겼다	-11.4087
▁스틸	-11.4087
▁지난해부터	-11.4088
ological	-11.409
▁탓	-11.4093
▁강화에	-11.4093
싼	-11.4096
▁없음	-11.4097
추가	-11.4097
▁확인하기	-11.4098
수급	-11.41
크림	-11.4101
레이션	-11.4101
플래	-11.4101
미스	-11.4102
▁남다른	-11.4103
라스	-11.4104
文	-11.4104
▁자금이	-11.4104
▁사인	-11.4105
▁혜택이	-11.4106
호에	-11.4107
▁밖으로	-11.4107
▁옷을	-11.4108
요인	-11.411
▁저도	-11.411
▁야기	-11.4112
▁징	-11.4113
▁여지가	-11.4114
뉴욕	-11.4116
▁장관과	-11.4118
▁요건을	-11.4119
심이	-11.4119
이냐	-11.412
▁정도다	-11.4121
ular	-11.4123
▁컬렉션	-11.4125
▁소매	-11.4125
▁정례	-11.4127
▁주민등록	-11.4127
▁기구	-11.4129
▁영향력을	-11.4129
▁명령을	-11.4132
▁기대할	-11.4133
▁숙소	-11.4133
증명서	-11.4135
능력을	-11.4136
▁//	-11.4136
▁않았다는	-11.4136
▁벌인	-11.4136
▁store	-11.4138
파워	-11.414
▁개원	-11.414
▁만나는	-11.4141
▁Since	-11.4141
▁추첨	-11.4143
▁쿠폰	-11.4144
▁미국에	-11.4145
값은	-11.4147
▁이틀간	-11.4147
▁전달할	-11.4147
▁자체를	-11.4148
▁이식	-11.4149
▁침수	-11.4149
▁problems	-11.4151
▁함량	-11.4151
프로젝트	-11.4151
▁크레	-11.4151
▁선정돼	-11.4152
▁결정이	-11.4152
▁배열	-11.4152
▁모습은	-11.4154
▁All	-11.4155
▁진단을	-11.4155
▁면밀히	-11.4156
▁통행	-11.4157
구장	-11.4158
▁신산업	-11.416
▁Mo	-11.416
ade	-11.4162
▁상승세	-11.4164
경험	-11.4165
▁회장과	-11.4165
옵	-11.4166
▁카드를	-11.4166
▁유감	-11.4166
▁발표하고	-11.4166
▁뒤늦게	-11.4166
단에	-11.4168
▁수시로	-11.417
▁확실한	-11.4171
▁방문했다	-11.4171
▁설립한	-11.4171
▁이상이	-11.4171
▁저지른	-11.4172
▁협	-11.4173
▁취업자	-11.4174
식으로	-11.4176
그렇게	-11.4177
▁탈모	-11.4178
▁Fig	-11.4178
▁캠핑	-11.4179
▁Ma	-11.4179
▁memory	-11.4179
▁그중	-11.418
▁나누	-11.418
▁신중	-11.418
명씩	-11.418
▁알지	-11.4182
▁케이스	-11.4184
진영	-11.4184
▁정당한	-11.4186
▁곳을	-11.4187
▁보고되었습니다	-11.4187
▁경험과	-11.4188
SI	-11.4189
▁투구	-11.4191
▁발부	-11.4191
붕	-11.4192
nic	-11.4192
▁가맹	-11.4192
새누리당	-11.4192
▁확보에	-11.4193
▁고생	-11.4193
산화	-11.4196
협의체	-11.4199
▁사료	-11.4199
꺾	-11.42
▁합작	-11.4202
▁풍경	-11.4202
less	-11.4204
▁표했다	-11.4206
▁도입한	-11.4207
▁순이었다	-11.4208
▁투자의견	-11.4211
▁인센티브	-11.4211
▁미소	-11.4211
▁프레	-11.4216
비치	-11.4216
▁압축	-11.4217
▁music	-11.4218
계열	-11.4218
▁전력을	-11.4219
▁모형	-11.4221
▁신발	-11.4222
▁뿐이다	-11.4222
▁major	-11.4223
▁신뢰도	-11.4223
▁열풍	-11.4224
▁선점	-11.4227
계를	-11.4227
토스	-11.4228
넌	-11.4228
▁Can	-11.4229
▁흰색	-11.4229
화재	-11.423
품목	-11.423
▁이르기까지	-11.4231
▁걸려	-11.4232
▁펼쳐진다	-11.4232
ug	-11.4233
▁日	-11.4234
▁맺은	-11.4236
뢰	-11.4237
▁힘들어	-11.424
▁참석자	-11.4241
▁조성사업	-11.4243
▁실장은	-11.4247
▁사육	-11.4248
ode	-11.4249
▁특별히	-11.4249
▁눈빛	-11.4251
▁정상적인	-11.4252
win	-11.4253
▁왔	-11.4254
▁공간이	-11.4255
▁지속가능한	-11.4256
▁어렵게	-11.4256
▁희생자	-11.4257
▁드러난	-11.4258
▁상회	-11.4259
▁더민주	-11.4259
기부	-11.4262
▁커뮤니케이션	-11.4262
▁곳곳에서	-11.4264
▁헌법재판소	-11.4265
▁밝혔	-11.4267
▁시티	-11.4269
물로	-11.427
▁처리할	-11.4272
하지는	-11.4277
포장	-11.4278
que	-11.4278
▁핵실험	-11.4278
년여	-11.4278
코리아는	-11.4279
▁맺었다	-11.428
rise	-11.428
▁멀리	-11.4281
▁사망했다	-11.4282
강릉	-11.4282
▁말하기	-11.4285
▁중소기업의	-11.4286
▁약세를	-11.4286
▁채우	-11.4286
▁합격자	-11.4288
▁국어	-11.4288
▁올릴	-11.4289
▁합산	-11.4289
▁로드	-11.429
▁liver	-11.429
▁한중	-11.4292
세율	-11.4292
▁각오를	-11.4293
▁사용될	-11.4293
▁파산	-11.4294
ify	-11.4297
▁출신인	-11.4298
블루	-11.4298
▁이끌고	-11.4299
▁출신으로	-11.4299
▁균형을	-11.43
거래량	-11.4301
곳에서	-11.4302
보이	-11.4304
▁solution	-11.4304
기업이	-11.4306
▁현상을	-11.4313
▁정통	-11.4315
단체장	-11.4315
▁멋	-11.4315
▁동의를	-11.4317
▁시점에서	-11.4318
쌍	-11.4319
▁바꾸는	-11.4321
▁관점	-11.4322
▁투자해	-11.4322
▁휴식을	-11.4323
▁제재를	-11.4324
related	-11.4325
▁셋째	-11.4325
▁학생이	-11.4325
▁의지가	-11.4325
흑	-11.4329
공예	-11.433
▁관심사	-11.4331
▁reason	-11.4332
▁계획임	-11.4334
▁부양	-11.4335
▁이끈	-11.4335
▁대법원장	-11.4337
그라	-11.4338
▁disorder	-11.4338
▁출신의	-11.4338
에서부터	-11.4338
넥	-11.4341
개발사업	-11.4342
▁단말	-11.4343
▁미친	-11.4343
문화유산	-11.4343
이브	-11.4343
▁강렬한	-11.4344
▁지향	-11.4344
▁인프라를	-11.4345
▁Therefore	-11.4346
주면	-11.4348
▁분열	-11.4349
▁첨부	-11.435
▁사임	-11.435
ceo	-11.435
▁evaluation	-11.4351
▁신화	-11.4352
결혼	-11.4353
티아	-11.4356
▁못하게	-11.4356
부처	-11.4357
▁앞장서	-11.4357
▁공간으로	-11.4358
▁착	-11.4359
▁클린턴	-11.4359
▁점검을	-11.436
▁행진	-11.4361
실장은	-11.4362
▁신흥국	-11.4363
▁상품은	-11.4363
시마	-11.4365
▁종가	-11.4366
사기	-11.4366
▁강조한	-11.4368
▁나라를	-11.4368
▁cu	-11.4369
▁않는다고	-11.4369
▁비치	-11.4369
▁동계올림픽	-11.437
브로	-11.437
작품	-11.4371
▁조업	-11.4372
▁검진	-11.4372
삼성전자	-11.4372
수리	-11.4373
▁잃은	-11.4376
▁작품이	-11.4378
▁한계를	-11.438
▁공개할	-11.4382
▁농림축산식품부	-11.4385
▁나타난다	-11.4387
und	-11.4387
▁수출이	-11.4387
▁밖의	-11.4388
라운드에서	-11.4389
불법	-11.4392
졌던	-11.4396
▁보좌관	-11.4396
▁절차가	-11.44
▁시계	-11.4401
▁지원하겠다	-11.4401
▁경관	-11.4401
쥬	-11.4401
▁현지에서	-11.4401
▁기소됐다	-11.4401
▁공개된다	-11.4402
lan	-11.4403
▁지배구조	-11.4403
▁비서관	-11.4405
▁bmw	-11.4405
▁앙	-11.4405
▁북한에	-11.4405
▁주목받고	-11.4407
주사	-11.4408
▁판단해	-11.4409
▁active	-11.4409
썸	-11.441
▁치열	-11.441
▁당신의	-11.4411
▁강경	-11.4412
▁롯데그룹	-11.4412
울릉	-11.4414
든지	-11.4414
rap	-11.4415
된다는	-11.4415
based	-11.4418
▁민법	-11.442
▁times	-11.4421
▁장수	-11.4422
▁벌어지는	-11.4424
▁효과적	-11.4424
농장	-11.4426
▁원화	-11.4427
카르	-11.4427
▁불가능한	-11.4428
▁의미다	-11.4431
되는데	-11.4431
▁발표한다	-11.4433
▁살펴	-11.4434
맞이	-11.4435
▁음반	-11.4436
▁마무리했다	-11.4437
▁출마를	-11.4438
대상은	-11.4438
▁제치고	-11.4438
▁구비	-11.4438
▁곱	-11.4442
▁위에서	-11.4442
깊	-11.4442
▁사회에	-11.4442
▁있거나	-11.4443
되나	-11.4444
▁수직	-11.4446
비리	-11.4446
▁지키고	-11.4446
▁국가들	-11.4447
▁찾지	-11.4448
엘리	-11.4448
▁병원을	-11.4451
▁close	-11.4451
▁meeting	-11.4451
▁제압	-11.4452
▁요법	-11.4456
oid	-11.4459
무기	-11.4465
▁결성	-11.4469
▁비용은	-11.4469
▁불만을	-11.4469
▁사모펀드	-11.447
▁제시하고	-11.447
▁실패했다	-11.4471
닉스	-11.4472
▁시일	-11.4472
▁전분기	-11.4472
▁높	-11.4473
▁표창	-11.4475
▁내장	-11.4475
▁hard	-11.4477
▁선제적으로	-11.4477
연습	-11.4477
▁녹음	-11.4478
▁세탁	-11.4478
실로	-11.4479
▁CT	-11.448
mat	-11.4481
▁장기적으로	-11.4481
닭	-11.4482
놓	-11.4483
▁개발했다	-11.4483
▁거다	-11.4483
▁형식으로	-11.4484
▁일에	-11.4484
▁호전	-11.4484
리오	-11.4487
▁고기	-11.4488
▁전사	-11.4488
▁걸린	-11.449
▁증가해	-11.449
▁gas	-11.4491
▁스카이	-11.4493
▁순서	-11.4497
감소	-11.4497
▁협상이	-11.4497
▁법원이	-11.4497
▁돌입했다	-11.4498
▁들었	-11.4501
▁실시예에	-11.4501
▁understand	-11.4503
▁글과	-11.4505
해져	-11.4508
작업을	-11.451
집회	-11.451
▁응답자	-11.451
▁투약	-11.4512
▁꾀	-11.4514
▁아세안	-11.4514
error	-11.4514
▁움직임을	-11.4515
▁자치구	-11.4516
▁시간과	-11.4518
▁words	-11.4519
▁완벽하게	-11.4519
▁문제의	-11.4519
펫	-11.452
▁염두에	-11.452
▁합의가	-11.4521
리즘	-11.4521
못	-11.4522
▁식품의약품안전처	-11.4525
▁민감한	-11.4526
하에	-11.4526
도시로	-11.4528
▁신차	-11.4529
beta	-11.4529
▁용의자	-11.453
section	-11.4531
당의	-11.4531
▁하드웨어	-11.4531
▁현대모비스	-11.4531
▁속초	-11.4532
▁공장을	-11.4532
마감	-11.4533
▁사물인터넷	-11.4533
▁잉글랜드	-11.4534
▁편안한	-11.4534
▁공급을	-11.4536
▁메일	-11.4536
▁head	-11.4537
▁재편	-11.4537
▁가속	-11.4538
▁서비스로	-11.4539
▁넷마블	-11.4542
nt	-11.4542
▁셰프	-11.4542
보도	-11.4543
▁선제적	-11.4544
너무	-11.4544
▁상승을	-11.4545
LA	-11.4546
new	-11.4546
▁금메달	-11.4547
처장	-11.4547
▁변화와	-11.4548
▁증후군	-11.4549
▁월세	-11.4549
TO	-11.4549
▁critical	-11.455
▁청와대는	-11.455
▁고도	-11.4551
df	-11.4551
▁링크	-11.4554
▁실태조사	-11.4557
▁옮기	-11.4558
▁list	-11.4558
▁임의	-11.4558
특수	-11.456
용수	-11.4561
이야	-11.4562
▁골자로	-11.4563
▁밝혀졌다	-11.4566
▁가계부채	-11.4566
▁골키퍼	-11.4566
▁건설사	-11.4567
▁시신	-11.457
▁월요일	-11.457
▁신생아	-11.4571
▁가능하게	-11.4571
▁조건으로	-11.4572
▁가결	-11.4572
▁하나다	-11.4574
▁경신	-11.4575
톰	-11.4577
▁정답	-11.4579
▁총액	-11.4579
▁설치하고	-11.458
▁그러한	-11.458
▁칭찬	-11.4581
▁신한	-11.4582
▁제공한	-11.4582
▁현대건설	-11.4583
▁도의회	-11.4583
대변인	-11.4583
ute	-11.4583
어떤	-11.4584
▁참가한	-11.4584
▁파손	-11.4584
▁때가	-11.4585
▁수사가	-11.4585
▁활발히	-11.4585
▁도박	-11.4586
wsj	-11.4587
▁그만	-11.4588
▁실질적	-11.4588
신한	-11.4588
gr	-11.4589
▁이듬해	-11.459
▁이곳	-11.4591
▁heart	-11.4591
▁ip	-11.4592
▁가벼운	-11.4593
▁방송인	-11.4593
▁산다	-11.4594
▁☞	-11.4595
오프라인	-11.4595
▁달러화	-11.4597
▁mean	-11.4597
▁손해를	-11.4599
소상공인	-11.46
▁자칫	-11.4602
추진단	-11.4602
▁사항이	-11.4603
▁거기에	-11.4604
업계에	-11.4604
▁유발할	-11.4604
문서	-11.4604
▁초청해	-11.4604
▁다르	-11.4606
▁젖	-11.4606
▁벨기에	-11.4606
▁화제가	-11.4609
cy	-11.4609
▁정책과	-11.461
▁원내	-11.461
추위	-11.461
▁원내대표가	-11.4611
▁높다는	-11.4612
▁통지	-11.4612
▁정신적	-11.4613
▁influence	-11.4614
뱅킹	-11.4615
▁노트북	-11.4618
str	-11.4618
만원까지	-11.4618
▁국정감사	-11.4619
정도	-11.462
SS	-11.4621
▁team	-11.4624
SD	-11.4624
일정	-11.4625
▁카메라를	-11.4625
▁저자	-11.4625
켜	-11.4625
▁업계의	-11.4626
▁평가하는	-11.4628
아프리카	-11.4629
디오	-11.4631
요원	-11.4632
번홀	-11.4633
▁플라	-11.4634
▁필요하지	-11.4634
▁고령화	-11.4635
었을	-11.4636
▁불확실성이	-11.4636
▁보컬	-11.4636
▁구제	-11.4639
▁변호인	-11.4639
▁물건을	-11.4639
▁become	-11.4641
기간이	-11.4642
지자체	-11.4643
**	-11.4643
ition	-11.4644
내역	-11.4645
▁지능	-11.4647
▁생각하지	-11.4647
▁의상	-11.4647
▁교과	-11.4648
?...	-11.4649
▁삼성전자의	-11.465
수와	-11.465
▁제목의	-11.465
▁정성	-11.465
▁쾌적한	-11.465
▁앤	-11.4651
▁사랑의	-11.4651
▁늘리는	-11.4653
▁thought	-11.4653
증가율	-11.4654
▁bio	-11.4654
▁다를	-11.4657
▁국무부	-11.4658
▁팀장	-11.4659
▁방출	-11.4659
▁빵	-11.4661
▁소재로	-11.4662
▁대통령에	-11.4663
형으로	-11.4664
▁주시	-11.4664
종으로	-11.4664
▁안겼다	-11.4666
kb	-11.4668
▁연구팀은	-11.467
▁정하고	-11.467
▁화이자	-11.467
▁이외에	-11.4671
▁공격수	-11.4671
▁부자	-11.4672
led	-11.4673
▁김모씨	-11.4673
▁감사드린다	-11.4674
▁제기되고	-11.4674
▁잠재	-11.4675
클레	-11.4675
▁인터페이스	-11.4677
▁Then	-11.4678
MD	-11.4678
연준	-11.4678
▁금액은	-11.4678
▁컵	-11.4679
▁책임자	-11.4679
▁epi	-11.468
▁발명	-11.468
▁국제사회	-11.4681
▁저가	-11.4681
달라고	-11.4682
▁포용	-11.4683
▁전설	-11.4684
▁언니	-11.4686
▁사장이	-11.4687
▁급감	-11.4688
▁시행하고	-11.4689
바퀴	-11.4691
요건	-11.4691
▁methods	-11.4691
▁공개한다	-11.4691
▁확실	-11.4692
▁팬들에게	-11.4692
▁사립	-11.4694
▁분량	-11.4695
쳤	-11.4699
art	-11.47
▁create	-11.4703
▁창당	-11.4703
▁오디션	-11.4704
▁급격한	-11.4704
▁아무리	-11.4704
▁mutations	-11.4706
▁hospital	-11.4706
▁눈치	-11.4707
공작	-11.4707
▁회장을	-11.4707
툴	-11.4709
lock	-11.471
▁메달	-11.4711
▁전문의	-11.4713
▁없으면	-11.4714
ping	-11.4714
ath	-11.4714
▁natural	-11.4714
▁성범죄	-11.4716
▁진안	-11.4717
▁관중	-11.4717
▁복부	-11.4717
▁달라고	-11.4718
▁이벤트도	-11.4718
▁마켓	-11.4718
▁측근	-11.4718
흡	-11.4719
▁클릭	-11.4721
▁시의회	-11.4721
벤츠	-11.4721
▁비판을	-11.4722
▁빈도	-11.4722
균형발전	-11.4723
▁유지하기	-11.4725
투자자	-11.4726
af	-11.4727
▁신재생에너지	-11.4728
▁봉쇄	-11.4729
▁tr	-11.473
어로	-11.473
▁occur	-11.4731
▁불안정	-11.4731
▁정확도	-11.4732
▁적용되는	-11.4732
득점을	-11.4734
▁구독	-11.4735
▁오디오	-11.4736
열차	-11.4737
살이	-11.4739
▁분야는	-11.4739
▁Hello	-11.4742
imf	-11.4743
살인	-11.4745
▁having	-11.4745
▁내각	-11.4745
▁정부에서	-11.4745
mou	-11.4745
▁숨졌다	-11.4747
▁냄새	-11.4747
송파	-11.4748
▁찍어	-11.4752
경비	-11.4753
▁suv	-11.4754
안내	-11.4755
▁address	-11.4755
▁먼	-11.4755
▁필수적	-11.4756
▁국민과	-11.4758
▁동서	-11.4759
▁금호	-11.4759
▁지위를	-11.476
▁되며	-11.476
▁인하여	-11.4761
▁다짐	-11.4761
▁근본적인	-11.4761
▁개정을	-11.4763
에프	-11.4765
▁매치	-11.4765
왔으며	-11.4766
▁명문	-11.4766
▁경제정책	-11.4767
역세권	-11.4767
sin	-11.4767
책임자	-11.4767
▁후보들	-11.4768
받는다	-11.4769
▁재선	-11.477
▁개정안은	-11.477
TF	-11.4771
맵	-11.4772
▁맡기	-11.4773
꾸	-11.4773
보유	-11.4774
▁다짐했다	-11.4775
▁벤처기업	-11.4776
▁방영	-11.4778
▁대조	-11.4779
▁five	-11.478
▁밀리	-11.478
▁선진	-11.4781
ax	-11.4782
활용	-11.4783
emia	-11.4784
▁중소벤처기업부	-11.4784
▁광양	-11.4785
▁전달하는	-11.4786
▁응급실	-11.4786
ome	-11.4786
▁끈	-11.4786
PI	-11.4787
▁첨가	-11.4788
▁의원도	-11.4788
▁비난했다	-11.4789
하였으나	-11.4789
gh	-11.479
▁일겠다	-11.479
▁거세	-11.479
▁기록할	-11.4791
▁당진	-11.4792
▁맡는다	-11.4792
▁우려했다	-11.4795
▁뭔가	-11.4795
상황을	-11.4796
영은	-11.4796
▁유무	-11.4797
년차	-11.4797
▁determine	-11.4798
▁사용한다	-11.4798
음성	-11.4799
▁search	-11.4799
▁부당한	-11.48
▁순이익	-11.48
▁완전한	-11.4802
▁개발하는	-11.4803
▁과다	-11.4804
▁농어촌	-11.4804
▁수강	-11.4805
▁두번째	-11.4806
▁맨유	-11.4807
▁increases	-11.4808
영화제	-11.481
▁업체는	-11.481
▁성과가	-11.4811
▁근로시간	-11.4812
▁전문가들	-11.4812
퀸	-11.4813
▁경기는	-11.4813
수영	-11.4813
▁태블릿	-11.4816
▁회사채	-11.4816
▁여부가	-11.4816
▁고객은	-11.4817
▁사찰	-11.4819
▁건강에	-11.482
▁동원해	-11.482
▁인재를	-11.482
▁신라	-11.482
▁소진	-11.4821
비상	-11.4823
PC	-11.4823
▁케어	-11.4825
▁구속영장	-11.4826
▁보관하며	-11.4828
▁되면서	-11.4828
▁뉴질랜드	-11.4829
연료	-11.483
▁조치로	-11.4831
사령부	-11.4831
로우	-11.4831
▁슬로건	-11.4834
▁지원했다	-11.4836
▁노조는	-11.4836
▁명소	-11.4838
▁절약	-11.4839
▁윌	-11.4839
국은	-11.484
▁챔피언십	-11.484
▁아이콘	-11.4841
차익	-11.4844
▁병상	-11.4844
▁마찬가지	-11.4845
호텔에서	-11.4846
▁돼야	-11.4847
▁크로스	-11.4847
▁옆에	-11.4848
폐기물	-11.4848
검증	-11.485
긍	-11.4851
연장	-11.4852
▁발전소	-11.4854
▁위원장의	-11.4855
▁크리스	-11.4855
▁이유에	-11.4855
▁않다고	-11.4856
▁제도다	-11.4859
▁고려대	-11.4859
▁볼거리	-11.486
▁afp	-11.486
▁우리에게	-11.4862
매치	-11.4862
▁imp	-11.4862
▁퀴즈	-11.4863
▁바꿀	-11.4864
서초	-11.4864
▁personal	-11.4866
▁견해	-11.4866
▁느끼	-11.4867
▁시진핑	-11.4867
ather	-11.4868
▁areas	-11.4869
콘서트	-11.4871
확보	-11.4872
식물	-11.4872
▁목표는	-11.4873
▁분비	-11.4876
TE	-11.4878
▁없어서	-11.488
▁발굴해	-11.488
▁새정치연합	-11.488
▁SNS	-11.4881
킷	-11.4882
디스크	-11.4882
▁종종	-11.4882
▁합의한	-11.4884
▁매개	-11.4884
▁파이	-11.4885
▁치아	-11.4886
▁효과는	-11.4886
▁충주시	-11.4887
▁탐방	-11.4887
▁우정	-11.4888
▁얼음	-11.489
▁비전을	-11.489
촬영	-11.4895
▁신입	-11.4898
▁논쟁	-11.49
▁흔적	-11.4902
▁다문화	-11.4904
▁양형	-11.4906
▁모델은	-11.4906
▁밝히고	-11.491
▁자신들의	-11.4911
tent	-11.4912
▁First	-11.4912
▁효율성을	-11.4912
▁확산에	-11.4913
테러	-11.4913
졌습니다	-11.4914
▁해결하는	-11.4914
▁작품이다	-11.4916
▁떨어질	-11.4917
▁확보하기	-11.4917
▁기술적	-11.4917
쌓	-11.4918
▁임무	-11.4918
▁스마트시티	-11.4918
총괄	-11.4919
▁brain	-11.4919
권역	-11.4921
버려	-11.4922
▁가족들	-11.4923
▁정유	-11.4924
카메라	-11.4924
▁격상	-11.4927
FA	-11.4928
▁report	-11.4928
▁적용하는	-11.4928
▁전수	-11.4929
▁간판	-11.4929
횡	-11.493
브루	-11.4932
》	-11.4932
▁신장애	-11.4932
▁있나	-11.4934
번의	-11.4935
▁선정한	-11.4935
▁looking	-11.4936
▁인물이	-11.4937
클래스	-11.4938
▁회복을	-11.494
▁주된	-11.4941
▁events	-11.4941
▁보아	-11.4941
▁적었다	-11.4943
▁차등	-11.4944
▁face	-11.4944
▁연이어	-11.4944
▁제도적	-11.4945
▁bit	-11.4948
▁거래일	-11.4948
▁Additionally	-11.4949
▁국민적	-11.4949
▁come	-11.4951
▁표준화	-11.4951
▁충실	-11.4952
공고	-11.4952
▁동일하게	-11.4953
▁늘리고	-11.4953
▁하락세를	-11.4954
▁미팅	-11.4957
▁최장	-11.4959
▁중이던	-11.496
▁기상청	-11.496
▁챔피언	-11.4961
FC	-11.4961
▁One	-11.4961
▁속한	-11.4962
▁연관성	-11.4962
▁높아진	-11.4963
라이브	-11.4964
▁실린	-11.4965
혁명	-11.4965
▁introduce	-11.4966
▁이씨는	-11.4967
ner	-11.4968
숍	-11.4968
▁지금의	-11.4969
▁간섭	-11.497
사드	-11.497
휴게소	-11.497
▁남용	-11.4971
억원에서	-11.4971
▁예정돼	-11.4972
▁재검토	-11.4972
▁목적이	-11.4973
▁들어온	-11.4973
벅	-11.4974
▁체계적으로	-11.4974
▁완료했다	-11.4974
▁남북관계	-11.4976
친구	-11.4976
방역당국	-11.4977
사업장	-11.4978
▁내정	-11.4979
레인	-11.4981
▁작용할	-11.4983
▁경감	-11.4985
렸지만	-11.4985
단장은	-11.4986
▁위조	-11.4988
▁창출을	-11.4988
길이	-11.4988
명에서	-11.4989
▁심정	-11.499
▁리조트	-11.499
▁decision	-11.499
▁즐겨	-11.499
절차를	-11.4991
▁시스템에	-11.4991
만원씩	-11.4991
인상	-11.4991
▁상부	-11.4992
▁상습	-11.4993
▁아르헨티나	-11.4993
▁걸음	-11.4994
▁정제	-11.4995
▁봉사활동	-11.4995
보조	-11.4997
▁병력	-11.4999
▁패러다임	-11.4999
워치	-11.4999
▁장벽	-11.5001
cent	-11.5001
사상	-11.5002
▁관리할	-11.5002
▁스위치	-11.5002
▁단계를	-11.5004
▁정해	-11.5004
조성	-11.5004
▁금메달을	-11.5005
았습니다	-11.5007
▁검토해	-11.5007
결합	-11.501
효과를	-11.5013
▁history	-11.5013
교육지원청	-11.5013
▁라이프	-11.5014
등을	-11.5015
좋	-11.5017
ny	-11.5017
▁월화드라마	-11.5018
떨	-11.5019
국립공원	-11.502
만약	-11.502
▁provides	-11.5021
통신은	-11.5021
▁ratio	-11.5023
▁팬데믹	-11.5023
웠	-11.5024
▁스토어	-11.5025
▁object	-11.5025
사망	-11.5025
▁키즈	-11.5026
풋	-11.5026
줌	-11.5027
use	-11.5028
▁과정은	-11.5029
▁요청한	-11.5031
▁구강	-11.5031
▁각오	-11.5032
▁주신	-11.5032
솜	-11.5032
▁비주얼	-11.5032
▁제출하면	-11.5033
ster	-11.5033
▁틈	-11.5033
▁시민이	-11.5034
▁구토	-11.5035
소녀	-11.5037
ran	-11.5037
▁승부를	-11.5038
사업부	-11.5038
▁손가락	-11.5038
자문	-11.5039
▁유죄	-11.504
가공	-11.504
▁골을	-11.504
▁지상파	-11.5041
air	-11.5042
맡	-11.5042
▁수업을	-11.5042
▁박스	-11.5045
인공지능	-11.5046
총리	-11.5046
▁이들에게	-11.5048
▁regarding	-11.5049
플레	-11.505
건설은	-11.505
▁펼치	-11.505
뚫	-11.5052
▁oled	-11.5054
역에서	-11.5055
▁원금	-11.5056
정리	-11.5058
▁물어	-11.5058
트레	-11.5058
nor	-11.5059
인간	-11.5059
주주	-11.506
밋	-11.5063
▁대치	-11.5066
▁주장에	-11.5066
▁그들이	-11.5067
▁정작	-11.5068
▁이날부터	-11.5068
천안	-11.5069
▁전국이	-11.5069
드로	-11.5069
▁무용	-11.507
로써	-11.5071
▁▁▁▁▁▁▁▁▁▁▁▁	-11.5075
농업기술센터	-11.5075
▁구성을	-11.5075
▁당기순이익은	-11.5077
▁아우	-11.508
딸	-11.5081
▁불을	-11.5082
lation	-11.5082
햄	-11.5083
CP	-11.5085
됐기	-11.5085
평등	-11.5088
조약	-11.5089
▁적시	-11.509
▁가족의	-11.509
▁나라의	-11.5091
▁치과	-11.5091
▁조직을	-11.5091
▁electrode	-11.5092
▁협의해	-11.5092
았지만	-11.5092
▁진동	-11.5094
▁insurance	-11.5094
받기	-11.5095
▁후보자의	-11.5098
▁실감	-11.5101
▁번에	-11.5101
▁얻기	-11.5101
▁셈	-11.5105
▁맛과	-11.5105
▁increasing	-11.5106
▁코미디	-11.5106
▁신년	-11.5108
▁빚어	-11.5109
업을	-11.5109
▁실험을	-11.5109
▁입자	-11.511
▁재벌	-11.511
▁브랜드로	-11.5111
터널	-11.5112
증상	-11.5112
▁위치해	-11.5112
▁팝	-11.5113
▁주어진다	-11.5116
▁해경	-11.5117
▁환기	-11.5117
▁연락을	-11.5118
▁선물세트	-11.5119
▁출시했다고	-11.5122
▁참가해	-11.5123
▁깨끗한	-11.5123
▁편리한	-11.5123
▁무리	-11.5124
기준을	-11.5125
▁인정하고	-11.5125
회의에서	-11.5126
▁소유권	-11.5126
▁장면을	-11.5126
▁처한	-11.5127
北	-11.5127
▁단계적으로	-11.5128
▁principle	-11.5131
▁프로듀서	-11.5131
▁action	-11.5132
▁개최된다	-11.5133
▁행보를	-11.5134
▁training	-11.5134
▁취약한	-11.5135
▁중요성	-11.5135
▁의정부	-11.5135
선별진료소	-11.5137
큐브	-11.5137
▁네티즌들은	-11.5138
▁일체	-11.5138
▁자격을	-11.5138
▁감염된	-11.5138
▁오일	-11.514
▁머니투데이	-11.514
펜스	-11.5141
인터뷰	-11.5141
부진	-11.5142
▁바르셀로나	-11.5144
▁동월	-11.5147
▁투자하는	-11.5147
▁카테고리	-11.5148
▁됐	-11.515
▁육성을	-11.515
ural	-11.5151
▁요양	-11.5152
▁싶지	-11.5153
▁공유하는	-11.5153
맑	-11.5153
도시철도	-11.5154
▁에릭	-11.5155
▁개선하고	-11.5157
싹	-11.5157
▁떠올려	-11.5157
▁전문가들이	-11.5161
▁자신에게	-11.5162
▁대표단	-11.5163
▁전제	-11.5164
▁몽골	-11.5164
ign	-11.5166
▁코인	-11.5166
▁실태	-11.5166
형태	-11.5167
▁바른	-11.5167
▁사용하기	-11.5168
▁느끼고	-11.5169
▁치러	-11.517
iot	-11.5171
더불어민주당	-11.5172
▁값이	-11.5172
▁살리	-11.5175
▁시민들에게	-11.5175
▁도매	-11.5176
▁전수조사	-11.5176
▁cover	-11.5177
▁뚜렷한	-11.5178
돌봄	-11.5178
▁성장이	-11.5179
▁movement	-11.5179
▁감염이	-11.518
원칙	-11.5182
백만	-11.5183
▁했다는	-11.5183
▁연초	-11.5183
잖아요	-11.5184
▁잡지	-11.5184
대기	-11.5185
▁모은	-11.5188
▁여러분의	-11.5188
▁혁신성장	-11.5188
▁사라진	-11.5189
지식	-11.519
▁culture	-11.5192
▁누리집	-11.5194
ec	-11.5195
▁str	-11.5195
있게	-11.5195
▁특성화	-11.5195
▁병변	-11.5196
▁금융사	-11.5196
sur	-11.5197
▁국무회의	-11.5198
▁중앙정부	-11.5201
▁최고치	-11.5201
▁지방정부	-11.5202
푼	-11.5202
BS	-11.5204
▁근무하는	-11.5206
▁해고	-11.5206
▁선보이고	-11.5207
▁그랜드	-11.5208
▁위험한	-11.5209
▁기준금리를	-11.5211
▁송금	-11.5212
혔	-11.5212
충전	-11.5213
상과	-11.5213
▁Table	-11.5214
▁키우는	-11.5214
▁환불	-11.5214
▁투자자들이	-11.5214
▁leading	-11.5215
▁색다른	-11.5217
연한	-11.5218
▁고대	-11.5219
끄	-11.5221
▁국회를	-11.5221
▁관건	-11.5221
▁신청했다	-11.5222
부로	-11.5225
▁몰라	-11.5226
해양수산	-11.5226
▁메뉴를	-11.5227
어를	-11.5227
▁시책	-11.5228
▁명분	-11.5229
▁charge	-11.523
▁법관	-11.523
벳	-11.5231
▁대우	-11.5232
▁가끔	-11.5233
▁today	-11.5233
▁established	-11.5233
▁기사를	-11.5234
▁벌써	-11.5234
▁히어로즈	-11.5237
▁경기도가	-11.5237
둑	-11.5239
▁금리가	-11.524
▁화성시	-11.524
▁며칠	-11.524
DS	-11.5241
▁떠났다	-11.5242
▁비대위	-11.5242
▁성매매	-11.5242
▁exhibit	-11.5243
▁매뉴얼	-11.5245
▁제주시	-11.5247
매우	-11.5248
▁교육은	-11.525
▁아시안게임	-11.525
arch	-11.5251
▁양보	-11.5251
▁재학생	-11.5253
봐야	-11.5255
▁심리적	-11.5255
IS	-11.5255
max	-11.5257
▁job	-11.5258
▁떼	-11.5259
def	-11.526
▁베어스	-11.526
▁진학	-11.5262
▁양육	-11.5262
제재	-11.5262
▁드는	-11.5266
▁able	-11.5267
충주	-11.5268
낳	-11.5268
▁타깃	-11.527
▁관리자	-11.527
수칙	-11.5271
▁영업손실	-11.5272
▁시트	-11.5273
▁등장한	-11.5275
▁계란	-11.5276
결과를	-11.5277
▁Is	-11.528
▁할인된	-11.5281
▁관객을	-11.5282
대형	-11.5285
▁작품은	-11.5285
▁negative	-11.5285
▁recommended	-11.5285
그래	-11.5287
SM	-11.5288
▁rights	-11.5288
▁보류	-11.5289
▁둘러	-11.5291
▁자정	-11.5292
신규	-11.5293
▁선물을	-11.5294
한반도	-11.5294
▁검사가	-11.5296
▁유산	-11.5296
▁올해로	-11.5298
담당관	-11.5299
ible	-11.53
▁country	-11.53
▁잔류	-11.53
▁재산을	-11.5301
izing	-11.5301
실에	-11.5301
여명을	-11.5302
▁작가의	-11.5302
▁그래	-11.5303
▁걸고	-11.5304
▁움직임이	-11.5305
▁실리콘	-11.5306
병원은	-11.5307
▁성명	-11.5307
▁들려	-11.5307
▁늦게	-11.5308
▁판교	-11.5308
▁판사는	-11.5308
▁우려도	-11.5309
▁선수들	-11.5312
▁사용해야	-11.5313
▁임대주택	-11.5314
▁이력	-11.5316
▁감독을	-11.5316
▁affected	-11.5317
위에서	-11.5319
▁폭이	-11.532
피스	-11.532
▁챔피언스리그	-11.5321
▁냉동	-11.5321
행사를	-11.5321
▁반박	-11.5322
朴	-11.5323
▁퍼센트	-11.5324
어린이집	-11.5324
▁나누는	-11.5325
▁날이	-11.5325
▁집회를	-11.5326
▁작곡	-11.5326
권과	-11.5326
영동	-11.5328
행을	-11.5328
지정	-11.5329
tation	-11.5329
플렉스	-11.5329
▁교실	-11.5329
▁불어넣	-11.5329
▁모르	-11.5331
▁확인되지	-11.5333
극장	-11.5334
▁사면	-11.5334
결국	-11.5335
▁협력업체	-11.5337
▁모집한다	-11.5338
▁꽤	-11.5338
원대	-11.5338
▁황금	-11.5338
▁방통위	-11.5339
▁은행권	-11.5339
ace	-11.5339
▁해소를	-11.534
▁이주	-11.534
스틴	-11.5342
▁토로했다	-11.5344
▁사망자는	-11.5344
캠	-11.5344
▁달라질	-11.5345
▁군수는	-11.5346
▁뽐냈다	-11.5346
지수가	-11.5346
▁엄정	-11.5349
▁침입	-11.5349
▁쌓아	-11.5349
▁property	-11.5349
▁산림청	-11.5352
태평양	-11.5353
ments	-11.5355
▁낮춰	-11.5355
▁총수	-11.5355
▁교차	-11.5356
▁가득한	-11.5357
▁파주시	-11.5358
▁다행	-11.5359
▁event	-11.536
▁향상에	-11.5361
RNA	-11.5366
넬	-11.5367
▁사회를	-11.5367
보고회	-11.5368
렵	-11.5369
정책과	-11.5369
▁되었습니다	-11.5371
만족	-11.5372
▁삼성은	-11.5373
공간을	-11.5373
▁못하면	-11.5373
▁중이라고	-11.5375
▁international	-11.5376
당신	-11.5376
용역	-11.5376
▁현실을	-11.5377
▁선수는	-11.5378
▁때문으로	-11.5378
화성	-11.5379
▁저소득	-11.538
ecb	-11.538
▁법사위	-11.538
▁벡터	-11.5382
매입	-11.5382
▁돕고	-11.5383
▁선거에서	-11.5383
▁끝나	-11.5383
▁출발했다	-11.5385
▁Me	-11.5386
▁집으로	-11.5387
메이커	-11.5387
▁확진자의	-11.5387
취소	-11.539
▁described	-11.5391
▁달간	-11.5393
▁개인이	-11.5395
▁잡기	-11.5395
▁주민의	-11.5396
▁불과했다	-11.5397
독일	-11.5399
▁조치는	-11.5399
투쟁	-11.5402
▁호재	-11.5402
▁expression	-11.5403
▁퇴진	-11.5405
분할	-11.5405
▁혐의도	-11.5405
▁중에서도	-11.5405
▁making	-11.5405
졌	-11.5407
▁basic	-11.5407
▁배수	-11.5408
vis	-11.5409
▁주의를	-11.541
▁않나	-11.5412
봇	-11.5414
IV	-11.5417
▁평가하고	-11.5417
▁민정수석	-11.5421
▁국악	-11.5421
▁분위기다	-11.5423
▁멘토링	-11.5423
▁perform	-11.5424
▁프로모션을	-11.5425
▁제도가	-11.5425
▁출하	-11.5428
▁대회에	-11.543
▁트럭	-11.543
▁총리의	-11.5431
▁인정했다	-11.5431
▁주춤	-11.5434
하트	-11.5434
▁구성했다	-11.5435
테이	-11.5435
▁purchase	-11.5437
▁목적을	-11.5437
만명의	-11.5438
교환	-11.5438
▁meaning	-11.5438
▁남쪽	-11.5439
▁유닛	-11.5439
▁동해안	-11.5441
웃	-11.5442
▁벌여	-11.5442
▁위상을	-11.5442
▁질을	-11.5443
▁원인은	-11.5443
▁속성	-11.5443
왔는데	-11.5444
▁부상으로	-11.5447
▁농민	-11.5448
▁기술력	-11.5449
▁토크	-11.5449
▁폭락	-11.545
phone	-11.5451
▁판단된다	-11.5451
▁일정이	-11.5452
▁원자재	-11.5452
▁table	-11.5453
▁군대	-11.5458
▁represent	-11.546
pos	-11.5461
▁장점을	-11.5461
sl	-11.5463
▁모의	-11.5463
▁시행할	-11.5463
▁간호	-11.5464
▁approach	-11.5465
▁날아	-11.5465
▁당국이	-11.5466
▁link	-11.5466
▁스킬	-11.5467
▁목격	-11.5468
▁상한	-11.5469
▁신고가	-11.5469
CS	-11.547
모드	-11.547
지역을	-11.5473
▁인정한	-11.5473
▁신기능	-11.5475
▁캠퍼스	-11.5475
▁최순실	-11.5475
▁저금리	-11.5476
▁월스트리트저널	-11.5478
▁크기가	-11.5478
선택	-11.5478
▁상무는	-11.548
CI	-11.548
PHONE	-11.5481
▁돋보이는	-11.5481
▁공정거래위원회	-11.5481
▁모두에게	-11.5481
▁시중은행	-11.5482
▁adverse	-11.5484
▁실정	-11.5486
▁자랑하는	-11.5486
▁인정받아	-11.5489
▁거대한	-11.5489
▁진심	-11.5489
▁감자	-11.549
▁애초	-11.5491
▁중기	-11.5491
cus	-11.5493
▁기침	-11.5496
▁롯데백화점	-11.5496
▁데이	-11.5498
요령	-11.5499
레이드	-11.5504
착륙	-11.5505
▁이뤘다	-11.551
▁자리잡	-11.5512
▁거대	-11.5512
▁편이다	-11.5513
▁검사장	-11.5515
▁많았고	-11.5515
▁little	-11.5516
▁창고	-11.5517
▁놀라	-11.5517
▁비자	-11.5519
▁건수는	-11.552
anc	-11.552
수업	-11.552
▁에피소드	-11.5522
▁이득	-11.5523
▁안착	-11.5525
▁최고위원은	-11.5527
▁계승	-11.5527
대우	-11.5528
핍	-11.5531
▁별로	-11.5532
▁국민들에게	-11.5533
간담회	-11.5535
성남	-11.5535
▁의미로	-11.5536
▁관계에	-11.5536
▁이슬람	-11.5536
▁공모사업	-11.5537
▁갈아	-11.5539
탱크	-11.5539
▁신고했다	-11.5541
▁헬기	-11.5542
▁status	-11.5543
▁연구의	-11.5543
▁주셔서	-11.5545
▁부진한	-11.5545
엉	-11.5545
▁뜻이다	-11.5546
▁대주주	-11.5547
▁여러분께	-11.5548
▁교수의	-11.5549
▁중단하고	-11.555
층에서	-11.5556
들이다	-11.5557
▁내용이다	-11.5558
▁구조적	-11.5558
▁보합	-11.5559
▁돌아오	-11.5559
▁전술	-11.5561
레저	-11.5561
민속	-11.5561
▁탐	-11.5563
▁attack	-11.5563
fifa	-11.5564
▁상처를	-11.5564
▁관계부처	-11.5564
▁시험을	-11.5566
▁스피커	-11.5567
종은	-11.5567
▁제기된다	-11.5568
▁needed	-11.5569
들인	-11.557
▁일명	-11.5572
▁치안	-11.5572
깨	-11.5573
그런데	-11.5573
▁materials	-11.5574
▁여야가	-11.5574
관리법	-11.5574
▁개수	-11.5575
▁Si	-11.5577
▁terminal	-11.5578
▁features	-11.558
▁개최했다고	-11.558
▁영화제	-11.5581
▁그걸	-11.5582
▁묘사	-11.5583
▁OK	-11.5587
무한도전	-11.5587
▁기호	-11.5588
▁하여금	-11.5589
▁뚜렷	-11.5591
마음	-11.5592
▁개그맨	-11.5593
▁working	-11.5595
野	-11.5596
엄마	-11.5597
exp	-11.5598
청장은	-11.5599
었으며	-11.5599
▁만남을	-11.56
▁명목으로	-11.56
▁매력적인	-11.56
▁두루	-11.5601
▁인식이	-11.5601
▁비판이	-11.5602
▁탄탄한	-11.5603
▁태아	-11.5603
▁많을	-11.5603
난다	-11.5604
▁빠르고	-11.5604
▁반기	-11.5605
▁비싼	-11.5606
▁등장하는	-11.5606
▁confirmed	-11.5608
남자	-11.5608
▁갖추	-11.5609
clo	-11.5609
▁국무위원장	-11.5609
▁편하게	-11.561
▁행위에	-11.561
▁스케줄	-11.5611
▁역사상	-11.5612
▁모니터	-11.5612
▁보건당국	-11.5613
▁귀가	-11.5614
펌프	-11.5615
▁받았던	-11.5615
▁대가로	-11.5617
▁조사가	-11.5617
▁무대에서	-11.562
▁사망률	-11.562
▁물량이	-11.5621
▁아마	-11.5621
▁차종	-11.5624
DM	-11.5624
▁쏘	-11.5625
해상	-11.5626
▁없던	-11.5627
▁학생들을	-11.5627
기상청에	-11.5628
전시관	-11.5628
▁좋았	-11.5629
▁로드맵	-11.5629
병을	-11.563
▁말이다	-11.563
▁브리핑에서	-11.5632
▁근본	-11.5632
▁발산	-11.5632
▁농식품부	-11.5634
스타트	-11.5635
▁선언한	-11.564
해준	-11.564
냈	-11.564
▁결과다	-11.564
cho	-11.5642
▁위반한	-11.5642
발전소	-11.5642
▁내리고	-11.5643
▁성장에	-11.5643
nm	-11.5646
▁출전해	-11.5647
▁장관을	-11.5649
▁대회는	-11.5649
▁vehicle	-11.5649
등기	-11.5652
▁환경이	-11.5652
▁강화했다	-11.5652
▁오르고	-11.5653
스퀘어	-11.5656
▁결과적으로	-11.5657
액의	-11.5657
협회장	-11.5658
▁소각	-11.5658
콜레스테롤	-11.5658
데일리	-11.5659
▁발생하면	-11.566
▁교육과	-11.566
$	-11.566
▁공직선거법	-11.5662
▁나눈	-11.5663
▁리드	-11.5663
▁My	-11.5663
▁share	-11.5664
▁gdp	-11.5664
▁물러나	-11.5665
▁차이는	-11.5665
튜	-11.5668
▁감탄	-11.5671
▁만루	-11.5672
발을	-11.5673
노동조합	-11.5673
▁경로를	-11.5674
▁각자의	-11.5675
▁혈중	-11.5677
▁아동학대	-11.5678
소설	-11.568
▁포토	-11.5683
▁광고를	-11.5684
data	-11.5684
▁샘	-11.5685
▁확대와	-11.5686
▁마케팅을	-11.5688
▁효율적	-11.5692
춤	-11.5693
건은	-11.5693
▁마련하기	-11.5694
그램	-11.5695
▁델	-11.5696
▁엄격한	-11.5696
Re	-11.5696
▁부가	-11.5697
▁limit	-11.5697
프로필	-11.5697
비어	-11.5699
제주도	-11.5699
▁issue	-11.57
겸	-11.57
▁시급	-11.5702
▁쓰지	-11.5702
▁진정성	-11.5703
▁제안된	-11.5705
connect	-11.5706
▁가짜	-11.5706
▁체험할	-11.5707
문화를	-11.5707
데요	-11.5707
▁가능하고	-11.5708
▁완치	-11.5709
▁적용했다	-11.5709
▁드린다	-11.571
▁청탁	-11.571
사자	-11.571
파일	-11.5715
특허	-11.5716
▁보고된	-11.5716
▁간소화	-11.5719
▁반납	-11.5721
혐의	-11.5722
fomc	-11.5722
▁대입	-11.5724
▁촛불	-11.5724
▁방사	-11.5726
▁부르는	-11.5726
▁소개하고	-11.5727
▁영업을	-11.5727
위인	-11.5727
해수욕장	-11.5727
기업인	-11.5729
우주	-11.5729
허브	-11.5729
▁넘어선	-11.573
prime	-11.5731
▁당첨자	-11.5731
▁행렬	-11.5731
▁우회	-11.5732
▁상관	-11.5735
마지막	-11.5736
번은	-11.5736
기압	-11.5738
연수원	-11.5739
세라	-11.5739
ified	-11.574
▁이뤄지	-11.574
▁표본	-11.5741
▁대두	-11.5742
인터내셔널	-11.5743
▁대표로	-11.5743
ture	-11.5743
▁조사는	-11.5743
▁실정이다	-11.5744
.‘	-11.5745
▁간식	-11.5745
▁막고	-11.5746
▁발전과	-11.5747
▁양호한	-11.5749
▁꾸려	-11.5751
다양한	-11.5752
▁벌어졌다	-11.5753
▁제품과	-11.5754
▁생산을	-11.5756
중등	-11.5756
면세점	-11.5756
▁잠재적	-11.5756
커스	-11.5756
오스	-11.5756
▁원칙에	-11.5759
▁웃었다	-11.576
▁고양이	-11.5761
접촉	-11.5762
▁개선하기	-11.5763
▁아쉬움을	-11.5763
▁인구가	-11.5766
▁공세	-11.5767
▁men	-11.5767
▁정관	-11.5767
▁시작되는	-11.5769
▁바람직하다	-11.5769
▁거리가	-11.577
mid	-11.5771
▁실전	-11.5771
▁중국을	-11.5773
▁신도	-11.5774
▁꺾고	-11.5776
▁미쳤다	-11.5776
미르	-11.5777
▁보답	-11.5777
▁목표다	-11.5778
▁효소	-11.5779
▁공청회	-11.5779
▁갱신	-11.5779
▁활력	-11.5779
수용	-11.578
▁유나이티드	-11.578
▁travel	-11.5782
▁공식적으로	-11.5782
RS	-11.5784
▁상고이유	-11.5785
된다고	-11.5786
tre	-11.5786
▁전문가들의	-11.5787
▁pa	-11.5788
읽	-11.5788
▁세우고	-11.5788
▁가뭄	-11.5788
▁사로잡았다	-11.5789
▁자치단체	-11.5789
▁치른다	-11.5789
섬유	-11.5789
▁의사가	-11.579
옵션	-11.5791
▁rather	-11.5792
▁진실을	-11.5793
▁투명	-11.5793
靑	-11.5794
▁EU	-11.5795
▁도시락	-11.5796
▁출원	-11.5799
▁저출산	-11.5799
▁유상증자	-11.58
▁삼성생명	-11.5803
▁전산	-11.5803
▁systems	-11.5804
조례	-11.5805
▁이미지를	-11.5805
통신에	-11.5806
▁측에서	-11.5807
▁위장	-11.5808
▁US	-11.5808
▁사연	-11.5809
▁오늘날	-11.5809
▁추세다	-11.581
▁줄어	-11.5811
▁IP	-11.5812
▁레이스	-11.5812
위원회에	-11.5813
▁의견도	-11.5813
▁검역	-11.5814
빨간	-11.5814
치가	-11.5814
자마자	-11.5814
▁online	-11.5816
▁이루어진	-11.5816
Cu	-11.5817
시키며	-11.5817
콕	-11.5817
▁개념을	-11.5819
▁수치를	-11.582
▁행사에서	-11.5821
▁한다면	-11.5821
▁previous	-11.5822
▁여는	-11.5823
▁payment	-11.5823
▁겨냥한	-11.5823
▁마드리드	-11.5824
대리	-11.5825
▁전제로	-11.5827
▁아닙니다	-11.5827
▁내부에서	-11.5827
테니	-11.5828
▁이념	-11.5829
▁관계기관	-11.583
▁유선	-11.5831
▁delivery	-11.5831
주자	-11.5833
:	-11.5833
▁청장은	-11.5833
중앙회	-11.5834
▁체납	-11.5835
▁reduction	-11.5837
▁침묵	-11.5837
▁김영	-11.5837
▁won	-11.5838
▁승차	-11.5838
▁클라	-11.5839
pd	-11.5839
▁together	-11.584
▁통과한	-11.584
▁학교에	-11.5842
▁사업과	-11.5842
이죠	-11.5842
▁국외	-11.5843
국과	-11.5843
RE	-11.5844
▁정보통신	-11.5846
▁참석한다	-11.5848
▁예보	-11.5848
▁기온	-11.5849
▁조사결과	-11.585
▁중소형	-11.5851
▁잡을	-11.5852
▁개막식	-11.5852
▁trial	-11.5853
▁두산은	-11.5854
▁동아	-11.5854
▁시속	-11.5854
▁파고	-11.5855
▁검체	-11.5855
▁워낙	-11.5855
▁부회장이	-11.5856
▁北	-11.5857
▁시작된다	-11.5857
▁금융위	-11.5857
▁변동성	-11.5858
모리	-11.5858
▁신원	-11.5862
▁집중하고	-11.5862
▁테스트를	-11.5862
▁떡	-11.5863
▁question	-11.5864
조국	-11.5865
▁교섭	-11.5865
gree	-11.5866
▁suggest	-11.5867
▁조치에	-11.5868
▁포함된다	-11.5869
▁투표를	-11.587
▁base	-11.5872
▁의원들의	-11.5872
▁넘겼다	-11.5872
▁렌즈	-11.5872
▁창구	-11.5872
▁오고	-11.5872
▁Here	-11.5874
▁lte	-11.5874
복을	-11.5874
재단은	-11.5876
▁요청에	-11.5877
ke	-11.5878
▁따져	-11.588
가구가	-11.5881
▁언론에	-11.5881
ler	-11.5882
▁상품으로	-11.5883
▁후임	-11.5883
국을	-11.5883
▁변화는	-11.5884
▁몰래	-11.5885
▁침몰	-11.5887
▁긍정	-11.5887
▁확정됐다	-11.5888
집무실	-11.5889
토리	-11.589
▁날을	-11.589
▁공급이	-11.5892
▁헤드	-11.5892
▁transfer	-11.5893
▁후기	-11.5893
실제	-11.5894
▁선거에	-11.5895
기아차	-11.5895
포털	-11.5895
ivity	-11.5896
사범	-11.5897
▁things	-11.5899
▁역임	-11.5901
▁배후	-11.5901
셀프	-11.5901
▁infection	-11.5901
▁대표이사는	-11.5901
▁내용과	-11.5902
▁등록된	-11.5903
▁가르	-11.5903
▁자원을	-11.5903
듬	-11.5905
▁치료법	-11.5907
▁생명을	-11.5907
▁전용면적	-11.5908
동기	-11.5909
쥐	-11.5909
▁포스트	-11.591
▁근데	-11.5913
▁처치	-11.5914
▁드릴	-11.5916
▁종로	-11.5917
리치	-11.5917
▁졸업생	-11.5918
vir	-11.5918
▁사태에	-11.5919
감과	-11.5919
▁clear	-11.592
방울	-11.5921
싸움	-11.5922
▁아이템을	-11.5922
▁전임	-11.5923
BC	-11.5924
추천	-11.5925
마진	-11.5926
크리	-11.5927
▁포함한다	-11.5929
▁합계	-11.5929
놓은	-11.593
gra	-11.593
▁본부장	-11.5931
증가	-11.5931
▁조심	-11.5933
▁이목을	-11.5933
▁빛을	-11.5934
하루	-11.5934
▁국가에서	-11.5934
▁부통령	-11.5934
표시	-11.5935
▁저를	-11.5937
아버지	-11.5938
for	-11.5939
ries	-11.5942
▁교황	-11.5942
남양주	-11.5942
성적	-11.5943
▁필름	-11.5944
▁자원봉사	-11.5945
급식	-11.5946
애플	-11.5946
▁따르	-11.5947
토크	-11.5948
▁전통적인	-11.5948
▁비춰	-11.5948
▁연령대	-11.5951
▁한파	-11.5951
▁약국	-11.5951
side	-11.5951
▁붙여	-11.5952
▁game	-11.5952
잊	-11.5952
▁법리	-11.5952
▁발목	-11.5952
▁해수부	-11.5953
▁유동	-11.5954
▁대리점	-11.5955
▁위주의	-11.5955
▁일시적으로	-11.5955
▁입장이	-11.5956
사랑의	-11.5956
운송	-11.5956
하셨	-11.5958
▁후보에	-11.5958
▁폭탄	-11.5959
▁처벌을	-11.5959
▁스트리밍	-11.5959
▁직원을	-11.596
가구를	-11.5961
▁특화된	-11.5962
▁해주	-11.5962
▁강조하고	-11.5964
▁영농	-11.5964
▁해마다	-11.5964
▁동화	-11.5965
▁공채	-11.5965
▁전국에	-11.5966
▁광명	-11.5966
▁융자	-11.5966
▁경쟁률	-11.5966
라디오스타	-11.5967
▁구름	-11.5967
▁행사로	-11.5969
▁구직자	-11.5969
▁취한	-11.597
▁시장에서는	-11.597
교육청은	-11.5971
▁const	-11.5974
fin	-11.5976
▁여성은	-11.5976
▁형상	-11.5977
▁감동을	-11.5978
▁산업은행	-11.5978
▁미용	-11.5979
▁데이트	-11.598
▁strong	-11.5981
▁부의장	-11.5981
모두	-11.5984
국제공항	-11.5986
▁모두를	-11.5986
하자고	-11.5986
pan	-11.5988
ld	-11.599
▁어선	-11.599
graph	-11.5991
FT	-11.5991
실은	-11.5992
▁연준	-11.5992
귤	-11.5993
짚	-11.5993
▁플레이오프	-11.5994
▁낮아지	-11.5995
▁모집한다고	-11.5995
▁평화와	-11.5995
▁thank	-11.5996
▁활발하게	-11.5996
▁ms	-11.5996
삽	-11.5996
▁doctor	-11.5996
▁이벤트는	-11.5996
CR	-11.5998
▁출구	-11.6
▁번영	-11.6001
▁수준에서	-11.6001
상사	-11.6004
체육관	-11.6005
ature	-11.6005
▁가까워	-11.6005
▁성장과	-11.6005
▁가져오	-11.6006
공장에서	-11.6006
▁서비스업	-11.6007
▁포인트를	-11.6007
▁감염자	-11.6007
기초	-11.6009
▁넣고	-11.6009
▁ask	-11.601
중단	-11.601
bac	-11.601
▁육상	-11.6011
예비	-11.6011
위원들	-11.6011
▁대우조선해양	-11.6012
▁총력	-11.6012
▁음식물	-11.6012
▁합의에	-11.6014
연기	-11.6016
▁팀장은	-11.6016
▁이색	-11.6017
▁메신저	-11.6018
sta	-11.6019
에겐	-11.6019
▁해설	-11.6021
재판부는	-11.6022
▁신선	-11.6022
해야한다	-11.6022
체육시설	-11.6022
▁묶어	-11.6023
▁의원총회	-11.6023
반을	-11.6023
▁말아야	-11.6023
▁성장하는	-11.6024
▁주목할	-11.6024
▁개소	-11.6025
교도소	-11.6026
프로야구	-11.6027
개편	-11.6028
▁대응하는	-11.6028
▁국내총생산	-11.6028
▁부추	-11.6029
▁넓히	-11.603
▁메트포르민	-11.6033
▁챙긴	-11.6033
▁선두타자	-11.6034
▁형성된	-11.6034
▁자리가	-11.6036
▁선거를	-11.6037
▁행사장	-11.6038
▁에디션	-11.604
▁파악할	-11.6041
사거리	-11.6041
nu	-11.6042
Co	-11.6043
▁취지의	-11.6043
지금까지	-11.6044
▁지속되고	-11.6044
▁자식	-11.6044
)	-11.6044
▁포트폴리오	-11.6047
선발	-11.6048
▁보상을	-11.6049
▁Hi	-11.6049
님이	-11.6052
▁needs	-11.6052
▁아닐	-11.6052
▁운영한다고	-11.6052
시에는	-11.6052
겹	-11.6053
푸르	-11.6053
아스	-11.6053
▁민주당이	-11.6054
밝	-11.6054
low	-11.6054
점포	-11.6054
▁소방관	-11.6055
uc	-11.6055
랐	-11.6056
▁어렵고	-11.6056
▁하락세	-11.6057
▁잡는	-11.6057
▁주요국	-11.6057
▁통장	-11.606
▁가정의	-11.606
스킨	-11.6061
ash	-11.6061
▁하차	-11.6061
▁against	-11.6062
▁대세	-11.6062
술을	-11.6062
▁△(	-11.6064
통장	-11.6064
월드컵	-11.6064
▁탁월한	-11.6064
name	-11.6065
▁농지	-11.6065
▁상위권	-11.6067
▁사직	-11.6067
주세요	-11.6067
▁납입	-11.6068
맥주	-11.6069
{\	-11.6069
▁개선하는	-11.607
▁갤러리	-11.607
▁공매도	-11.607
▁성장했다	-11.6071
지원사업	-11.6073
▁취하고	-11.6073
▁당뇨	-11.6076
▁정맥	-11.6078
▁공표	-11.6078
▁배경을	-11.6078
배로	-11.6079
빌라	-11.608
▁오피스	-11.608
▁크기의	-11.608
ng	-11.6081
▁위치에	-11.6082
캐시	-11.6082
▁기다려	-11.6082
▁초기에	-11.6083
▁그룹의	-11.6083
규칙	-11.6084
▁구형	-11.6084
▁최소한의	-11.6085
ave	-11.6085
스타일	-11.6085
▁차례로	-11.6087
▁넘었다	-11.6087
▁말았다	-11.6088
▁비싸	-11.6088
IN	-11.609
▁카타르	-11.609
▁과량	-11.6092
나들목	-11.6092
▁설치를	-11.6095
▁차로	-11.6095
▁결과물	-11.6095
▁행안부	-11.6098
▁호평을	-11.6101
▁감독님	-11.6102
조절	-11.6102
▁품종	-11.6103
▁바꾼	-11.6103
▁살피	-11.6106
햇	-11.6108
▁이모	-11.6108
땅	-11.6108
▁입체	-11.6109
왔고	-11.6109
▁개최를	-11.6109
▁past	-11.611
블라	-11.6115
▁조문	-11.6115
▁장시간	-11.6117
주민들	-11.6117
▁디저트	-11.6117
▁연안	-11.6118
▁미만의	-11.612
▁도정	-11.612
▁팔아	-11.612
▁rates	-11.612
▁불가피하다	-11.6121
generation	-11.6121
▁검토를	-11.6121
▁개막전	-11.6124
▁구축할	-11.6124
▁중립	-11.6124
퀴	-11.6125
▁규제가	-11.6126
▁지켰다	-11.6129
lar	-11.6129
oecd	-11.613
▁인명피해	-11.613
▁로컬	-11.6131
▁혐의에	-11.6131
▁불신	-11.6131
▁부응	-11.6131
▁계단	-11.6132
▁term	-11.6133
지방법원	-11.6133
루타	-11.6133
해볼	-11.6135
▁됐다고	-11.6136
냈고	-11.6137
▁기아	-11.6137
▁yg	-11.6139
SP	-11.6141
기념관	-11.6141
군산	-11.6141
▁발을	-11.6142
▁화소	-11.6142
▁고스란히	-11.6143
▁몇몇	-11.6143
▁푸틴	-11.6143
▁미생물	-11.6146
▁medication	-11.615
▁오르며	-11.615
담을	-11.615
▁love	-11.6151
▁easy	-11.6152
군사	-11.6153
부채	-11.6153
▁동작을	-11.6153
▁미흡	-11.6154
▁벼	-11.6155
▁최적화된	-11.6155
지난달	-11.6156
▁아이스크림	-11.6158
▁위헌	-11.6158
글리	-11.6159
▁오찬	-11.6159
주시는	-11.616
환경을	-11.6161
하였	-11.6162
▁결정된	-11.6162
▁국토부는	-11.6164
pose	-11.6165
▁일어날	-11.6165
Cl	-11.6166
▁상식	-11.6167
▁directly	-11.617
▁걷기	-11.617
▁피할	-11.617
▁always	-11.6171
▁구매한	-11.6171
▁조속한	-11.6171
▁para	-11.6172
▁분이	-11.6172
▁표현했다	-11.6174
▁계기	-11.6174
궤	-11.6175
▁강화된	-11.6175
▁작품으로	-11.6176
▁ability	-11.6176
▁로고	-11.6176
▁딸기	-11.6176
▁준비에	-11.6178
▁해보	-11.6178
▁않는다면	-11.6179
쫓	-11.6179
▁United	-11.618
▁누락	-11.6181
▁골라	-11.6182
▁자사주	-11.6182
▁후보와	-11.6183
▁만났	-11.6185
▁융	-11.6185
▁하부	-11.6186
▁말부터	-11.6186
▁보호하기	-11.6187
▁관광객들	-11.6187
▁입지를	-11.6187
▁제작사	-11.6188
▁패턴을	-11.6189
▁다행히	-11.6189
▁결혼식	-11.619
됐	-11.6193
▁이용하는	-11.6195
self	-11.6196
▁착수했다	-11.6197
▁않겠다는	-11.6197
▁인사들	-11.6198
하듯	-11.6199
▁사전투표	-11.6202
▁전자상거래	-11.6202
▁펼치는	-11.6203
bb	-11.6203
복구	-11.6203
▁단계에	-11.6205
▁우리나라는	-11.6205
▁bone	-11.6206
▁film	-11.6206
▁땐	-11.6209
▁인슐린	-11.6209
▁트윈스	-11.6209
▁미니앨범	-11.6209
▁경찰과	-11.6209
▁대검	-11.621
▁정부를	-11.6211
공영	-11.6211
▁있겠	-11.6212
fit	-11.6212
▁중단해야	-11.6212
엔드	-11.6214
차장	-11.6214
▁feel	-11.6216
▁sound	-11.6217
▁발진	-11.6218
▁릴레이	-11.6219
▁경보	-11.6219
▁의제	-11.6219
▁장려	-11.6221
▁주장이다	-11.6221
▁한국전력	-11.6221
헌법	-11.6222
▁보통주	-11.6223
▁당신이	-11.6223
cp	-11.6223
▁expected	-11.6224
IP	-11.6226
엔진	-11.6226
▁활동하고	-11.6227
▁지난해에는	-11.6227
▁하수	-11.6228
만으로는	-11.6229
번째로	-11.6229
▁실체	-11.6229
top	-11.6231
lh	-11.6232
▁최종적으로	-11.6233
▁후보자가	-11.6233
터를	-11.6233
▁늘릴	-11.6234
–	-11.6234
▁롯데마트	-11.6235
▁차질이	-11.6235
센스	-11.6237
count	-11.6239
▁홈쇼핑	-11.6242
▁우호	-11.6242
▁내부에	-11.6243
▁연쇄	-11.6243
▁여부와	-11.6244
▁핑크	-11.6244
▁지침을	-11.6247
▁제임스	-11.6247
▁머물렀다	-11.6248
▁세척	-11.6249
▁패스트트랙	-11.6249
word	-11.6249
지역으로	-11.6249
함은	-11.625
▁판단할	-11.625
▁번도	-11.6251
▁박막	-11.6253
▁모은다	-11.6254
▁contain	-11.6254
▁etf	-11.6254
▁진도	-11.6257
▁근거를	-11.6259
지방경찰청	-11.6259
▁정서	-11.6261
▁공헌	-11.6261
▁서울시가	-11.6261
▁금액이	-11.6262
베트남	-11.6262
딴	-11.6263
▁member	-11.6263
style	-11.6263
펀	-11.6263
▁물체	-11.6263
own	-11.6265
▁몽	-11.6266
▁무엇인가요	-11.6266
브리	-11.627
▁추진한	-11.627
lay	-11.627
▁확산으로	-11.6272
클라우드	-11.6272
▁판단이	-11.6273
▁upper	-11.6273
▁욕심	-11.6274
리터	-11.6276
▁잔액	-11.6276
▁트렌드를	-11.6277
▁승계	-11.6277
노스	-11.6277
▁치솟	-11.6278
▁알고리즘을	-11.6281
▁행위가	-11.6282
▁지방자치	-11.6284
▁예방에	-11.6285
aa	-11.6285
▁국제적	-11.6287
▁시에	-11.6287
▁너무나	-11.6288
▁knowledge	-11.6288
▁상세	-11.6288
▁사례로	-11.6289
▁drugs	-11.629
▁한쪽	-11.629
겨울	-11.629
보이스	-11.6292
▁전체회의	-11.6293
재료	-11.6293
▁내면	-11.6294
뱅	-11.6294
미스터	-11.6295
▁수요자	-11.6296
▁송신	-11.6296
▁완성차	-11.6297
▁국정농단	-11.6297
내륙	-11.6298
서류	-11.6298
▁poly	-11.6299
리안	-11.6299
주체	-11.6301
▁concentration	-11.6304
▁개발사업	-11.6304
▁다르지	-11.6305
cer	-11.6305
제철	-11.6306
시키	-11.6307
▁영등포구	-11.6308
▁신탁	-11.6308
▁기울이고	-11.6309
▁법원의	-11.6309
▁초콜릿	-11.631
▁선형	-11.631
▁적극적	-11.6312
▁효성	-11.6313
▁신청은	-11.6314
독재	-11.6314
▁악용	-11.6314
▁예시	-11.6315
▁다음주	-11.6316
빌리	-11.6316
홍콩	-11.6316
아메리카	-11.6317
▁맛이	-11.6317
▁office	-11.6318
▁게시물	-11.6318
▁일본이	-11.6319
▁송도	-11.6319
▁하나를	-11.6319
▁경기도지사	-11.6319
▁something	-11.632
▁자는	-11.632
비트	-11.632
▁제로	-11.6322
피고인	-11.6322
}(	-11.6323
▁켜	-11.6323
▁감염경로	-11.6324
통을	-11.6325
▁reference	-11.633
▁과학적	-11.6332
▁악취	-11.6332
▁패소	-11.6332
▁사실이다	-11.6334
▁대책이	-11.6335
연계	-11.6336
▁global	-11.6337
▁무렵	-11.6338
▁구입할	-11.6339
▁보고서는	-11.6341
▁피해자가	-11.6342
▁토양	-11.6342
▁방향성	-11.6343
▁일부는	-11.6344
뱃	-11.6346
TP	-11.6346
IMF	-11.6346
▁appropriate	-11.6349
▁간격	-11.6351
▁고창군	-11.6352
ding	-11.6353
▁선발로	-11.6353
여기서	-11.6354
▁느꼈다	-11.6354
정보기술	-11.6355
▁안드로이드	-11.6356
하냐	-11.6356
▁논평을	-11.6358
▁death	-11.6359
▁지분율	-11.6359
▁진출한	-11.636
받게	-11.6363
관리를	-11.6363
강사	-11.6363
사관	-11.6363
▁자체적으로	-11.6366
▁서류를	-11.6366
가입	-11.6366
아레나	-11.6367
▁개최한	-11.6367
▁예상하고	-11.6367
이사장	-11.6369
▁자라	-11.637
▁미루	-11.6371
일에도	-11.6371
▁영유아	-11.6372
▁익명	-11.6373
농촌	-11.6374
상보	-11.6376
▁걸리는	-11.6376
가칭	-11.6376
▁평등	-11.6377
▁genetic	-11.6378
하락	-11.638
시트	-11.638
▁다변화	-11.6381
▁낭비	-11.6381
다시	-11.6382
▁전라북도	-11.6383
▁친절	-11.6384
▁면모를	-11.6384
엔터테인먼트는	-11.6384
부정	-11.6385
니트	-11.6385
▁전작	-11.6385
▁평년	-11.6386
▁문구	-11.6387
board	-11.6388
▁낚시	-11.6389
▁불거진	-11.639
▁의학	-11.6391
국립	-11.6392
▁업체에	-11.6393
지역은	-11.6395
유출	-11.6397
▁확대됐다	-11.6399
▁이건	-11.64
wa	-11.64
▁유물	-11.6402
파트너스	-11.6402
▁임차	-11.6403
▁개선될	-11.6403
하시면	-11.6403
그레	-11.6404
▁높을	-11.6405
▁도망	-11.6406
도시공사	-11.6407
▁연중	-11.6407
▁걸렸다	-11.6407
▁문체부	-11.6407
▁가처분	-11.6411
네이버	-11.6411
▁업소	-11.6412
ls	-11.6412
angle	-11.6412
▁결과와	-11.6413
쑥	-11.6413
▁video	-11.6413
quality	-11.6415
▁의혹과	-11.6416
▁지었다	-11.6416
만으로도	-11.6417
▁화가	-11.6419
▁우울	-11.642
istic	-11.6421
▁정세	-11.6422
▁나서야	-11.6423
▁희귀	-11.6423
청구권	-11.6425
▁완주	-11.6426
▁증인으로	-11.6427
▁대안을	-11.6427
▁성희롱	-11.6427
▁심도	-11.6427
드레	-11.6427
▁지금도	-11.6428
="	-11.6428
▁뮤직	-11.6429
▁입단	-11.6429
▁차량의	-11.6429
▁발족	-11.643
▁소명	-11.643
▁가해	-11.6434
▁달성할	-11.6434
▁개발이	-11.6434
더스	-11.6435
▁방제	-11.6435
▁발굴하고	-11.6437
배송	-11.6437
atic	-11.6439
▁쳐	-11.644
▁우선순위	-11.6441
▁골프장	-11.6441
▁surgery	-11.6442
▁창단	-11.6443
▁난다	-11.6446
▁유치를	-11.6446
▁열람	-11.6447
▁바라보는	-11.6447
▁손으로	-11.6449
Data	-11.6449
▁초대형	-11.6449
▁깊어	-11.6451
▁개선과	-11.6452
wti	-11.6452
▁본회의를	-11.6453
▁어워드	-11.6454
▁태어난	-11.6455
지청	-11.6456
▁적절히	-11.6456
문제를	-11.6456
▁정상회담을	-11.6458
▁포부를	-11.6458
입찰	-11.6459
▁과제로	-11.646
▁외상	-11.646
만건	-11.6461
▁계약이	-11.6462
▁혁신도시	-11.6462
▁독감	-11.6462
특례	-11.6463
▁폭스바겐	-11.6463
보증금	-11.6463
▁포상	-11.6464
ars	-11.6465
▁differences	-11.6466
▁우한	-11.6467
▁컨디션	-11.6468
▁사건으로	-11.647
미래에셋	-11.647
▁모양새다	-11.647
▁성장하고	-11.6471
▁서로의	-11.6472
소독	-11.6474
억여원	-11.6476
▁공존	-11.6476
▁어울리는	-11.6476
▁평가에서	-11.6477
比	-11.6478
▁서식	-11.6478
▁보건의료	-11.6479
▁제시하는	-11.6479
▁제주항공	-11.648
▁security	-11.6481
hot	-11.6482
▁mode	-11.6483
%↓	-11.6483
▁ICT	-11.6484
신탁	-11.6484
▁냉각	-11.6484
▁긴밀히	-11.6484
covid	-11.6485
▁지적에	-11.6486
▁본사에서	-11.6488
▁권한대행	-11.6488
어도	-11.6489
▁제한하는	-11.6489
RA	-11.6491
사유	-11.6491
▁devices	-11.6491
▁주최하고	-11.6491
▁다룬	-11.6492
남해안	-11.6492
▁부인했다	-11.6493
▁함양	-11.6493
▁휘발유	-11.6494
▁With	-11.6494
▁판단하고	-11.6495
III	-11.6496
▁external	-11.6497
▁고위급	-11.6497
▁코레일	-11.6501
▁사적	-11.6501
천명	-11.6502
▁실온	-11.6502
민족	-11.6502
▁병력이	-11.6503
▁계시	-11.6504
▁마이클	-11.6506
과목	-11.6506
▁야당의	-11.6506
상장	-11.6508
리티	-11.6509
EM	-11.651
▁않기로	-11.6511
▁팬들과	-11.6511
▁성취	-11.6512
▁뭘	-11.6512
rin	-11.6513
독성	-11.6514
▁유형의	-11.6514
▁충분	-11.6514
▁원으로	-11.6515
▁Some	-11.6516
▁소재를	-11.6516
확산	-11.6516
▁홈플러스	-11.6518
▁나타내었다	-11.6518
▁애국	-11.6518
▁학문	-11.6519
▁might	-11.6519
▁달라진	-11.652
▁구속기소	-11.6523
▁한마디	-11.6523
▁법을	-11.6524
▁방식에	-11.6526
▁공론화	-11.6527
▁동반성장	-11.6528
▁경위를	-11.6528
▁분자	-11.653
▁계획은	-11.6532
유산	-11.6532
▁감상	-11.6533
버섯	-11.6533
▁shape	-11.6533
▁맡게	-11.6533
▁현대차는	-11.6534
▁위안	-11.6536
부족	-11.6536
▁주총	-11.6536
▁첨가제로는	-11.6537
▁만들어야	-11.6538
▁해소하기	-11.6539
▁애정을	-11.654
스파	-11.6541
▁명의로	-11.6542
train	-11.6542
▁내시경	-11.6542
▁리뷰	-11.6542
▁겉	-11.6542
보살	-11.6543
▁주재로	-11.6543
▁기관과	-11.6546
▁던졌다	-11.6547
▁direct	-11.655
▁공급할	-11.655
사업본부	-11.655
▁빨라	-11.6551
RT	-11.6552
ari	-11.6552
oy	-11.6552
▁될지	-11.6552
▁활용될	-11.6552
▁늘면서	-11.6553
▁팀에	-11.6553
▁지수가	-11.6555
▁교육부는	-11.6555
ane	-11.6556
▁개발된	-11.6556
▁배제할	-11.6558
▁겪었다	-11.656
올해는	-11.656
신당	-11.6561
▁구축하는	-11.6563
▁결의안	-11.6565
▁세계를	-11.6565
활동에	-11.6565
▁잔여	-11.6566
▁세상에	-11.6566
리더	-11.6568
▁channel	-11.6569
▁add	-11.6569
▁승리로	-11.657
scale	-11.6571
▁보증금	-11.6572
잭	-11.6572
▁enzyme	-11.6572
▁끌어올리	-11.6572
▁극심한	-11.6572
리니지	-11.6573
▁바쁜	-11.6573
phi	-11.6575
▁본청	-11.6576
ko	-11.6576
▁맞대결	-11.6576
▁충당	-11.6577
바로	-11.6577
본다	-11.6577
(<	-11.6578
▁합법	-11.6579
ency	-11.6579
비용을	-11.658
▁customers	-11.658
▁공인	-11.658
▁의무가	-11.6581
▁경우에만	-11.6582
▁차량에	-11.6584
▁저축은행	-11.6585
▁machine	-11.6585
▁이룬	-11.6586
▁유학	-11.6586
PP	-11.6587
곽	-11.6588
▁체결하고	-11.6588
▁combination	-11.6589
▁나누고	-11.6589
▁정례회	-11.6589
▁베타	-11.659
▁완벽	-11.6591
▁national	-11.6592
▁개혁을	-11.6594
▁daily	-11.6595
▁시행하는	-11.6596
▁enter	-11.6597
▁자세로	-11.6597
▁표현한	-11.6598
flu	-11.6599
▁불만	-11.66
징후	-11.6601
▁발언에	-11.6602
var	-11.6602
매직	-11.6603
▁실현을	-11.6603
▁논의하고	-11.6604
▁이룰	-11.6604
▁겪은	-11.6604
▁핀	-11.6605
도의회	-11.6605
합병	-11.6605
▁느낀다	-11.6606
av	-11.6606
▁이루는	-11.661
독립운동	-11.661
놀이터	-11.6612
GS	-11.6612
프랑스	-11.6613
▁북한과	-11.6613
▁도청	-11.6614
▁극복하고	-11.6616
▁외화	-11.6616
▁소개하는	-11.6617
▁달린	-11.6617
▁동북아	-11.6618
▁수목드라마	-11.6618
▁수행한다	-11.662
▁클로	-11.662
▁아래로	-11.662
▁lng	-11.662
▁이십	-11.662
▁의결했다	-11.6621
뭇	-11.6622
▁투자자들의	-11.6622
사업단	-11.6623
II	-11.6625
▁밝힐	-11.6625
▁어디에	-11.6627
▁받으면	-11.6628
셉	-11.6628
▁성장한	-11.6628
▁이집트	-11.6628
기반시설	-11.6628
▁주장한	-11.6628
경로	-11.6629
▁관계자들이	-11.6629
웃음	-11.663
▁try	-11.6631
▁드러낸	-11.6632
출력	-11.6633
성향	-11.6634
▁품질을	-11.6636
▁대원	-11.6637
▁경쟁사	-11.6637
▁모멘텀	-11.6638
▁자외선	-11.6638
▁만찬	-11.6638
전년	-11.6639
▁투여하지	-11.6639
▁참석할	-11.6641
▁자신만의	-11.6643
않	-11.6644
▁오빠	-11.6644
오염	-11.6646
eet	-11.6646
▁공무원들	-11.6648
▁고기압의	-11.6648
지오	-11.6649
▁focus	-11.665
▁짓는	-11.665
▁채권단	-11.6651
시켜야	-11.6651
▁밖	-11.6651
▁내세우	-11.6652
▁세수	-11.6653
▁screen	-11.6657
▁맛집	-11.6657
클로	-11.6657
▁지식을	-11.6658
경은	-11.6658
▁아이들의	-11.6658
오르	-11.666
구성	-11.6661
장학	-11.6662
▁정읍	-11.6662
세상	-11.6662
하늘	-11.6663
항목	-11.6664
mission	-11.6664
▁주전	-11.6667
▁하에	-11.6668
▁나가고	-11.6669
▁근대	-11.667
▁꿀	-11.667
▁지원자	-11.667
▁닛케이	-11.667
공식	-11.6671
▁issues	-11.6671
경진대회	-11.6671
▁theory	-11.6672
▁투명한	-11.6672
크로	-11.6672
금융투자	-11.6672
머신	-11.6672
기관이	-11.6673
▁Li	-11.6673
▁우수상	-11.6673
▁석방	-11.6675
셜	-11.6675
▁소장은	-11.6675
관왕	-11.6676
▁농구	-11.6677
▁최적	-11.6677
▁학교에서	-11.6678
▁전보다	-11.6678
▁행장	-11.6678
▁헌혈	-11.6679
▁서비스의	-11.6681
▁신한금융투자	-11.6681
HD	-11.6681
공격	-11.6682
동맹	-11.6684
▁허위사실	-11.6686
▁개선할	-11.6687
히어로	-11.6688
▁유학생	-11.6689
▁신청자	-11.6691
▁성분이	-11.6692
▁통증이	-11.6692
▁위험도	-11.6693
▁물량을	-11.6693
▁호텔에서	-11.6693
▁연결된	-11.6693
▁손실이	-11.6694
용인	-11.6696
마루	-11.6698
▁해역	-11.6698
▁드립니다	-11.6699
▁**	-11.67
TI	-11.6701
상생	-11.6701
포스트	-11.6701
▁investment	-11.6701
▁여정	-11.6701
▁overall	-11.6701
▁주택담보대출	-11.6702
편을	-11.6703
파이어	-11.6703
▁체질	-11.6703
▁피하기	-11.6704
▁질주	-11.6704
▁소개한다	-11.6704
룬	-11.6705
▁degree	-11.6705
▁페이스북을	-11.6707
▁순방	-11.6707
▁홍보를	-11.6707
▁반해	-11.6709
▁국민들	-11.6709
▁수요일	-11.6709
▁적자를	-11.671
▁시너지를	-11.6711
▁면역력	-11.6711
▁일방적으로	-11.6712
선으로	-11.6715
▁추억을	-11.6717
▁예방하기	-11.6717
▁염려	-11.6718
▁것들이	-11.6719
▁식량	-11.6722
▁결핵	-11.6726
▁재임	-11.6727
▁일대에서	-11.6728
▁알리기	-11.6728
▁청와대가	-11.6728
▁정씨	-11.6729
▁살리기	-11.673
▁방문을	-11.673
▁확보하는	-11.673
▁영향력	-11.673
▁과거에	-11.6732
▁reach	-11.6733
기온	-11.6733
앞	-11.6734
▁출루	-11.6734
▁국방부는	-11.6734
▁추진한다고	-11.6735
▁구성하고	-11.6736
▁러브	-11.6738
▁사정이	-11.674
▁종목은	-11.6741
▁조화	-11.6741
▁랭킹	-11.6741
▁상황과	-11.6742
유기	-11.6742
▁안전과	-11.6742
▁메시	-11.6742
▁명예훼손	-11.6745
▁Al	-11.6746
▁정상적으로	-11.6746
▁조성해	-11.6746
▁아쉬운	-11.6748
공공기관	-11.6749
독립	-11.675
▁대응해	-11.6751
미안	-11.6751
▁놀라운	-11.6751
▁follow	-11.6752
▁대응에	-11.6753
▁매체는	-11.6753
▁치고	-11.6753
▁일으킬	-11.6754
▁취하	-11.6754
▁가담	-11.6754
▁히트	-11.6755
나이트	-11.6755
▁중형	-11.6755
▁개체	-11.6755
▁혼란을	-11.6756
▁봤을	-11.6756
▁신입생	-11.6756
▁수행하고	-11.6757
건강증진	-11.6758
▁PD	-11.6758
▁출전한	-11.6759
▁무실점	-11.676
▁선거법	-11.676
▁existing	-11.6761
inc	-11.6761
▁바뀐	-11.6761
▁확대했다	-11.6763
▁고심	-11.6763
주차장	-11.6763
▁노동자들	-11.6763
▁간담회에서	-11.6764
▁이해관계	-11.6765
In	-11.6766
▁개성공단	-11.6766
▁흔들리	-11.6767
▁supply	-11.6768
량의	-11.6768
▁도주	-11.6769
▁롱	-11.6769
국인	-11.677
플랜트	-11.677
▁입대	-11.677
▁움직이는	-11.6772
▁질문에는	-11.6772
자신	-11.6772
▁발견했다	-11.6773
▁높인다	-11.6775
라이언	-11.6775
▁것임을	-11.6776
▁사용량	-11.6776
▁soon	-11.6777
▁예산은	-11.6777
▁장군	-11.6777
▁가볍게	-11.6778
▁선수로	-11.6778
▁무죄를	-11.6778
▁보호자	-11.6779
▁본회의에서	-11.6779
▁고충	-11.6781
▁accept	-11.6781
▁규정이	-11.6783
너스	-11.6783
▁안산시	-11.6784
▁패스	-11.6784
▁circuit	-11.6784
녹십자	-11.6784
▁공간에서	-11.6785
개동	-11.6785
▁결정은	-11.6785
군요	-11.6786
▁그러자	-11.6786
▁month	-11.6787
▁육박	-11.6787
▁인식하고	-11.6787
cycle	-11.6788
▁rare	-11.6788
▁앞으로는	-11.6789
▁던진	-11.6791
▁리버풀	-11.6791
덩	-11.6793
▁브랜드의	-11.6794
▁익산시	-11.6795
▁여섯	-11.6795
랍	-11.6795
▁무역전쟁	-11.6796
▁인정하는	-11.6796
▁보훈	-11.6797
▁빔	-11.6797
▁학사	-11.6799
▁다녀	-11.6799
▁불균형	-11.6799
왓	-11.6801
랐다	-11.6802
▁재난지원금	-11.6803
▁민간인	-11.6803
▁처음부터	-11.6804
▁수출규제	-11.6804
hat	-11.6804
GHz	-11.6806
▁감소할	-11.6807
opec	-11.6807
▁것이냐	-11.6807
▁치른	-11.6807
▁뻔	-11.6808
권자	-11.6808
▁뽑아	-11.6808
▁애플은	-11.6809
▁관리하고	-11.6811
▁정보와	-11.6811
▁판단에	-11.6813
▁말씀드리	-11.6814
었기	-11.6815
▁당정	-11.6816
▁용산구	-11.6816
▁싸이	-11.6817
▁서울과	-11.6817
▁안무	-11.6818
▁건전한	-11.6818
▁분야로	-11.6819
▁개학	-11.6821
▁등록을	-11.6821
▁찬스	-11.6821
▁해커	-11.6822
▁유용한	-11.6822
▁자유로운	-11.6822
▁제주특별자치도	-11.6824
호흡	-11.6825
▁예정입니다	-11.6825
▁시에는	-11.6825
▁총장이	-11.6826
개월만에	-11.6829
▁연방준비제도	-11.6829
▁턱	-11.683
▁스마트폰을	-11.683
▁마이크로소프트	-11.683
사측	-11.6832
▁상장사	-11.6832
▁문턱	-11.6833
ration	-11.6833
▁관세청	-11.6834
갱	-11.6834
▁고객과	-11.6835
드래곤	-11.6835
공천	-11.6836
▁입맛	-11.6837
▁된다면	-11.6839
▁고사	-11.684
▁기여하고	-11.6841
▁종결	-11.6842
▁개선해	-11.6843
▁떠나는	-11.6844
▁증거를	-11.6845
▁해석된다	-11.6846
▁국가와	-11.6847
▁path	-11.6847
▁참가자들	-11.6847
▁한창	-11.6849
토지	-11.6849
모집	-11.685
미니	-11.685
▁States	-11.6852
▁요양병원	-11.6854
▁상단	-11.6854
▁폼페이오	-11.6854
▁중심에	-11.6855
▁분담	-11.6855
▁완주군	-11.6856
▁곳곳	-11.6856
▁선정됐다고	-11.6857
▁적게	-11.6857
▁정수	-11.6857
▁depending	-11.6859
▁마찬가지다	-11.686
▁도시계획	-11.6861
▁검사는	-11.6861
▁기지	-11.6862
▁목요일	-11.6862
▁것인데	-11.6862
▁수산	-11.6864
▁계신	-11.6865
휴가	-11.6865
먼트	-11.6866
▁모델의	-11.6867
밀도	-11.6867
년간의	-11.6869
만톤	-11.687
▁주역	-11.687
경력	-11.687
부부	-11.6871
▁단식	-11.6871
DB	-11.6871
▁Article	-11.6872
▁시민사회	-11.6872
▁해상에서	-11.6873
sec	-11.6873
▁늦은	-11.6874
▁상반기에	-11.6874
재밌	-11.6875
맙	-11.6875
▁신분으로	-11.6875
▁언제든지	-11.6877
▁밝혔음	-11.6878
den	-11.6878
▁이온	-11.6879
▁고리	-11.6879
▁수천	-11.6881
▁approximately	-11.6882
스러워	-11.6882
▁트위터를	-11.6882
▁장기적인	-11.6883
시멘트	-11.6885
rain	-11.6887
▁월급	-11.6887
▁주장은	-11.6888
▁sample	-11.6888
ii	-11.6889
▁나라가	-11.689
▁환수	-11.6891
잔치	-11.6891
▁weeks	-11.6891
▁단서	-11.6892
성능	-11.6893
▁김모	-11.6893
지역본부	-11.6894
▁게임의	-11.6894
▁범인	-11.6894
ker	-11.6897
▁경제부총리	-11.6899
테크놀로지	-11.6899
▁혼인	-11.6902
그루	-11.6902
▁영상은	-11.6903
충청	-11.6904
▁국영	-11.6904
▁중에서는	-11.6904
▁외국인이	-11.6905
▁힙합	-11.6906
▁법무법인	-11.6906
심사를	-11.6907
사업소	-11.6907
▁language	-11.6909
▁located	-11.6909
PR	-11.691
▁안동	-11.691
eth	-11.6911
▁produce	-11.6911
▁주한	-11.6912
오페라	-11.6913
▁좋고	-11.6913
▁인텔	-11.6915
▁데뷔한	-11.6915
리포트	-11.6917
▁시간당	-11.6917
tan	-11.6917
▁values	-11.6918
레이더	-11.6918
wh	-11.6919
▁안으로	-11.6919
▁오직	-11.692
▁detect	-11.6921
ories	-11.6921
▁푸드	-11.6922
▁average	-11.6922
▁meta	-11.6923
▁진상규명	-11.6923
▁부작용이	-11.6925
특급	-11.6925
▁당국의	-11.6925
▁correct	-11.6926
▁무작위	-11.6926
▁접수된	-11.6927
▁투명성	-11.6928
ron	-11.6928
▁리서치	-11.6928
▁안심하고	-11.6929
▁consider	-11.693
플라이	-11.6931
▁유연	-11.6931
▁체온	-11.6932
▁현대백화점	-11.6933
▁❍	-11.6934
▁방위	-11.6934
▁원산지	-11.6934
▁그렇	-11.6937
자금을	-11.6937
부장관	-11.6937
▁밝히지	-11.6938
▁마련하는	-11.694
삼척	-11.694
여대	-11.694
▁미치	-11.6941
virus	-11.6942
▁투여합니다	-11.6942
https	-11.6943
▁initial	-11.6943
▁인물이다	-11.6943
분까지	-11.6945
친환경	-11.6946
등의	-11.6947
▁일본과	-11.6947
현안	-11.6947
▁move	-11.6948
▶	-11.6949
▁진흥	-11.6949
친다	-11.695
보험료	-11.6951
OR	-11.6952
▁붙잡	-11.6953
▁신조	-11.6954
▁표현을	-11.6954
▁형사합의	-11.6954
▁중기부	-11.6954
▁판매량이	-11.6956
상무	-11.6956
▁서로를	-11.6956
▁법칙	-11.6957
fill	-11.6959
▁약관	-11.696
영재	-11.696
▁연임	-11.696
개정안	-11.696
색이	-11.6963
환율	-11.6963
▁생긴다	-11.6964
점수	-11.6966
▁man	-11.6966
▁가진다	-11.6967
▁도입된	-11.6967
▁Ca	-11.6969
▁touch	-11.6969
▁넘겨진	-11.6972
▁배부	-11.6973
▁영업점	-11.6973
ope	-11.6974
필지	-11.6974
▁떨어진다	-11.6974
▁누리꾼들은	-11.6974
▁순회	-11.6974
lot	-11.6974
▁구름이	-11.6975
평가를	-11.6977
▁아일랜드	-11.6978
▁업무상	-11.6979
▁적용될	-11.698
▁일어나는	-11.698
▁유기농	-11.6981
▁컷	-11.6981
▁출품	-11.6981
▁판문점	-11.6982
▁아이가	-11.6982
거리는	-11.6983
▁흐름이	-11.6983
▁고성능	-11.6983
▁로마	-11.6984
▁임박	-11.6985
▁재심	-11.6986
▁선택해	-11.6986
▁영향은	-11.6986
▁사우디아라비아	-11.6987
▁관세를	-11.6987
동포	-11.6988
고교	-11.6988
▁폐업	-11.6988
▁보석	-11.6989
RP	-11.6989
pop	-11.6989
▁양쪽	-11.699
gy	-11.699
fda	-11.6991
▁행위는	-11.6992
▁대상이다	-11.6992
▁사항에	-11.6992
▁말은	-11.6993
테스트	-11.6994
▁출연을	-11.6994
▁호출	-11.6994
▁편의성	-11.6995
▁과열	-11.6996
해나갈	-11.6997
▁돌풍	-11.6998
▁제작진은	-11.7
▁중국어	-11.7001
▁장소를	-11.7002
▁사이트를	-11.7002
가능성	-11.7002
▁이익이	-11.7003
▁확산되고	-11.7004
보트	-11.7004
▁특가	-11.7005
▁사전예약	-11.7008
▁실적은	-11.7008
▁이후로	-11.7009
▁의결권	-11.7009
^{\	-11.7011
▁대비한	-11.7012
▁조성에	-11.7012
▁보고서에	-11.7014
▁간장애	-11.7015
모토	-11.7015
▁쓰기	-11.7015
돼지	-11.7016
▁기획전	-11.7016
meter	-11.7017
RR	-11.7018
▁단원	-11.7018
▁월간	-11.7019
▁형태를	-11.702
point	-11.7021
▁출시할	-11.7024
원전	-11.7024
▁침대	-11.7025
진보	-11.7025
▁덜어	-11.7026
▁산화	-11.7027
▁검찰개혁	-11.7027
에이치	-11.7028
▁여러분들	-11.7029
▁증여	-11.7031
▁부문의	-11.7031
갖	-11.7032
▁사양	-11.7032
▁제도개선	-11.7032
▁작곡가	-11.7032
▁서산	-11.7034
▁전문성	-11.7038
▁연구기관	-11.7038
ks	-11.7039
아카데미	-11.7041
▁그래프	-11.7043
▁위원장을	-11.7044
적금	-11.7045
▁나타났	-11.7045
▁infections	-11.7048
가격이	-11.7049
옴	-11.7049
자책	-11.7049
▁시행한	-11.7051
▁크기를	-11.7051
▁리얼	-11.7052
닿	-11.7054
▁자세를	-11.7055
▁시점을	-11.7057
▁사용된다	-11.7057
▁뒀다	-11.7058
나노	-11.7058
▁강풍	-11.7059
▁진술을	-11.7059
▁distribution	-11.7059
▁지질	-11.7059
건수	-11.706
▁밝혔습니다	-11.7061
▁외래	-11.7061
체인	-11.7062
▁HIV	-11.7064
▁신사업	-11.7064
▁충청권	-11.7064
폴리	-11.7065
정말	-11.7066
▁번의	-11.7066
딤	-11.7066
▁흡입	-11.7066
▁작가는	-11.7067
iz	-11.7069
했음에도	-11.7069
훈장	-11.707
슛	-11.707
▁디젤	-11.7071
▁유저들	-11.7072
호남	-11.7073
버렸다	-11.7076
▁임산부	-11.7076
▁봐도	-11.7077
▁쌍용차	-11.7077
▁학생은	-11.7077
배치	-11.7077
▁우선적으로	-11.7079
▁요청할	-11.7079
▁프리미어리그	-11.708
야마	-11.708
었어요	-11.7081
▁창의	-11.7082
▁구할	-11.7082
▁액체	-11.7083
▁도착한	-11.7083
▁foreign	-11.7083
ott	-11.7084
좋음	-11.7086
▁전문인력	-11.7086
▁자율주행차	-11.7087
▁한국투자증권	-11.7088
▁주축	-11.709
▁국무장관	-11.709
▁영업익	-11.709
▁진출에	-11.7095
▁이루고	-11.7096
사이클	-11.7096
▁hyper	-11.7096
▁티셔츠	-11.7097
▁아르바이트	-11.7097
베스트	-11.7097
▁put	-11.7098
뼈	-11.7099
▁갑질	-11.71
을까	-11.7101
▁사흘	-11.7101
▁엑스	-11.7102
▁트와이스	-11.7102
▁수비수	-11.7104
도교육청	-11.7105
▁밀접한	-11.7107
▁들어와	-11.7107
▁임무를	-11.7107
▁두려움	-11.7107
▁타이어뱅크	-11.7108
현지	-11.7108
스팅	-11.7108
▁줄기세포	-11.7109
생태	-11.711
▁억제제	-11.7113
구치소	-11.7113
▁획득했다	-11.7115
▁금품을	-11.7116
▁VR	-11.7116
▁레시피	-11.7118
▁이용자가	-11.7118
△	-11.7118
▁시민과	-11.7119
▁외환	-11.7121
▁뇌졸중	-11.7121
▁guide	-11.7121
emo	-11.7122
▁idea	-11.7123
▁기울여	-11.7123
▁일반적	-11.7125
▁요구된다	-11.7125
▁전방	-11.7126
▁강서구	-11.7127
내부	-11.7128
▁후문이다	-11.7128
였는데	-11.7129
▁취해	-11.713
실점으로	-11.7131
▁저의	-11.7131
▁승소	-11.7132
▁이글스	-11.7132
▁펼친	-11.7135
▁turn	-11.7136
인가요	-11.7137
▁작사	-11.7137
석은	-11.7138
▁뽐내	-11.7139
▁어쩔	-11.7139
브랜	-11.7139
▁달러를	-11.7139
▁확진됐다	-11.714
GM	-11.714
▁삼진	-11.7142
▁고민이	-11.7142
▁내성	-11.7142
▁동아리	-11.7143
▁팬들을	-11.7143
효과가	-11.7145
▁감량	-11.7146
▁곰	-11.7147
▁인근에서	-11.7147
무장	-11.7147
혈증	-11.7148
위크	-11.7148
▁산업을	-11.7148
▁전문가로	-11.715
함수	-11.7152
▁점유	-11.7154
▁불편한	-11.7155
▁건수	-11.7156
▁평면	-11.7157
지원단	-11.7157
배달	-11.7157
전류	-11.7157
▁구성하는	-11.7157
▁캘리포니아	-11.7158
류를	-11.7159
▁판례	-11.7159
분리	-11.7161
▁다루는	-11.7161
▁전달하고	-11.7162
시키지	-11.7162
▁보도자료를	-11.7162
▁대본	-11.7163
벚	-11.7163
▁우위를	-11.7164
▁통증을	-11.7164
▁면세	-11.7164
업계의	-11.7164
이렇게	-11.7165
워킹	-11.7165
▁처리하는	-11.7165
▁뛰었다	-11.7165
본인	-11.7166
▁임대차	-11.7166
▁자릿수	-11.7166
ele	-11.7166
▁던져	-11.7167
▁전망도	-11.7167
▁내려가	-11.7167
▁몸이	-11.7167
▁공약을	-11.7168
▁해요	-11.7168
국수	-11.7169
제국	-11.717
▁메가	-11.717
▁편지	-11.7171
▁지체	-11.7171
▁정리해	-11.7171
▁주변의	-11.7172
path	-11.7172
▁나이가	-11.7173
▁확진자와	-11.7173
올랐	-11.7173
▁쇼케이스	-11.7173
보호구역	-11.7175
유플러스는	-11.7176
억엔	-11.7176
ject	-11.7178
포항	-11.7179
위치	-11.718
응답	-11.7182
완화	-11.7182
▁화장	-11.7184
▁벌이는	-11.7184
유리	-11.7185
▁개인적으로	-11.7186
농림	-11.7186
변조	-11.7186
▁analyzed	-11.7187
ital	-11.7187
▁평일	-11.7187
▁주거환경	-11.7189
cb	-11.7189
보세요	-11.719
▁퍼지	-11.7191
▁공기청정기	-11.7191
▁유네스코	-11.7191
met	-11.7191
▁해외시장	-11.7192
▁likely	-11.7192
▁진행하며	-11.7194
▁무더위	-11.7195
전날	-11.7195
▁레알	-11.7196
▁수단으로	-11.7196
▁실점	-11.7197
▁고객사	-11.7197
fusion	-11.7197
▁하루에	-11.7198
▁인정받았다	-11.72
▁메타	-11.72
산업진흥원	-11.72
▁평화를	-11.7202
▁일평균	-11.7202
▁지지층	-11.7203
서귀포	-11.7206
pre	-11.7207
▁부장판사	-11.7208
화하는	-11.7208
캐슬	-11.7209
▁사용했다	-11.721
▁도입했다	-11.7212
▁고등학생	-11.7212
▁적다	-11.7213
▁사무총장은	-11.7214
뉴딜	-11.7214
▁along	-11.7216
▁한방	-11.7218
매각	-11.7218
▁계속되고	-11.7218
▁무너지	-11.7219
도민	-11.722
정상	-11.7221
▁노동조합	-11.7222
radi	-11.7222
▁big	-11.7222
드릴	-11.7223
▁mass	-11.7224
▁폴란드	-11.7226
▁편의성을	-11.7226
▁다니는	-11.7227
▁선고받았다	-11.7227
▁선정하고	-11.7228
▁제공했다	-11.7229
네스	-11.7231
▁의미하는	-11.7231
▁채팅	-11.7233
▁사격	-11.7233
놔	-11.7236
▁소비자에게	-11.7238
▁있었기	-11.7239
▁require	-11.7239
sw	-11.724
▁인지도	-11.7242
▁불교	-11.7242
▁안전점검	-11.7242
▁초부터	-11.7242
▁있을까요	-11.7242
▁과민반응	-11.7243
▁쏠린다	-11.7243
▁언제나	-11.7243
▁상수도	-11.7244
▁사람도	-11.7245
주시고	-11.7247
▁once	-11.7247
협의회는	-11.7247
러브	-11.7248
▁선원	-11.7248
▁약자	-11.7249
▁정전	-11.725
구속	-11.725
▁일관	-11.7251
▁호응	-11.7252
▁exercise	-11.7254
[...]
