<pad>	0
<bos>	0
<eos>	0
<unk>	0
<start_of_turn>	0
<end_of_turn>	0
<0x00>	0
<0x01>	0
<0x02>	0
<0x03>	0
<0x04>	0
<0x05>	0
<0x06>	0
<0x07>	0
<0x08>	0
<0x09>	0
<0x0A>	0
<0x0B>	0
<0x0C>	0
<0x0D>	0
<0x0E>	0
<0x0F>	0
<0x10>	0
<0x11>	0
<0x12>	0
<0x13>	0
<0x14>	0
<0x15>	0
<0x16>	0
<0x17>	0
<0x18>	0
<0x19>	0
<0x1A>	0
<0x1B>	0
<0x1C>	0
<0x1D>	0
<0x1E>	0
<0x1F>	0
<0x20>	0
<0x21>	0
<0x22>	0
<0x23>	0
<0x24>	0
<0x25>	0
<0x26>	0
<0x27>	0
<0x28>	0
<0x29>	0
<0x2A>	0
<0x2B>	0
<0x2C>	0
<0x2D>	0
<0x2E>	0
<0x2F>	0
<0x30>	0
<0x31>	0
<0x32>	0
<0x33>	0
<0x34>	0
<0x35>	0
<0x36>	0
<0x37>	0
<0x38>	0
<0x39>	0
<0x3A>	0
<0x3B>	0
<0x3C>	0
<0x3D>	0
<0x3E>	0
<0x3F>	0
<0x40>	0
<0x41>	0
<0x42>	0
<0x43>	0
<0x44>	0
<0x45>	0
<0x46>	0
<0x47>	0
<0x48>	0
<0x49>	0
<0x4A>	0
<0x4B>	0
<0x4C>	0
<0x4D>	0
<0x4E>	0
<0x4F>	0
<0x50>	0
<0x51>	0
<0x52>	0
<0x53>	0
<0x54>	0
<0x55>	0
<0x56>	0
<0x57>	0
<0x58>	0
<0x59>	0
<0x5A>	0
<0x5B>	0
<0x5C>	0
<0x5D>	0
<0x5E>	0
<0x5F>	0
<0x60>	0
<0x61>	0
<0x62>	0
<0x63>	0
<0x64>	0
<0x65>	0
<0x66>	0
<0x67>	0
<0x68>	0
<0x69>	0
<0x6A>	0
<0x6B>	0
<0x6C>	0
<0x6D>	0
<0x6E>	0
<0x6F>	0
<0x70>	0
<0x71>	0
<0x72>	0
<0x73>	0
<0x74>	0
<0x75>	0
<0x76>	0
<0x77>	0
<0x78>	0
<0x79>	0
<0x7A>	0
<0x7B>	0
<0x7C>	0
<0x7D>	0
<0x7E>	0
<0x7F>	0
<0x80>	0
<0x81>	0
<0x82>	0
<0x83>	0
<0x84>	0
<0x85>	0
<0x86>	0
<0x87>	0
<0x88>	0
<0x89>	0
<0x8A>	0
<0x8B>	0
<0x8C>	0
<0x8D>	0
<0x8E>	0
<0x8F>	0
<0x90>	0
<0x91>	0
<0x92>	0
<0x93>	0
<0x94>	0
<0x95>	0
<0x96>	0
<0x97>	0
<0x98>	0
<0x99>	0
<0x9A>	0
<0x9B>	0
<0x9C>	0
<0x9D>	0
<0x9E>	0
<0x9F>	0
<0xA0>	0
<0xA1>	0
<0xA2>	0
<0xA3>	0
<0xA4>	0
<0xA5>	0
<0xA6>	0
<0xA7>	0
<0xA8>	0
<0xA9>	0
<0xAA>	0
<0xAB>	0
<0xAC>	0
<0xAD>	0
<0xAE>	0
<0xAF>	0
<0xB0>	0
<0xB1>	0
<0xB2>	0
<0xB3>	0
<0xB4>	0
<0xB5>	0
<0xB6>	0
<0xB7>	0
<0xB8>	0
<0xB9>	0
<0xBA>	0
<0xBB>	0
<0xBC>	0
<0xBD>	0
<0xBE>	0
<0xBF>	0
<0xC0>	0
<0xC1>	0
<0xC2>	0
<0xC3>	0
<0xC4>	0
<0xC5>	0
<0xC6>	0
<0xC7>	0
<0xC8>	0
<0xC9>	0
<0xCA>	0
<0xCB>	0
<0xCC>	0
<0xCD>	0
<0xCE>	0
<0xCF>	0
<0xD0>	0
<0xD1>	0
<0xD2>	0
<0xD3>	0
<0xD4>	0
<0xD5>	0
<0xD6>	0
<0xD7>	0
<0xD8>	0
<0xD9>	0
<0xDA>	0
<0xDB>	0
<0xDC>	0
<0xDD>	0
<0xDE>	0
<0xDF>	0
<0xE0>	0
<0xE1>	0
<0xE2>	0
<0xE3>	0
<0xE4>	0
<0xE5>	0
<0xE6>	0
<0xE7>	0
<0xE8>	0
<0xE9>	0
<0xEA>	0
<0xEB>	0
<0xEC>	0
<0xED>	0
<0xEE>	0
<0xEF>	0
<0xF0>	0
<0xF1>	0
<0xF2>	0
<0xF3>	0
<0xF4>	0
<0xF5>	0
<0xF6>	0
<0xF7>	0
<0xF8>	0
<0xF9>	0
<0xFA>	0
<0xFB>	0
<0xFC>	0
<0xFD>	0
<0xFE>	0
<0xFF>	0
▁	-3.09311
.	-3.21202
,	-3.84288
think	-4.52586
의	-4.6181
1	-4.63855
▁수	-4.68284
>	-4.69394
:	-4.768
0	-4.78044
2	-4.87594
이	-4.96476
에	-4.99415
)	-5.00021
을	-5.0144
는	-5.10761
▁있습니다	-5.16862
를	-5.20722
.</	-5.22038
(	-5.30854
가	-5.31788
3	-5.34767
은	-5.37188
5	-5.46523
과	-5.47418
4	-5.56274
_	-5.59838
에서	-5.66549
▁<	-5.69004
와	-5.70065
-	-5.75614
로	-5.77807
▁▁▁	-5.85918
▁이	-5.8842
▁및	-5.90605
9	-5.93132
▁"	-5.9563
><	-5.96594
▁=	-5.98593
6	-6.02295
▁있는	-6.025
?	-6.09286
s	-6.09293
/	-6.12076
으로	-6.14488
8	-6.16078
▁대한	-6.16167
"	-6.22444
7	-6.24685
도	-6.31541
입니다	-6.35318
`	-6.41999
한	-6.47793
▁-	-6.51045
\_	-6.52537
▁|	-6.5361
습니다	-6.55945
▁위해	-6.56569
▁데	-6.5872
년	-6.59198
▁더	-6.60266
▁합니다	-6.6188
▁'	-6.62869
'	-6.64052
▁`	-6.6438
▁또는	-6.65515
	-6.66027
인	-6.67774
하고	-6.7269
하는	-6.74162
지	-6.74742
할	-6.74827
▁같은	-6.80168
▁다른	-6.80448
나	-6.81483
▁그	-6.82253
▁가장	-6.82554
▁사용하여	-6.82594
고	-6.82919
▁(	-6.83026
▁	-6.83101
▁것이	-6.84112
▁{	-6.84813
▁다양한	-6.93762
▁통해	-6.94202
▁따라	-7.00353
▁중	-7.00791
.	-7.01576
]	-7.03845
▁때	-7.06098
;	-7.06467
▁위한	-7.07119
이나	-7.07905
▁▁▁▁▁▁▁▁	-7.07983
세	-7.09188
다	-7.10097
▁이러한	-7.11326
▁등	-7.12417
▁▁▁▁	-7.12543
기	-7.12766
▁경우	-7.13022
합니다	-7.13628
해	-7.14916
▁한	-7.14957
▁어떤	-7.17242
▁함께	-7.2026
된	-7.22498
일	-7.22749
만	-7.2276
▁모든	-7.22807
성	-7.23279
▁대해	-7.24194
▁있다	-7.24205
▁가지	-7.24452
▁답은	-7.24686
▁두	-7.2586
▁몇	-7.26828
▁그러니	-7.27092
하기	-7.27305
▁the	-7.27957
▁다음	-7.28674
하여	-7.29046
▁하면	-7.29107
*	-7.29882
▁할	-7.30651
▁데이터	-7.3461
▁떠오르네요	-7.35044
[	-7.35172
▁또한	-7.35833
지요	-7.36242
▁것은	-7.38724
이다	-7.40486
자	-7.40722
▁것을	-7.4128
그	-7.42066
▁있으며	-7.43708
▁도움이	-7.44976
▁짚어봐야겠	-7.45121
월	-7.4544
▁후	-7.46462
적	-7.46672
▁것입니다	-7.46826
=	-7.47483
▁따라서	-7.48376
▁한다	-7.48763
▁보면	-7.49882
라고	-7.50237
▁여러	-7.51213
서	-7.5186
▁▁▁▁▁▁▁	-7.52834
에는	-7.52951
▁다음과	-7.53522
▁어떻게	-7.54567
했습니다	-7.54912
어	-7.5566
▁많은	-7.55693
▁각	-7.56184
▁제	-7.5726
▁#	-7.57364
스	-7.58957
▁영향을	-7.59712
하며	-7.59922
시	-7.61068
x	-7.61416
번	-7.62468
하지	-7.63052
▁새로운	-7.63977
▁사용	-7.63995
▁이를	-7.64047
해야	-7.64839
",	-7.65552
▁사용할	-7.67885
▁특정	-7.68638
▁때문에	-7.68653
▁필요한	-7.68774
d	-7.69442
▁들어	-7.69721
▁이는	-7.70459
▁치료	-7.71776
▁and	-7.71791
▁[	-7.71812
":	-7.71848
▁될	-7.72447
리	-7.72531
사	-7.72595
!	-7.72705
%	-7.74533
}	-7.75064
보다	-7.75486
▁답하려면	-7.75695
▁▁▁▁▁▁▁▁▁▁▁▁	-7.76419
라는	-7.7657
▁됩니다	-7.77028
▁전	-7.77153
▁*	-7.77256
▁어느	-7.77769
하거나	-7.78158
▁관리	-7.79144
▁큰	-7.79798
▁시	-7.79879
',	-7.80352
라	-7.80851
▁중요한	-7.81062
id	-7.82839
▁하는	-7.82923
▁▁▁▁▁	-7.82946
▁a	-7.83125
▁▁▁▁▁▁▁▁▁▁▁▁▁▁▁▁	-7.83304
에게	-7.84406
▁있도록	-7.84686
▁예를	-7.86219
에서는	-7.86749
i	-7.86947
▁}	-7.87285
이라고	-7.88475
C	-7.88643
▁to	-7.89122
a	-7.89457
하면	-7.89686
▁정보를	-7.89905
대	-7.90367
()	-7.90831
▁데이터를	-7.91029
▁+	-7.91224
수	-7.91363
야	-7.91509
▁잘	-7.91917
게	-7.92067
▁주요	-7.92191
▁사용자	-7.92338
▁적절한	-7.92479
아	-7.92691
y	-7.93161
▁중요합니다	-7.93322
ing	-7.93332
);	-7.9343
▁내	-7.94306
면	-7.95032
n	-7.95163
되어	-7.95204
("	-7.96246
▁같습니다	-7.96278
이며	-7.96611
하세요	-7.96638
▁가능한	-7.97716
▁//	-7.97996
화	-7.98135
들이	-7.98308
t	-7.98344
ed	-7.98563
▁떠올려	-7.99487
▁자신의	-7.99556
▁방법을	-7.99596
A	-8.00011
▁현재	-8.00043
하게	-8.00115
주	-8.00178
적인	-8.01023
c	-8.01118
▁in	-8.01357
▁높은	-8.01889
▁있어	-8.01959
▁다음은	-8.02105
·	-8.02137
▁해당	-8.03051
▁동안	-8.03662
상	-8.03869
드	-8.04346
제	-8.06103
트	-8.06743
▁$	-8.0707
f	-8.07133
="	-8.0717
▁일반적으로	-8.07699
▁제공합니다	-8.07776
('	-8.08362
\	-8.08677
▁of	-8.08695
.*	-8.08887
니	-8.09345
소	-8.09561
:	-8.09799
S	-8.10267
비	-8.10651
▁무엇인가요	-8.10776
▁C	-8.10873
▁추가	-8.10952
▁인해	-8.11201
▁사용하는	-8.11467
▁A	-8.11635
com	-8.11725
마	-8.12065
부	-8.12351
되는	-8.12389
▁봐야겠	-8.13342
이라는	-8.1418
▁시간	-8.14561
://	-8.15277
B	-8.15359
▁하지만	-8.15406
▁다시	-8.15535
형	-8.15885
+	-8.15926
▁모두	-8.1606
▁것으로	-8.16747
까지	-8.16962
▁비	-8.17244
▁새	-8.17444
▁고객	-8.17675
r	-8.17875
▁등을	-8.18254
▁수도	-8.18367
▁세	-8.18476
조	-8.19171
용	-8.1958
▁개발	-8.19781
▁뒤	-8.19859
들은	-8.19897
▁관련	-8.19996
▁교육	-8.2015
한다	-8.20186
▁그는	-8.20271
e	-8.20552
▁기술	-8.20687
."	-8.21041
▁연구	-8.21404
b	-8.21474
m	-8.21697
개	-8.21861
진	-8.22498
됩니다	-8.2268
▁번째	-8.23238
미	-8.23579
▁B	-8.23634
▁줄	-8.23841
D	-8.23888
▁for	-8.24133
:```	-8.2459
▁일부	-8.25015
장	-8.25268
▁좋은	-8.25269
▁역할을	-8.25347
년에	-8.25509
▁있는지	-8.26164
▁되겠네요	-8.26191
▁있지만	-8.26378
▁있을	-8.27137
p	-8.27489
▁서비스	-8.277
g	-8.27865
▁아니라	-8.2806
):	-8.28232
산	-8.28296
▁주	-8.28583
▁직접	-8.2869
▁||	-8.28851
차	-8.2893
▁없는	-8.29035
분	-8.29768
치	-8.29906
data	-8.29982
▁문제를	-8.30423
▁검사	-8.30829
▁있고	-8.31035
▁가지고	-8.31292
▁묻고	-8.31737
▁아	-8.31825
▁있나요	-8.31833
▁그러나	-8.32016
따라서	-8.32282
▁첫	-8.33261
될	-8.33417
▁운동	-8.33815
▁if	-8.34147
전	-8.34225
▁등의	-8.34313
타	-8.34332
er	-8.34376
겠네요	-8.34519
▁AI	-8.35191
▁이름	-8.35351
▁매우	-8.35701
▁분석	-8.35781
▁기타	-8.35893
▁환자의	-8.36341
▁있다는	-8.36493
h	-8.36574
되었습니다	-8.36693
동	-8.36848
되고	-8.3701
▁관련된	-8.37436
▁기능	-8.37671
▁결과	-8.37695
name	-8.37868
▁S	-8.38105
▁않은	-8.38138
▁좋습니다	-8.38226
▁미국	-8.3825
오	-8.3827
▁결과를	-8.38462
보	-8.38925
▁그리고	-8.39019
▁지원	-8.39125
정	-8.39965
P	-8.40085
▁학습	-8.40634
그렇게	-8.40638
▁도움을	-8.40808
▁제공하는	-8.40855
▁무엇인가	-8.4094
신	-8.41506
▁기능을	-8.41607
▁약	-8.41608
원	-8.41846
▁계속	-8.43152
▁것	-8.43185
▁정보	-8.4375
▁제품	-8.44316
▁있으므로	-8.44428
당	-8.45339
▁시간을	-8.4545
▁않는	-8.45744
▁간	-8.4591
▁초기	-8.4614
▁▁▁▁▁▁▁▁▁▁▁	-8.46273
▁만들	-8.46456
▁문제	-8.4662
▁이름을	-8.46671
요	-8.46779
구	-8.47767
데	-8.47803
식	-8.48061
부터	-8.48109
▁구성	-8.48219
▁언제	-8.48362
던	-8.48462
▁이상	-8.48538
네요	-8.49068
프	-8.49482
▁지속	-8.49508
<	-8.49693
▁사용되는	-8.49712
{	-8.49851
▁환경	-8.49944
▁작은	-8.5042
get	-8.5053
▁전에	-8.50727
#	-8.50765
▁개인	-8.50932
크	-8.51194
▁방법은	-8.51197
▁볼	-8.51659
되지	-8.52098
▁에너지	-8.52191
)	-8.52204
▁사용됩니다	-8.52724
▁처리	-8.52756
▁시작	-8.53244
▁주로	-8.53544
▁지역	-8.53575
적으로	-8.53605
▁마케팅	-8.53768
▁입력	-8.53861
▁많이	-8.53936
▁안	-8.5398
들을	-8.53994
▁특히	-8.54059
▁하	-8.54144
▁아니다	-8.54265
~	-8.54525
X	-8.54573
였습니다	-8.5463
T	-8.54803
▁기술을	-8.54923
▁약물	-8.54952
▁먼저	-8.56163
▁없습니다	-8.56325
선	-8.56645
▁기본	-8.56725
▁테스트	-8.56859
▁방법	-8.56919
디	-8.57073
▁{	-8.57479
거나	-8.57733
▁사람이	-8.5786
▁위험을	-8.58263
▁검색	-8.58631
하도록	-8.58865
▁대	-8.58983
파	-8.59141
in	-8.59231
M	-8.59316
포	-8.59419
피	-8.59468
▁않습니다	-8.59513
위	-8.59528
하	-8.59563
회	-8.60004
v	-8.60145
▁유지	-8.60339
▁가능성이	-8.6041
하려면	-8.60454
▁경험을	-8.61052
▁시스템	-8.61169
토	-8.61255
명	-8.61554
▁등이	-8.616
▁남성이	-8.61777
▁생성	-8.61922
모	-8.61924
▁is	-8.6196
al	-8.62051
▁=>	-8.62055
▁수술	-8.62074
▁웹	-8.62214
▁오	-8.62217
▁온라인	-8.6287
러	-8.62873
▁P	-8.63104
티	-8.6316
▁감소	-8.6327
▁짚어야겠	-8.63286
['	-8.63348
to	-8.63438
실	-8.63662
▁않는다	-8.6371
▁보안	-8.63798
▁평가	-8.63935
터	-8.63941
▁쉽게	-8.63986
▁x	-8.64299
```	-8.64482
▁비즈니스	-8.64685
self	-8.64773
▁가진	-8.64787
즈	-8.6486
G	-8.6488
▁그의	-8.6501
며	-8.65127
▁const	-8.65195
▁세계	-8.65215
▁설명	-8.65326
▁접근	-8.65546
▁기반	-8.65633
바	-8.65765
F	-8.65893
▁최근	-8.65907
▁일	-8.6602
▁건강	-8.66389
▁개선	-8.66432
우	-8.66473
이었습니다	-8.6678
▁작업	-8.67074
▁의료	-8.67084
▁이미지	-8.67213
▁열	-8.67238
질	-8.67437
▁파일	-8.67513
카	-8.67548
▁그가	-8.67599
레	-8.67626
▁실제	-8.67752
그가	-8.67791
</	-8.67957
▁D	-8.68155
▁신	-8.68164
▁작업을	-8.6833
▁T	-8.68422
▁감염	-8.68482
▁처음	-8.68611
▁저는	-8.68723
예	-8.68926
▁총	-8.69024
▁함수를	-8.6937
▁선택	-8.69413
▁서로	-8.69464
▁않고	-8.69539
▁```	-8.6956
▁해	-8.69726
▁사	-8.69864
▁증가	-8.69919
K	-8.70138
k	-8.70178
▁다	-8.7056
▁위험	-8.70627
▁보호	-8.7065
▁코드를	-8.70811
▁만드는	-8.70936
▁제공	-8.70946
증	-8.71043
▁보세요	-8.7107
L	-8.71109
H	-8.7137
▁네	-8.71405
▁물	-8.71782
▁전체	-8.72198
▁요구	-8.72315
https	-8.72375
▁이후	-8.72378
▁알	-8.72523
▁같이	-8.72532
▁예방	-8.72863
▁간의	-8.73197
▁뭐야	-8.73356
▁반환	-8.73519
▁설정	-8.73958
하면서	-8.74223
text	-8.74254
호	-8.74337
▁게임	-8.74414
▁항상	-8.74553
▁서비스를	-8.74717
▁제공할	-8.75027
▁일반적인	-8.75355
무	-8.75506
▁여성이	-8.75812
▁진행	-8.76023
네	-8.76309
▁API	-8.76329
▁미디어	-8.76373
▁생성합니다	-8.76701
유	-8.76823
코	-8.76882
▁방식으로	-8.76991
▁결정	-8.77104
하지만	-8.77131
▁소셜	-8.77384
▁고	-8.77452
▁되는	-8.77663
▁관건이겠	-8.77723
▁i	-8.77808
경	-8.77826
루	-8.77884
지만	-8.77982
▁더욱	-8.77987
있겠네요	-8.78041
계	-8.78123
▁언어	-8.78169
시간	-8.78227
이고	-8.78941
들	-8.79121
▁모델을	-8.79328
')	-8.7934
▁핵심	-8.79807
▁바	-8.79829
내	-8.79854
▁변경	-8.79929
키	-8.79932
▁바로	-8.80122
▁활동	-8.8014
E	-8.80279
▁비용	-8.80423
")	-8.81027
▁코드	-8.81171
▁확인	-8.81213
인지	-8.81284
▁부	-8.81379
르	-8.8143
두	-8.81485
란	-8.81488
▁필요합니다	-8.81519
관	-8.8172
▁디자인	-8.81795
▁점이	-8.82045
▁인물이	-8.82115
V	-8.82353
재	-8.82797
▁없이	-8.83175
▁운영	-8.83243
체	-8.83343
▁이유는	-8.83428
▁사회적	-8.83473
▁E	-8.8362
노	-8.83859
▁강력한	-8.8393
▁모델	-8.83932
▁개	-8.84223
들의	-8.84387
▁유	-8.84418
▁디지털	-8.84431
N	-8.84474
다는	-8.84634
▁F	-8.84699
▁발생	-8.84797
간	-8.84994
▁미	-8.85022
▁사람들이	-8.85234
▁사용하면	-8.85257
안	-8.85309
종	-8.85513
▁M	-8.85605
▁의해	-8.85694
▁텍스트	-8.85798
▁I	-8.86014
점	-8.86055
w	-8.86547
▁적합한	-8.8658
▁주세요	-8.86893
▁투자	-8.86983
▁있었습니다	-8.87373
▁사용자가	-8.87442
▁피부	-8.87481
▁말	-8.87528
▁소프트웨어	-8.87686
▁실행	-8.87776
;	-8.87812
▁G	-8.8821
▁투여	-8.88223
▁무	-8.88239
▁구	-8.88249
▁없다	-8.88267
▁대신	-8.88333
▁강	-8.88362
▁조직	-8.88613
j	-8.88648
();	-8.89167
▁된	-8.89204
처럼	-8.89244
▁관계를	-8.89259
▁이전	-8.89328
▁상태	-8.89375
▁왜	-8.8951
학	-8.89602
문	-8.89643
▁효과를	-8.89788
▁미치는	-8.8993
▁그런	-8.90007
▁---	-8.90349
이지요	-8.90421
▁이름이	-8.90475
▁return	-8.90507
▁정의	-8.9065
▁관한	-8.90719
▁주어진	-8.90739
▁**	-8.90961
▁발생할	-8.91047
▁시장	-8.91158
▁장	-8.91367
물	-8.91384
▁예	-8.91426
▁성	-8.91509
|	-8.91575
▁y	-8.91625
▁훈련	-8.91634
▁급성	-8.91638
▁피	-8.91946
▁계획	-8.92296
▁이렇게	-8.9236
▁R	-8.92441
▁사항을	-8.92477
▁치료를	-8.92632
▁성장	-8.92635
▁하며	-8.92819
▁이메일	-8.92848
o	-8.93015
▁일본	-8.9314
▁목표를	-8.9345
W	-8.93537
▁체중	-8.93583
▁공	-8.93619
▁환자에게	-8.9362
단	-8.93689
▁파일을	-8.93741
▁▁▁▁▁▁	-8.93912
▁시간이	-8.94234
▁self	-8.94374
함으로써	-8.94442
금	-8.94526
on	-8.94691
▁▁▁▁▁▁▁▁▁	-8.94843
▁가져옵니다	-8.94928
R	-8.95138
▁만든	-8.95152
방	-8.95189
▁영화	-8.9531
▁표준	-8.9532
▁원	-8.95545
div	-8.95584
항	-8.95615
▁마	-8.95657
▁K	-8.95665
▁점을	-8.95834
▁여행	-8.95869
I	-8.96033
▁프로젝트	-8.96088
▁사용합니다	-8.96146
▁만들어	-8.96267
▁만성	-8.96334
히	-8.9655
중	-8.96559
▁해결	-8.9658
www	-8.96705
▁new	-8.96729
▁짚으려면	-8.96772
const	-8.9679
▁정	-8.9679
거	-8.96817
▁상태를	-8.97115
▁개의	-8.97169
▁컴퓨터	-8.97187
▁사회	-8.97232
is	-8.97314
▁보고	-8.97328
린	-8.97375
▁진단	-8.97473
▁산	-8.97503
번은	-8.97586
▁기존	-8.98182
▁의사	-8.98195
▁포함됩니다	-8.982
되며	-8.98226
▁있다고	-8.9826
▁반복	-8.98265
▁상호	-8.98422
더	-8.98444
▁환자는	-8.98566
or	-8.98729
▁H	-8.98834
▁that	-8.99386
개의	-8.99696
▁위	-8.99774
▁크게	-8.99778
공	-8.99979
▁X	-8.99982
▁값을	-9.00182
▁우선	-9.00209
df	-9.00231
연	-9.00283
▁목표	-9.0046
js	-9.00989
▁기회를	-9.01056
▁효과가	-9.01097
▁원하는	-9.01227
▁확인합니다	-9.01309
▁알고	-9.01408
▁}	-9.01468
▁자기	-9.01705
▁저장	-9.0208
▁문제가	-9.02207
▁기간	-9.02298
▁경험	-9.02434
:*	-9.02703
@	-9.02751
▁as	-9.03131
초	-9.03138
▁행동	-9.03158
▁스	-9.03166
▁계획을	-9.03248
려	-9.03261
▁빠르게	-9.03297
반	-9.03414
▁오류	-9.03477
▁조	-9.03504
▁연결	-9.03575
▁시스템을	-9.03584
▁경제	-9.03722
()`	-9.04026
▁리	-9.04356
▁소	-9.04607
이므로	-9.04632
에도	-9.04671
▁확장	-9.04766
▁==	-9.04837
▁f	-9.04878
▁효과적인	-9.05096
':	-9.05268
▁요소를	-9.05276
▁이동	-9.05295
en	-9.05493
▁양	-9.05558
▁전문	-9.05575
▁받은	-9.05649
▁변화	-9.05656
z	-9.0568
▁업데이트	-9.05732
$	-9.05744
▁자연	-9.0594
▁카	-9.06028
▁함수	-9.06115
▁요청	-9.06174
저	-9.06235
▁사이의	-9.06382
Id	-9.06429
▁국가	-9.06459
▁출력	-9.06649
▁반면	-9.06759
▁것도	-9.06823
▁재	-9.06902
병	-9.06956
강	-9.07076
▁따르면	-9.07096
▁판매	-9.07144
▁키	-9.07156
▁포함된	-9.07245
▁날	-9.07247
▁유형	-9.07286
▁포함한	-9.07404
▁모	-9.07415
운	-9.07518
▁서	-9.07666
▁보	-9.0783
▁위치	-9.07899
ly	-9.0792
류	-9.07924
▁능력을	-9.08019
▁with	-9.08123
O	-9.08246
Name	-9.08362
Y	-9.0853
▁불	-9.08612
▁제한	-9.08645
▁알려주세요	-9.08654
if	-9.08673
▁여기에는	-9.0886
▁장기	-9.08943
▁사람은	-9.08962
▁반	-9.09204
▁개인의	-9.09267
각	-9.09298
하므로	-9.09393
▁기반으로	-9.09507
▁않을	-9.09591
▁이제	-9.09625
▁코	-9.09634
국	-9.0992
▁대상	-9.09954
▁인식	-9.10009
▁N	-9.10072
▁전기	-9.10123
▁```	-9.10138
▁바랍니다	-9.10372
▁활동을	-9.10394
path	-9.10403
▁임신	-9.1042
▁문자열	-9.10509
▁그녀는	-9.10539
▁얻을	-9.10597
자가	-9.10709
되면	-9.10829
▁저	-9.1089
▁위험이	-9.10891
▁\*	-9.11008
▁미칠	-9.11059
test	-9.11206
▁목록을	-9.11214
브	-9.11347
발	-9.11354
ID	-9.11429
▁생산	-9.11532
▁팀	-9.11656
▁자	-9.11833
▁예측	-9.11855
▁효과적으로	-9.1188
▁가운데	-9.12157
▁전략을	-9.12225
▁설계	-9.12352
▁분야에서	-9.12412
▁작성	-9.12555
▁도시	-9.1285
▁있으면	-9.12884
▁콘텐츠	-9.12949
ᆞ	-9.13039
▁혈액	-9.13072
es	-9.13084
▁만들기	-9.13094
▁최대	-9.13242
set	-9.13249
▁기후	-9.13261
▁있게	-9.13339
▁this	-9.13369
버	-9.13546
▁국제	-9.13585
▁사람	-9.13596
▁긍정적인	-9.13703
법	-9.13708
▁과정에서	-9.13729
▁자주	-9.13777
▁환자	-9.13845
▁정확한	-9.13898
권	-9.13968
▁때문입니다	-9.14087
▁받을	-9.14187
▁광고	-9.14495
테	-9.14556
▁때는	-9.14737
▁제작	-9.14842
▁음악	-9.14867
▁가족	-9.14986
▁얼마나	-9.14999
▁증상	-9.15019
세기	-9.15068
▁평균	-9.15077
▁즉시	-9.1508
▁차	-9.1508
▁발	-9.15347
▁전신	-9.15364
▁제품을	-9.15393
감	-9.15505
▁우리	-9.15721
▁공유	-9.15733
▁동일한	-9.15814
심	-9.15846
▁이미	-9.15927
▁아닌	-9.15931
▁조절	-9.15933
▁위해서는	-9.16056
▁너무	-9.16099
▁고려해야	-9.16166
▁되었습니다	-9.16168
▁변화를	-9.16229
역	-9.16261
▁기록	-9.16613
Data	-9.17014
▁분류	-9.17139
그는	-9.17179
▁짚어	-9.17227
l	-9.1727
▁신경	-9.17412
▁최신	-9.17517
log	-9.17582
▁보다	-9.17595
론	-9.17668
개월	-9.1769
▁번	-9.17741
▁복잡한	-9.17877
▁찾을	-9.18034
▁경우가	-9.18137
지를	-9.18299
▁즉	-9.18412
))	-9.18498
▁c	-9.18526
▁지정	-9.18557
u	-9.18624
▁파	-9.18645
▁유지하는	-9.1866
▁b	-9.18735
▁호	-9.18903
▁만듭니다	-9.18909
▁기	-9.19559
▁방법에	-9.19592
▁확인하고	-9.19638
],	-9.19791
▁중심	-9.19842
양	-9.19931
여	-9.19953
▁통증	-9.20181
민	-9.20188
▁의미	-9.20404
▁시점을	-9.20657
▁있어야	-9.20672
▁동시에	-9.20775
▁업무	-9.20886
▁프로그램	-9.21076
▁세포	-9.2111
▁L	-9.21289
value	-9.21347
▁네트워크	-9.21382
약	-9.21424
근	-9.21638
천	-9.21839
size	-9.21876
지는	-9.21922
▁무엇을	-9.21933
▁법률	-9.21963
면서	-9.21995
▁회사	-9.22029
》	-9.22041
▁통합	-9.22084
통	-9.22087
▁클래스	-9.22201
▁있으니	-9.223
▁복용	-9.22447
▁신체	-9.22613
▁가능성을	-9.22635
▁지속적인	-9.22689
군	-9.22703
교	-9.22769
▁이해	-9.22829
▁맞는	-9.22915
▁프랑스	-9.23016
train	-9.23163
▁메시지를	-9.23183
▁줄이는	-9.23273
▁선	-9.23301
▁초	-9.23414
▁측정	-9.23439
▁이벤트	-9.23526
▁안전	-9.23573
영	-9.23593
▁유명한	-9.23636
ation	-9.23665
▁제가	-9.23988
판	-9.23998
']	-9.24127
▁앱	-9.24131
는지를	-9.24451
▁증상이	-9.24455
▁과학	-9.24523
링	-9.24533
▁지	-9.24541
▁you	-9.24683
▁달	-9.24706
▁방식을	-9.24742
int	-9.2503
file	-9.25073
음	-9.2509
력	-9.2536
별	-9.25396
▁출처	-9.25443
▁향상	-9.25444
▁때까지	-9.25494
이자	-9.25505
임	-9.2582
▁나타내는	-9.26049
▁확인할	-9.26095
▁조사	-9.26335
절	-9.26435
▁손상	-9.26566
▁충분한	-9.26582
▁작성합니다	-9.26691
python	-9.2673
스트	-9.26844
▁int	-9.2685
▁can	-9.26872
▁전환	-9.2696
▁고려	-9.27137
▁대체	-9.27182
▁일반	-9.27357
▁증상을	-9.27395
▁가격	-9.27408
▁강화	-9.27428
염	-9.27521
▁올바른	-9.27524
온	-9.27581
▁주문	-9.2768
▁on	-9.27747
▁수정	-9.27775
▁상	-9.27775
▁성공	-9.27786
li	-9.27868
▁완전히	-9.27919
▁인기	-9.27975
▁따른	-9.28237
▁외부	-9.28534
▁한국	-9.28543
▁인한	-9.28543
후	-9.28582
▁조치를	-9.2859
▁일정	-9.28605
열	-9.28682
▁과정을	-9.28754
▁발견	-9.28872
▁이상의	-9.29001
▁J	-9.29066
급	-9.29067
▁줄일	-9.29168
▁else	-9.29264
▁V	-9.29316
▁신장	-9.2932
▁낮은	-9.29358
▁여성	-9.29434
▁마지막	-9.29556
량	-9.29558
^	-9.29603
▁제거	-9.29613
='	-9.29756
업	-9.29808
▁단	-9.29902
▁축구	-9.29953
▁동물	-9.30014
us	-9.3012
▁이름은	-9.30151
▁포함될	-9.30231
집	-9.30301
▁의미합니다	-9.30332
▁온	-9.30371
▁사항	-9.30381
▁단계를	-9.30385
type	-9.30452
건	-9.30457
▁억제	-9.30509
등	-9.30595
▁data	-9.30688
▁정상	-9.30691
▁방법이	-9.30725
▁이해하고	-9.30749
ic	-9.30753
▁문화	-9.30775
▁또	-9.3095
▁설치	-9.31029
▁유형의	-9.3104
▁명	-9.31085
▁바이러스	-9.31147
생	-9.31204
으며	-9.31266
▁각각	-9.3135
import	-9.31365
▁환자에서	-9.31477
▁건강한	-9.31502
하려는	-9.31513
▁입	-9.3158
▁폐	-9.31675
▁영국	-9.31997
츠	-9.32033
▁혈관	-9.32181
▁그룹	-9.32347
▁포	-9.32356
▁나라	-9.32426
▁함수는	-9.32494
▁사진	-9.32519
래	-9.32523
성을	-9.32529
▁도구	-9.32595
▁활용하여	-9.32665
이지만	-9.32695
▁경	-9.32743
▁응답	-9.32838
▁전략	-9.32986
색	-9.32998
▁표현	-9.33001
▁대기	-9.33193
▁참여	-9.33196
▁구현	-9.33213
함	-9.33283
▁나	-9.3333
▁https	-9.33361
청	-9.33463
▁class	-9.33524
▁내원하였다	-9.33534
▁이야기를	-9.33576
▁알려져	-9.33589
▁계약	-9.33783
▁일이	-9.33815
배	-9.33836
▁설명합니다	-9.33838
들에게	-9.33953
▁/	-9.34047
▁발생하는	-9.3424
user	-9.34244
▁식사	-9.34518
index	-9.34711
py	-9.34845
▁프로그램을	-9.3485
▁임상	-9.34855
주의	-9.34896
▁단어	-9.34906
re	-9.3491
▁상황을	-9.35057
석	-9.35158
▁주변	-9.35166
▁결정을	-9.35184
▁매	-9.35202
▁환경을	-9.3532
▁프로그래밍	-9.35368
▁마지막으로	-9.35373
▁있기	-9.35444
커	-9.35492
▁인증	-9.35571
▁추적	-9.35613
▁표시	-9.35688
암	-9.35783
▁반환합니다	-9.35817
속	-9.35947
▁요리	-9.35993
▁면역	-9.36076
가지	-9.36175
▁고객의	-9.36251
add	-9.36429
▁가상	-9.36491
▁외	-9.36504
);	-9.36511
▁우리는	-9.36653
▁도구를	-9.36673
▁해야	-9.36682
▁재생	-9.36871
▁def	-9.3689
▁ID	-9.36897
▁간단한	-9.36911
본	-9.37177
술	-9.37211
▁메서드를	-9.37269
▁구매	-9.37282
퍼	-9.37309
▁\	-9.37318
▁비용을	-9.37416
▁되어	-9.3744
▁중단	-9.37537
▁다를	-9.37624
▁내용을	-9.37655
][	-9.37697
▁계산	-9.37699
▁현대	-9.37728
▁알려진	-9.37737
복	-9.37758
했던	-9.37804
▁구조	-9.37907
▁바탕으로	-9.37934
▁자세히	-9.38096
▁관찰	-9.38099
▁노출	-9.38134
▁골	-9.38139
▁그들은	-9.38199
태	-9.38234
▁원인	-9.38344
▁못한다	-9.38776
▁방	-9.38781
림	-9.38785
▁지구	-9.38788
기를	-9.38804
▁관계	-9.38906
->	-9.38927
▁크기	-9.38953
▁방법입니다	-9.38982
▁중국	-9.39006
▁액세스	-9.39013
▁인도	-9.39027
model	-9.39138
▁인간	-9.39217
▁살	-9.39261
▁생활	-9.39351
▁뇌	-9.39454
▁확인하는	-9.39459
▁요소	-9.39652
▁연	-9.39675
def	-9.39736
▁반응	-9.39756
로부터	-9.39779
▁누구야	-9.39795
image	-9.39806
▁우주	-9.39837
▁어	-9.39856
▁수행	-9.39857
▁자동차	-9.39875
▁적용	-9.39888
▁금융	-9.40005
.[	-9.40032
▁▁▁▁▁▁▁▁▁▁▁▁▁▁▁	-9.40083
▁하나는	-9.40095
년대	-9.40166
▁배	-9.40242
다고	-9.40298
▁정부	-9.40301
이네요	-9.40307
▁비교	-9.40465
▁문장을	-9.40742
▁정도	-9.40753
▁소스	-9.40789
▁하고	-9.40851
▁공급	-9.40971
▁있을까요	-9.41035
된다	-9.41117
▁작성하세요	-9.41179
▁날짜	-9.41232
▁이미지를	-9.41245
적이고	-9.41389
▁브랜드	-9.41502
▁예술	-9.41563
▁추가합니다	-9.41577
압	-9.41615
▁이용	-9.41646
▁줄이고	-9.41764
▁대표	-9.4178
▁public	-9.41782
▁get	-9.41892
json	-9.41922
▁be	-9.41977
▁머신	-9.42019
▁re	-9.42089
▁수행할	-9.42281
▁사람의	-9.42287
▁존재	-9.42337
▁우	-9.42346
▁숫자	-9.424
▁메시지	-9.42416
app	-9.42438
▁클라우드	-9.42474
▁설명하는	-9.42717
▁콘텐츠를	-9.4272
▁거래	-9.4273
▁널리	-9.4299
▁정답	-9.43028
행	-9.4305
J	-9.43244
▁구체적인	-9.43257
▁The	-9.43502
▁점에	-9.43513
▁말합니다	-9.43554
▁W	-9.43626
백	-9.43635
▁URL	-9.43675
▁무엇인지	-9.43687
▁지방	-9.43868
▁타	-9.43897
든	-9.43995
▁n	-9.44031
▁잠재적	-9.44076
▁사람들은	-9.44167
▁주택	-9.44184
▁산업	-9.44193
단계	-9.44198
골	-9.44215
▁set	-9.44229
▁--	-9.44321
군요	-9.44332
▁비타민	-9.44361
**	-9.44447
▁생물	-9.44464
▁심한	-9.4458
▁노	-9.44656
▁내부	-9.44667
▁항생제	-9.44714
너	-9.44773
▁프로	-9.44775
▁가치	-9.44922
▁가능	-9.44983
▁포함되어	-9.45033
라면	-9.45039
▁질문	-9.45041
남	-9.45048
▁제어	-9.45078
막	-9.4513
▁심장	-9.45135
▁근육	-9.45217
input	-9.45245
▁사용자의	-9.45275
▁호흡	-9.45303
▁실제로	-9.45378
▁발전	-9.45465
▁문제에	-9.45469
▁물론	-9.45564
api	-9.45592
Z	-9.45646
▁높일	-9.45733
▁누구였는지를	-9.4575
▁},	-9.45834
▁등록	-9.45877
직	-9.46024
time	-9.46026
html	-9.46064
▁필요	-9.46211
U	-9.46321
▁고려할	-9.46462
//	-9.46474
▁제목	-9.46486
▁섭취	-9.46555
▁상황에	-9.46573
▁수면	-9.46776
투	-9.46798
▁결제	-9.46979
▁print	-9.47053
▁관련이	-9.47113
▁깊은	-9.47184
▁국소	-9.47259
▁역	-9.4733
▁정리해	-9.47365
▁동	-9.47402
▁받는	-9.47418
▁규정	-9.4756
br	-9.47739
▁주는	-9.47756
하다	-9.47774
자는	-9.47812
▁여부를	-9.47927
"	-9.47995
▁단일	-9.48074
csv	-9.48076
▁공격	-9.48088
▁확인해야	-9.4825
▁웹사이트	-9.48271
▁지속적으로	-9.48302
▁영양	-9.48332
▁건설	-9.48382
▁조정	-9.48413
▁무엇인지를	-9.48424
▁회사의	-9.48494
▁즐길	-9.48561
error	-9.48602
매	-9.48649
▁하위	-9.48723
▁세부	-9.48737
▁최고의	-9.48765
▁자세한	-9.48781
▁최종	-9.48831
▁맞게	-9.48886
▁특별한	-9.49003
▁전달	-9.4903
▁본	-9.49043
▁내에서	-9.49047
▁환자가	-9.49056
▁예입니다	-9.49145
▁주소	-9.49192
▁음식	-9.49281
▁성능을	-9.49283
▁커뮤니케이션	-9.49405
▁암	-9.49417
▁프로세스를	-9.49479
▁&	-9.49481
▁능력	-9.49485
▁p	-9.49506
▁않도록	-9.49572
▁찾는	-9.49611
살	-9.49641
▁행동을	-9.49945
▁생각	-9.50016
▁질	-9.50124
▁나은	-9.50132
▁대화	-9.50209
▁명령을	-9.50263
▁var	-9.50265
창	-9.50271
URL	-9.50282
▁부족	-9.50319
▁대사	-9.50382
▁출혈	-9.50504
th	-9.50745
▁보조	-9.5076
Q	-9.51003
▁시스템의	-9.51047
▁선택할	-9.51091
▁여전히	-9.51097
▁종종	-9.51166
▁구축	-9.51196
▁하루	-9.51386
&	-9.51518
end	-9.51595
▁원래	-9.51885
▁사례	-9.51956
an	-9.51988
▁모니터링	-9.52006
▁제공하고	-9.52021
▁식품	-9.52022
랑	-9.52028
▁활성화	-9.52031
▁from	-9.5205
▁고려하여	-9.522
로서	-9.52253
▁나타냅니다	-9.52265
는데	-9.5239
▁변	-9.52532
▁O	-9.52551
▁카드	-9.52596
▁중인	-9.52605
▁곧	-9.52629
▁음성	-9.5263
▁농업	-9.52656
▁정신	-9.52659
▁전문가	-9.52778
▁기준으로	-9.52804
▁it	-9.52858
시키는	-9.52996
print	-9.53079
▁페이지	-9.53175
ul	-9.53247
▁지연	-9.53257
▁라	-9.53296
▁우리의	-9.5331
▁코드는	-9.5346
▁스포츠	-9.53463
▁무슨	-9.5354
▁중증	-9.53578
▁러닝	-9.53684
마다	-9.53688
▁전자	-9.53702
▁치료는	-9.53721
▁거	-9.53766
▁과거	-9.53768
▁옳은	-9.53833
▁묻는	-9.54009
▁경쟁	-9.54031
▁사용하고	-9.54077
▁개선하는	-9.54081
▁회복	-9.54091
락	-9.54161
했고	-9.54419
▁외에도	-9.54562
▁그들의	-9.54566
일에	-9.54633
▁아이디어를	-9.54648
▁문자	-9.54682
Type	-9.54701
▁문서	-9.54747
▁받아	-9.54873
▁떠오릅니다	-9.54898
▁대표적인	-9.54903
도록	-9.54945
▁선수	-9.54964
▁정말	-9.55031
▁고객에게	-9.55107
▁독일	-9.55124
▁우리가	-9.55148
▁대학	-9.55171
▁상승	-9.55172
url	-9.55258
세요	-9.55306
▁작용	-9.55328
▁정책	-9.55371
▁질환	-9.55386
▁알려줘	-9.55425
▁봅니다	-9.55439
▁사고	-9.55467
▁실험	-9.55482
난	-9.55495
▁준비	-9.55511
my	-9.55553
">	-9.55566
메	-9.55643
▁해설	-9.5566
▁인	-9.55707
▁품질	-9.55822
▁보존	-9.55836
했는지	-9.56127
▁이해하는	-9.56181
key	-9.5622
▁공개	-9.5624
▁예상	-9.5635
목	-9.56401
▁|	-9.56496
▁추천	-9.56589
▁아름다운	-9.56608
▁비디오	-9.56621
박	-9.5668
▁마세요	-9.56739
▁인터넷	-9.56855
▁Google	-9.56883
▁전통	-9.56931
▁긴	-9.56963
▁속	-9.56997
억	-9.57195
▁소개	-9.57246
했어	-9.57395
▁영상	-9.57433
▁김	-9.57435
▁삽입	-9.57463
▁빠른	-9.57504
▁시스템은	-9.5756
▁수집	-9.57642
▁스트레스	-9.57698
이라	-9.57764
▁이야기	-9.57831
워	-9.57839
▁동영상	-9.57898
▁화학	-9.57987
▁거의	-9.58112
▁위의	-9.5823
▁생각해	-9.58244
들과	-9.58307
▁데이터베이스	-9.58319
작	-9.58449
▁or	-9.58517
▁줍니다	-9.5855
▁적	-9.58576
▁악화	-9.58589
▁재무	-9.58605
▁최적화	-9.58746
▁가져오기	-9.5884
▁팔	-9.58907
map	-9.58989
up	-9.59001
▁기업	-9.5911
▁정의합니다	-9.5921
▁충분히	-9.59236
px	-9.59415
▁기술과	-9.59424
설	-9.59483
어요	-9.5956
](	-9.59653
▁하나	-9.59685
▁import	-9.59728
▁만들고	-9.59751
다음은	-9.59838
▁일을	-9.60095
▁오래	-9.60161
▁당시	-9.60174
▁사전	-9.60283
▁풀	-9.60319
▁사이에	-9.60336
▁부여	-9.60383
▁공기	-9.60536
▁누가	-9.60548
▁값	-9.60622
하던	-9.60634
▁an	-9.60679
▁설명하세요	-9.60758
▁사업	-9.60758
▁단백질	-9.60765
▁가치를	-9.6086
왕	-9.60881
▁맞지	-9.61002
▁name	-9.61132
▁싶습니다	-9.61164
▁지원을	-9.61269
▁효과	-9.61326
▁제안	-9.61431
▁완료	-9.61462
list	-9.6151
▁np	-9.61516
▁구조를	-9.61527
표	-9.61544
▁가능성	-9.61742
▁자료	-9.61779
▁전반적인	-9.61783
▁염증	-9.61838
져	-9.61928
▁하나요	-9.61969
▁있다면	-9.6197
▁인공	-9.62028
▁점	-9.62111
액	-9.62168
었지요	-9.62277
▁상황	-9.62452
▁차이가	-9.62528
={	-9.62534
▁상황에서	-9.62544
▁영어	-9.62577
▁범위	-9.62689
▁대부분의	-9.62751
▁@	-9.62789
자를	-9.62917
▁지식	-9.62936
▁쿼리	-9.62993
im	-9.63031
var	-9.63102
▁받고	-9.63216
그러므로	-9.63223
▁제공하여	-9.63231
▁필요에	-9.63263
▁안전한	-9.63296
▁왕	-9.63351
▁지역의	-9.6338
▁법적	-9.63403
▁심	-9.63431
▁달라질	-9.63518
▁기능이	-9.63607
▁걸	-9.63637
했는지를	-9.63642
▁무엇이었는지를	-9.63688
▁사람들에게	-9.63704
▁《	-9.63707
▁질문이	-9.63738
▁디	-9.63754
▁산소	-9.63884
▁형성	-9.63953
그의	-9.6413
▁모델의	-9.64159
불	-9.64203
▁유럽	-9.64272
▁▁▁▁▁▁▁▁▁▁▁▁▁	-9.64279
이름	-9.64285
label	-9.64392
줄	-9.64414
▁자원	-9.64494
만으로	-9.64534
▁어려운	-9.6458
");	-9.64595
▁예약	-9.64597
▁your	-9.64613
▁문	-9.64683
▁리소스	-9.64696
▁최고	-9.64743
▁필요하다	-9.64782
▁목	-9.64816
String	-9.64837
▁경기	-9.64849
▁데이터의	-9.64883
▁자신을	-9.64934
it	-9.64967
▁변수	-9.64979
▁기계	-9.65002
new	-9.65081
▁고유한	-9.65156
▁않으면	-9.65286
▁개선할	-9.65402
▁배우	-9.65466
▁환경에	-9.65484
▁된다	-9.65552
▁돌	-9.6569
▁삶의	-9.65709
▁고정	-9.65723
▁레	-9.65839
▁경우에는	-9.65882
ur	-9.65894
ine	-9.65921
쿠	-9.65929
▁짧은	-9.65984
▁중에	-9.66142
▁사실을	-9.66256
▁어디야	-9.66417
▁정치	-9.66417
▁지금	-9.66419
▁등에	-9.66424
▁학교	-9.66488
축	-9.66508
▁아래	-9.6651
▁설정합니다	-9.66597
▁환경에서	-9.6663
▁옵션을	-9.66799
페	-9.66944
▁배치	-9.66988
▁물을	-9.67001
▁활용	-9.67015
▁자신이	-9.67084
▁없음	-9.67144
▁남	-9.67146
▁나무	-9.67161
▁지정된	-9.6718
추	-9.67243
▁차단	-9.67244
▁이런	-9.67286
▁피드백을	-9.67338
나요	-9.67412
▁힘을	-9.67445
▁팀이	-9.67453
치료	-9.67456
▁기준	-9.67469
▁독특한	-9.6749
▁저하	-9.67493
at	-9.67574
▁종	-9.67641
▁눈	-9.67765
el	-9.67787
▁게	-9.67909
▁많습니다	-9.67917
▁정맥	-9.67927
▁중간	-9.68008
▁유지하고	-9.68057
▁정보가	-9.68109
▁온도	-9.68126
▁e	-9.68214
였	-9.68312
▁혁신	-9.68369
▁참조	-9.6837
num	-9.68497
▁발생한	-9.685
세포	-9.68607
▁위에	-9.68744
io	-9.68767
▁포함	-9.6878
ion	-9.68824
▁높이는	-9.68879
▁표	-9.68889
▁원인을	-9.68904
▁삼	-9.68917
광	-9.68986
준	-9.69063
▁책	-9.69134
▁알고리즘을	-9.69181
▁흔히	-9.69278
▁부분	-9.69286
▁보통	-9.69331
▁고객이	-9.69376
▁검사에서	-9.69423
하나요	-9.6943
et	-9.69512
ent	-9.69513
▁방문	-9.69569
▁수행하는	-9.696
▁독립	-9.69666
▁손	-9.69672
To	-9.69681
▁예산	-9.69728
q	-9.69798
▁두고	-9.69886
▁친구	-9.69943
▁아직	-9.69965
▁시험	-9.70059
▁감정을	-9.70143
▁분	-9.70205
▁function	-9.70207
▁제조	-9.7021
▁지식을	-9.70216
▁균형	-9.70282
릴	-9.70563
▁앱을	-9.70572
되어야	-9.70583
▁협력	-9.70595
▁프로세스	-9.70684
▁준수	-9.70711
▁향상시킬	-9.7078
▁데이터에	-9.70798
탄	-9.71014
▁들	-9.71154
"]	-9.71182
▁요청을	-9.71193
▁권장	-9.71288
▁반응을	-9.71385
▁종류의	-9.71406
▁되겠	-9.71407
▁종교	-9.71526
족	-9.71554
▁집	-9.71636
▁파악하고	-9.71649
▁실패	-9.71754
?"	-9.71787
▁수익	-9.71812
▁의미를	-9.71864
])	-9.71897
▁모바일	-9.71968
▁관심을	-9.72036
▁당	-9.72108
▁찾기	-9.72111
▁미국의	-9.72117
▁Python	-9.72199
▁직원	-9.72229
for	-9.72456
▁최소	-9.72542
▁t	-9.72553
▁현	-9.72631
ar	-9.72643
▁금	-9.72667
▁호소하며	-9.72672
달	-9.72699
▁난	-9.72743
org	-9.72759
▁객체	-9.7282
울	-9.7284
▁높이	-9.72843
▁방법으로	-9.7298
▁비해	-9.73089
▁로드	-9.73097
▁감정	-9.73113
베	-9.73124
이면	-9.73311
말	-9.7333
▁주제에	-9.73419
▁are	-9.73422
▁대학교	-9.73453
▁포함하여	-9.73527
▁고급	-9.73532
▁건	-9.73546
▁귀	-9.73549
▁찾아	-9.73561
▁커뮤니티	-9.73603
▁설명해	-9.73673
▁있으나	-9.7372
▁치료가	-9.73742
▁상담	-9.73764
)#	-9.73767
▁액세스할	-9.73808
▁필요할	-9.73928
▁경구	-9.73979
ment	-9.74039
▁기관	-9.74093
▁찾고	-9.7411
▁나온	-9.74301
▁인간의	-9.74315
▁프로젝트를	-9.7439
line	-9.74434
▁과일	-9.7444
({	-9.74452
▁테이블	-9.74504
▁가정	-9.74594
val	-9.74615
인가요	-9.74641
▁안에	-9.74653
▁항	-9.7473
▁방법의	-9.74751
변	-9.74904
▁위치를	-9.7493
');	-9.74988
▁사망	-9.75018
▁어디에	-9.75055
▁use	-9.75088
▁정리	-9.75228
▁있는데	-9.75292
▁실	-9.75327
)*	-9.75336
출	-9.7536
▁인구	-9.75367
▁역할	-9.75425
격	-9.75429
▁해석	-9.75443
▁입원	-9.75506
▁강한	-9.7551
인지를	-9.75548
▁영향	-9.75556
렌	-9.75601
▁조건	-9.75619
▁협업	-9.7569
▁효율적인	-9.75712
▁정기적으로	-9.75786
▁시행	-9.75804
▁번역	-9.75957
▁제출	-9.76007
▁에너지를	-9.76059
▁보상	-9.76074
date	-9.76135
북	-9.76155
▁클라이언트	-9.76227
▁한다는	-9.76246
▁변환	-9.76261
▁손실	-9.76284
▁선택합니다	-9.76321
▁수준의	-9.76321
▁효율적으로	-9.7634
했으며	-9.76354
▁업데이트된	-9.76362
새	-9.76392
▁하나의	-9.76399
▁선택하는	-9.7641
and	-9.76638
▁발달	-9.7672
▁그림	-9.76729
정리해	-9.76747
▁사람을	-9.76824
▁경로	-9.76851
한다는	-9.76877
▁메모리	-9.76912
▁곳이	-9.76934
▁생성하고	-9.76959
▁보기	-9.76991
▁U	-9.76994
년부터	-9.76999
($	-9.77
외	-9.7701
편	-9.77013
▁아닙니다	-9.77059
▁책임	-9.7709
승	-9.77176
▁제공된	-9.77199
▁젊은	-9.77258
▁있지	-9.77351
le	-9.77362
슨	-9.77519
▁자유	-9.77569
▁목록	-9.77573
▁주식	-9.77603
▁결국	-9.77729
▁혈압	-9.77778
▁되짚어	-9.7778
,	-9.77853
▁이로	-9.77881
▁심각한	-9.7798
▁명확한	-9.78028
▁인지	-9.78125
▁어려움을	-9.78137
까요	-9.78195
▁전송	-9.78199
▁존	-9.7826
▁이유로	-9.78264
합	-9.78284
▁공간	-9.78328
으면	-9.78331
자의	-9.78332
▁은행	-9.78388
▁주제	-9.78501
▁잠재적인	-9.78519
▁유전자	-9.78553
▁고혈압	-9.78561
▁파일에	-9.78577
▁관절	-9.78652
이란	-9.7872
▁기술은	-9.7874
▁조치	-9.78763
▁세계에서	-9.78822
▁계산합니다	-9.78918
언	-9.79066
▁정확히	-9.79087
▁요법	-9.79125
cm	-9.79188
string	-9.79219
▁속도	-9.7937
▁요약	-9.79371
층	-9.79408
▁스마트	-9.7941
▁JSON	-9.79484
▁사용한	-9.79504
▁생성하는	-9.79535
▁결과가	-9.79551
▁골절	-9.79565
▁필수	-9.79569
▁조선	-9.79574
▁공식	-9.79595
▁매일	-9.79614
▁나는	-9.79722
▁장비	-9.79827
▁고대	-9.79883
▁촬영	-9.79955
let	-9.8
▁시도	-9.8004
▁지지	-9.80064
▁오염	-9.80095
▁변수를	-9.8011
▁문화적	-9.80136
▁복부	-9.80141
▁것이다	-9.80146
되기	-9.80178
▁차량	-9.80211
▁자극	-9.80234
▁종양	-9.80274
록	-9.80335
▁달리	-9.80362
▁비슷한	-9.80368
▁장애	-9.80377
▁대규모	-9.80394
▁서버	-9.80409
▁기도	-9.80468
▁블록	-9.80633
▁현지	-9.80781
케	-9.80824
▁로마	-9.80827
▁무렵	-9.80852
min	-9.80868
▁특징	-9.80876
▁사용하지	-9.809
되었는지	-9.80914
▁감	-9.80949
▁경로를	-9.80979
▁사용하기	-9.81046
▁시설	-9.81063
값	-9.81079
▁대응	-9.81109
▁양성	-9.81135
▁g	-9.8118
▁읽기	-9.81183
▁감사	-9.81242
▁유사한	-9.81359
하려고	-9.81406
▁세상을	-9.81553
▁아니며	-9.81637
▁학생	-9.81672
▁사용될	-9.8169
▁호출	-9.81737
▁반대	-9.8175
▁음식을	-9.8176
▁스타일	-9.81859
▁균형을	-9.81866
----------------	-9.81874
▁운동을	-9.81879
am	-9.81881
▁오른쪽	-9.81929
▁관리하는	-9.82006
▁떠올려야겠	-9.82069
▁결과는	-9.82076
처	-9.8212
▁플랫폼	-9.82133
▁보관	-9.82142
▁관리자	-9.82193
▁유도	-9.82254
▁배포	-9.82463
사용자	-9.82468
지고	-9.82477
▁이에	-9.82485
length	-9.82501
▁밤	-9.82548
▁철	-9.82595
▁건강을	-9.82617
▁직업	-9.82749
▁영업	-9.82778
▁타겟	-9.82852
▁이유가	-9.83026
▁중점을	-9.83038
▁양식	-9.83065
▁교정	-9.83074
립	-9.83122
button	-9.83123
▁것과	-9.83161
title	-9.83162
▁형태로	-9.83261
▁있는지를	-9.8335
▁통신	-9.83407
손	-9.83418
▁전쟁	-9.83432
▁현실	-9.835
ol	-9.83521
▁평가하고	-9.83663
▁베	-9.83741
▁완화	-9.83773
▁판단	-9.83848
되므로	-9.83876
▁작품을	-9.8398
▁규제	-9.84083
하십시오	-9.84171
▁유발	-9.84172
▁d	-9.84253
▁편집	-9.84288
▁교통	-9.84369
▁샘플	-9.84373
▁노래	-9.84387
했지만	-9.84414
▁했습니다	-9.84429
▁주제를	-9.84685
▁캐릭터	-9.8472
▁정렬	-9.8477
곡	-9.84872
▁감사합니다	-9.84945
▁사랑	-9.84991
List	-9.85087
▁나타날	-9.85232
▁걸쳐	-9.85288
▁건물	-9.85327
▁옵션	-9.85359
▁국	-9.85378
▁객체를	-9.85379
▁예시입니다	-9.85396
ate	-9.85398
▁단위	-9.85439
▁파괴	-9.85439
▁보험	-9.8546
▁작동	-9.85578
▁텍스트를	-9.85713
▁노력	-9.85743
▁단순	-9.8578
악	-9.85781
▁확인되었다	-9.858
▁치	-9.85837
이라면	-9.85892
▁중앙	-9.85896
▁인터페이스	-9.85921
▁거리	-9.85925
▁보이는	-9.85944
장애	-9.85953
▁버전	-9.85987
▁검사를	-9.85991
▁id	-9.86021
▁단계	-9.86032
율	-9.86068
▁개선하고	-9.86113
▁전반적으로	-9.86121
▁true	-9.86134
까	-9.86252
▁쓴	-9.86277
▁이점을	-9.86303
▁식물	-9.86321
°	-9.86346
▁얼굴	-9.86389
▁글로벌	-9.86417
!"	-9.86428
row	-9.86519
▁이유	-9.86538
▁알레르기	-9.86544
▁반드시	-9.86586
▁React	-9.86612
Text	-9.86622
▁당뇨병	-9.86657
▁애플리케이션	-9.86672
▁HTML	-9.86709
▁태양	-9.86726
▁일으킬	-9.86747
에서도	-9.86753
▁재활용	-9.86786
▁항목	-9.86795
▁군	-9.86869
▁작품이	-9.86945
▁개념을	-9.86952
▁행	-9.87001
all	-9.87055
▁좋아하는	-9.87072
▁감지	-9.87141
Value	-9.87195
▁벌	-9.87223
▁높이고	-9.87248
▁올림픽	-9.87277
▁번호	-9.87311
했을	-9.87323
▁버	-9.87386
▁결합	-9.87393
ro	-9.87396
▁길	-9.87416
▁광	-9.87424
년이	-9.87425
▁개인적인	-9.87439
▁풍부한	-9.87465
▁백	-9.87473
▁범위를	-9.87504
▁주의	-9.87505
▁사용자에게	-9.87561
▁시간과	-9.87595
▁토큰	-9.87665
▁필요가	-9.87726
뿐	-9.87733
▁초점을	-9.87733
시켜	-9.8776
▁신호	-9.878
▁부정적인	-9.87831
▁드라마	-9.87906
▁좋아	-9.87909
▁사람들과	-9.87915
▁병	-9.87967
form	-9.87975
블	-9.88003
▁});	-9.88017
▁%	-9.88025
▁기사	-9.88027
▁방송	-9.88046
▁신고	-9.88062
["	-9.88097
▁기대	-9.8813
▁라이브러리를	-9.88143
▁개별	-9.88154
▁성능	-9.88182
▁부동산	-9.88191
▁출시	-9.88199
날	-9.88199
으로부터	-9.88218
▁...	-9.88225
▁의견을	-9.88264
▁최초의	-9.88267
▁순	-9.8827
▁시대	-9.88325
▁빈	-9.88327
▁치료에	-9.88355
기관	-9.88401
▁소개합니다	-9.8842
▁정보에	-9.88454
▁권한	-9.8846
ia	-9.8846
떠올려	-9.8848
▁검사는	-9.88512
▁과도한	-9.88667
▁상품	-9.88671
▁자리	-9.88736
▁건강에	-9.88766
▁위치한	-9.8877
▁보충	-9.88817
lib	-9.88846
un	-9.88882
는지	-9.88897
해서	-9.88995
as	-9.89029
▁언제든지	-9.89057
▁성인	-9.89069
▁회의	-9.89186
▁r	-9.89194
▁배출	-9.89196
▁삶을	-9.89261
▁훨씬	-9.89295
os	-9.89427
▁맞춤형	-9.89551
▁언어를	-9.89558
▁리그	-9.89583
▁이어	-9.89714
▁쉬운	-9.89714
▁백신	-9.89766
▁await	-9.8977
▁파이썬	-9.89827
▁화면	-9.89881
▁확인하세요	-9.89948
▁일상	-9.89963
▁색상	-9.89983
read	-9.9002
번이	-9.90029
▁검토	-9.90119
이러한	-9.90122
▁클럽	-9.90166
start	-9.90234
▁것처럼	-9.90238
▁부분을	-9.90248
▁미래	-9.90289
▁남성	-9.90342
▁엔진	-9.90357
▁않았습니다	-9.9037
▁패턴을	-9.90389
▁인쇄	-9.90496
▁단어를	-9.90545
시키고	-9.90556
▁유리	-9.90556
▁올바르게	-9.90622
▁종료	-9.9065
▁자궁	-9.90659
▁실마리가	-9.90672
령	-9.90673
▁자동화	-9.9069
름	-9.90693
▁재료	-9.90715
class	-9.9075
볼	-9.90774
▁user	-9.90779
▁페	-9.90837
▁소속	-9.90896
▁금지	-9.91009
엔	-9.91026
다가	-9.91095
▁도메인	-9.9116
▁null	-9.9117
담	-9.91239
▁토	-9.91247
▁노드	-9.91291
▁목적	-9.91424
▁아이	-9.9157
씨	-9.91577
죠	-9.91705
▁응급	-9.91746
▁트리	-9.91752
▁어렵다	-9.91882
리아	-9.91928
▁둘	-9.91996
▁사용해야	-9.92013
out	-9.92039
갈	-9.92059
▁분산	-9.92089
▁세운	-9.92098
body	-9.92117
▁블로그	-9.92121
▁예시	-9.92174
▁자격	-9.92188
View	-9.92194
▁카메라	-9.92205
▁덜	-9.92237
▁배경	-9.92252
▁출생	-9.92365
▁있지요	-9.92377
균	-9.92475
▁검증	-9.92494
▁사람들의	-9.92508
▁어린	-9.92522
▁출신	-9.92528
▁이해할	-9.92533
km	-9.92609
▁사용을	-9.92609
▁미리	-9.92613
▁void	-9.9264
▁호르몬	-9.92735
▁질병	-9.92747
init	-9.92762
▁행사	-9.92765
또한	-9.92789
▁가스	-9.92851
품	-9.92872
st	-9.92915
▁성과	-9.92916
▁조기	-9.92971
▁왼쪽	-9.92987
충	-9.93052
table	-9.93141
▁계정	-9.93152
▁집중	-9.93183
▁합성	-9.93215
▁통증을	-9.93223
▁연습	-9.93292
▁분야의	-9.93296
▁사람에게	-9.933
▁프로젝트에	-9.933
▁허용	-9.93303
▁목표로	-9.93309
션	-9.9331
▁참	-9.93355
str	-9.93363
code	-9.93368
▁동반	-9.93371
▁방사선	-9.93383
▁감독	-9.93401
▁하나로	-9.9341
▁향후	-9.93423
mo	-9.93435
▁커	-9.93447
▁구성된	-9.93462
▁mg	-9.9348
▁모델은	-9.93551
틴	-9.93556
▁정확하게	-9.93564
▁이름으로	-9.93609
▁수행합니다	-9.93638
▁해결하기	-9.93742
▁분석을	-9.93754
Object	-9.93846
▁줄이기	-9.9385
▁애플리케이션을	-9.93925
▁사건	-9.93927
현	-9.93946
인데	-9.93948
▁작성해	-9.93954
▁잠재	-9.93969
▁나머지	-9.93991
▁태그	-9.93997
public	-9.94044
▁근거가	-9.94059
▁뉴스	-9.9415
▁야구	-9.94172
ad	-9.94193
▁감각	-9.94217
▁해를	-9.9422
▁성공적인	-9.94256
▁사용해	-9.94256
▁않아	-9.94335
▁진	-9.9436
▁도입	-9.94376
시킬	-9.94445
▁이유를	-9.94467
▁특성을	-9.94486
▁이해를	-9.94501
▁소비	-9.94537
▁주기	-9.94551
결	-9.94564
▁create	-9.94583
▁서비스에	-9.94635
글	-9.94714
▁발열	-9.94721
▁상호작용	-9.94759
▁새로	-9.94798
▁게임을	-9.94808
▁경험이	-9.94826
팅	-9.94843
▁신뢰할	-9.94879
▁지역에	-9.94885
▁v	-9.9489
▁피드백	-9.94902
▁형식	-9.94903
▁대비	-9.94929
count	-9.94932
\*	-9.95002
기는	-9.95032
▁역사	-9.95033
되거나	-9.95061
▁궁금합니다	-9.95264
▁배열	-9.95311
▁m	-9.95312
▁느낄	-9.95323
▁계층	-9.95356
순	-9.95359
▁기업이	-9.95373
▁대화를	-9.95374
머	-9.95375
\_{	-9.95391
ch	-9.95406
Error	-9.95439
able	-9.95483
▁평가하는	-9.95492
User	-9.95493
▁흡수	-9.9553
▁쓰	-9.95574
▁섬	-9.95616
▁세균	-9.95693
▁점점	-9.95697
▁개발자	-9.95705
▁헤아려	-9.9573
▁해가	-9.95751
▁주된	-9.95753
▁프로젝트의	-9.95775
길	-9.9586
겠지요	-9.95872
ra	-9.95897
▁도전	-9.95913
▁막	-9.95946
턴	-9.96049
▁양자	-9.96064
▁value	-9.96074
▁선택한	-9.96082
▁대출	-9.96135
료	-9.96138
state	-9.96148
▁분석하여	-9.96187
성이	-9.96215
?	-9.96296
▁암호화	-9.96308
▁채널	-9.96327
▁키워드	-9.96393
▁마을	-9.96461
▁변화가	-9.96473
","	-9.96506
mm	-9.96518
▁제약	-9.96531
필	-9.96538
▁증상과	-9.96563
▁박	-9.96618
▁리소스를	-9.96632
▁특징을	-9.96651
▁공동	-9.96663
▁가이드	-9.9669
▁추가할	-9.96736
▁형식으로	-9.96842
▁전통적인	-9.96871
▁후에는	-9.96939
▁안전하게	-9.9695
년까지	-9.96993
▁시작했습니다	-9.97087
▁속성을	-9.97096
▁배송	-9.97112
맨	-9.97182
▁기술이	-9.97203
▁생길	-9.97211
데이터	-9.9722
▁통계	-9.97292
▁수학	-9.97295
▁애니메이션	-9.97315
되었으며	-9.97317
▁셀	-9.97377
률	-9.97382
il	-9.97383
됨	-9.97388
est	-9.97403
▁소설	-9.97426
▁자동	-9.97485
봉	-9.97583
▁언제야	-9.97638
친	-9.97717
status	-9.97727
▁자체	-9.9775
▁지역에서	-9.9776
평	-9.97808
리스	-9.97837
▁의한	-9.97846
▁있음을	-9.97858
▁SQL	-9.97978
▁리더십	-9.97984
▁대통령	-9.98034
▁처리할	-9.98041
▁칼슘	-9.98152
▁유지할	-9.98171
▁도로	-9.98197
▁자동으로	-9.9829
▁사람들을	-9.98359
▁CT	-9.98371
▁방식	-9.98466
▁시작합니다	-9.98499
▁필드	-9.98516
▁있던	-9.9853
▁스트레스를	-9.98533
▁참고	-9.98535
▁유지하기	-9.98576
▁작업에	-9.98649
자에게	-9.98681
▁스테로이드	-9.98702
no	-9.98739
총	-9.98742
송	-9.98748
▁토론	-9.98782
▁종이	-9.988
>	-9.9886
this	-9.98898
다면	-9.98912
▁업계	-9.98962
append	-9.98995
독	-9.98999
response	-9.99021
력을	-9.99048
▁보여주는	-9.99071
슈	-9.991
",	-9.99113
▁영감을	-9.99142
▁그래픽	-9.99145
▁갈	-9.99149
▁재발	-9.99194
▁확보	-9.99264
▁전파	-9.99265
▁별도의	-9.99269
▁포함하는	-9.99293
▁배터리	-9.99331
▁사항에	-9.99339
▁회사가	-9.99355
▁합병증	-9.99361
▁창	-9.99367
▁컴퓨팅	-9.99395
▁In	-9.99439
함을	-9.99455
max	-9.99461
▁연장	-9.99511
▁커피	-9.9954
tr	-9.99571
▁메	-9.9963
▁섹션	-9.99657
▁나오는	-9.99667
▁황	-9.99765
▁거부	-9.99808
▁단계는	-9.99809
▁이어질	-9.99816
▁num	-9.9984
▁건축	-9.9985
▁장치	-9.99868
▁적이	-9.99944
탈	-9.99973
▁금속	-10.0004
▁보내	-10.0008
▁집단	-10.0008
제를	-10.0012
빈	-10.0012
▁통한	-10.0017
▁수익을	-10.0029
▁관리를	-10.0032
▁클래스를	-10.0038
▁링크	-10.0039
▁수준	-10.0042
];	-10.0047
▁소변	-10.0049
▁결과에	-10.0058
▁질문에	-10.0061
했다는	-10.0062
▁것에	-10.0067
▁부작용	-10.007
color	-10.0072
▁센터	-10.0072
혈	-10.0073
▁달러	-10.0074
▁분리	-10.0074
▁팀은	-10.008
▁값이	-10.008
▁플랫폼을	-10.0081
▁흔한	-10.0087
님	-10.0088
▁협력하여	-10.0094
▁해결하는	-10.0102
▁인공지능	-10.0103
▁모듈	-10.0104
▁model	-10.0107
from	-10.0108
▁시작한	-10.0111
▁제품의	-10.0125
▁비용이	-10.0126
▁관리하고	-10.0134
▁서울	-10.0135
먼	-10.014
▁데이터가	-10.0142
age	-10.015
▁뒤에	-10.0151
▁response	-10.0157
▁조건을	-10.0157
▁조직의	-10.016
▁기술의	-10.0163
▁근무	-10.0163
입	-10.017
▁완성	-10.017
▁병용	-10.0176
플	-10.0179
극	-10.0188
In	-10.0188
▁형태	-10.0189
▁인물을	-10.0191
▁아침	-10.0191
▁그것이	-10.0192
▁깊이	-10.0192
▁점수	-10.0195
▁공간을	-10.0196
▁이들은	-10.02
▁원격	-10.0201
▁없고	-10.0201
Time	-10.0201
▁위반	-10.0206
▁하나입니다	-10.0207
ive	-10.0208
었습니다	-10.0217
▁가까운	-10.0217
▁의심	-10.0217
▁명령	-10.0219
▁프롬프트	-10.0222
▁윤리적	-10.0226
▁솔루션을	-10.0227
▁조명	-10.0229
▁쓰는	-10.023
▁없어	-10.0245
▁우려	-10.0251
▁사이트	-10.0252
▁홈	-10.0253
▁test	-10.0256
▁방식은	-10.0256
▁편	-10.0266
▁질문을	-10.0267
▁유발할	-10.0267
▁이탈리아	-10.0274
▁태아	-10.0276
▁관리에	-10.0278
\\	-10.0278
▁by	-10.028
▁버튼을	-10.0281
▁경제적	-10.0281
Service	-10.0285
▁통과	-10.0287
▁수분	-10.0293
▁남자	-10.0298
db	-10.0301
▁패션	-10.0302
망	-10.0303
token	-10.0307
▁삭제	-10.0316
▁file	-10.0316
▁영	-10.0317
▁분포	-10.0321
▁선수가	-10.0329
▁손상을	-10.0329
▁스토리	-10.0333
▁답변	-10.0335
단어	-10.034
▁보여줍니다	-10.034
example	-10.0341
▁기억	-10.0346
▁구문	-10.0355
▁여	-10.0358
State	-10.0359
▁누구인지를	-10.0359
검사	-10.0365
▁고객을	-10.0366
▁해양	-10.0369
▁꽃	-10.0378
▁성과를	-10.0378
▁열린	-10.0382
▁용량	-10.0385
▁사이	-10.0388
스타	-10.0393
되도록	-10.0396
▁목표는	-10.0415
▁아이디어	-10.0416
채	-10.0419
client	-10.0425
▁지도	-10.0428
▁청소	-10.0434
of	-10.044
▁않다	-10.0444
황	-10.0447
▁오후	-10.0448
▁성공을	-10.0449
▁Y	-10.045
▁고유	-10.0452
▁단독	-10.0452
▁누구인지	-10.0456
▁text	-10.0456
▁처방	-10.0458
▁죽	-10.0462
http	-10.0467
▁기회	-10.0469
▁변형	-10.0472
▁초음파	-10.048
▁무료	-10.0483
▁진단은	-10.0484
▁승인	-10.0486
▁불안	-10.0489
▁효소	-10.05
▁통증과	-10.0504
▁통제	-10.052
▁let	-10.0525
▁교	-10.0526
▁바다	-10.0534
▁취소	-10.0535
▁매력적인	-10.0536
▁탄소	-10.0537
▁블록체인	-10.0538
▁촉진	-10.0539
▁지원하는	-10.0539
▁사항이	-10.0539
▁갖춘	-10.0541
운동	-10.0545
▁사실	-10.0546
관리	-10.0555
▁보여	-10.0562
했다	-10.0565
▁방식이	-10.0571
▁대부분	-10.0578
▁만들어진	-10.058
▁상태로	-10.0584
▁공원	-10.0587
▁증명	-10.0591
일이	-10.0591
▁오류가	-10.0594
True	-10.06
▁리뷰	-10.0602
▁라이브러리	-10.0604
▁폐쇄	-10.0607
▁보인다	-10.0613
▁약물은	-10.0615
▁그리스	-10.0619
▁절차	-10.0624
▁병원	-10.0624
▁포트	-10.0626
▁내용	-10.0626
▁j	-10.0637
ac	-10.0642
▁분석하고	-10.0643
▁전화	-10.0645
▁열을	-10.0646
▁어디였는지를	-10.0651
▁신선한	-10.0654
▁성장을	-10.0654
▁처리하는	-10.0654
▁수용체	-10.0655
희	-10.0665
▁작품	-10.0667
▁개선하기	-10.0678
▁나타나는	-10.0681
[]	-10.0682
▁여러분의	-10.0688
▁식별	-10.0697
▁정책을	-10.0698
팀	-10.0699
▁버튼	-10.0702
▁활용할	-10.0706
▁보고서	-10.0707
split	-10.0711
▁없다는	-10.0711
▁할당	-10.0711
▁진단을	-10.0711
▁속도를	-10.0718
▁있거나	-10.0721
▁고령	-10.0724
▁언제였는지를	-10.0732
▁pd	-10.0732
▁시스템에	-10.0732
▁레이어	-10.0733
별로	-10.0736
▁레스토랑	-10.0736
▁변화에	-10.0738
▁불구하고	-10.074
ance	-10.074
▁혈당	-10.0742
스터	-10.0743
▁비교적	-10.0745
▁사용되며	-10.0747
기가	-10.0751
▁저녁	-10.0753
▁통화	-10.0754
리는	-10.0759
";	-10.0762
▁채용	-10.0762
▁동의	-10.0765
▁지난	-10.0765
▁코스	-10.0778
스는	-10.0779
▁성장과	-10.078
▁보입니다	-10.0785
▁천	-10.0794
▁주사	-10.08
▁감시	-10.0801
▁패키지	-10.0803
▁그녀의	-10.0803
▁유전	-10.0807
▁다리	-10.0809
script	-10.081
▁다루는	-10.0813
▁클릭	-10.0817
▁결론	-10.0818
▁분자	-10.0818
셔	-10.082
man	-10.0822
▁여기서	-10.0824
▁고려해	-10.0824
▁길이	-10.0824
▁시즌	-10.0828
▁작가	-10.0829
▁가득	-10.083
질문은	-10.083
co	-10.0832
▁console	-10.0834
▁발생합니다	-10.0846
▁TV	-10.0849
침	-10.085
▁설정하고	-10.0861
▁태어난	-10.0869
▁행성	-10.0883
▁고용	-10.0884
▁&&	-10.0887
▁인프라	-10.0888
▁String	-10.0892
▁시기	-10.0892
▁이해하기	-10.0894
▁어디서	-10.0896
current	-10.0901
▁발표	-10.091
▁팀을	-10.0917
▁적응	-10.0917
전반적으로	-10.0921
▁절차를	-10.0922
▁숲	-10.0925
:**	-10.0931
▁러시아	-10.0931
▁강조합니다	-10.0933
▁중심으로	-10.0939
▁청	-10.0942
▁흐름을	-10.0946
▁제공하기	-10.0951
▁[]	-10.0952
▁동기	-10.0954
▁시스템이	-10.0955
밀	-10.0961
▁가질	-10.0962
▁소비자	-10.0966
▁착용	-10.0966
신경	-10.0969
▁나라가	-10.097
집니다	-10.0976
▁앞으로	-10.098
▁말을	-10.0984
▁탐색	-10.0985
있는	-10.0988
▁로봇	-10.0989
▁채소	-10.0992
▁심혈관	-10.0993
▁전투	-10.0995
▁순환	-10.1
▁w	-10.1003
▁혈전	-10.1004
ers	-10.1009
했	-10.1012
▁맞춰	-10.1017
▁책을	-10.1017
▁높습니다	-10.1024
▁모습을	-10.1032
▁능력이	-10.1032
▁속성	-10.1035
▁충돌	-10.1036
번의	-10.1038
쪽	-10.1044
▁유용한	-10.1045
알	-10.1046
▁추가하여	-10.1047
)```	-10.1052
▁인수	-10.1067
▁광범위한	-10.107
▁지나	-10.1072
▁시간에	-10.1073
ma	-10.1077
▁하지	-10.1085
▁병원에	-10.1087
▁월	-10.1089
▁앞서	-10.1097
]	-10.1097
File	-10.11
▁소화	-10.1104
▁관련하여	-10.1107
Key	-10.1111
((	-10.1116
▁최대한	-10.1119
▁일차	-10.1121
▁기업은	-10.1132
te	-10.1132
▁거쳐	-10.1136
▁못한	-10.1137
▁이것은	-10.1138
▁진화	-10.114
▁보는	-10.114
▁생성할	-10.1143
▁청구	-10.115
▁관리할	-10.1151
▁치즈	-10.1154
이지	-10.1159
▁쇼핑	-10.1159
},	-10.116
▁진료	-10.1162
**:	-10.1163
▁선언	-10.1163
um	-10.1171
▁역시	-10.1177
▁우선순위를	-10.1178
사가	-10.1178
ip	-10.1183
▁오류를	-10.1185
▁때마다	-10.1186
▁예제	-10.119
one	-10.1191
▁통	-10.1193
▁곳은	-10.1193
▁개최	-10.1196
▁임포트합니다	-10.1199
▁형태의	-10.1203
▁빌드	-10.1203
▁지구의	-10.1204
▁둔	-10.1209
▁스크립트를	-10.1209
▁넣고	-10.1218
▁별	-10.1234
lo	-10.1236
▁세션	-10.1238
▁요소가	-10.124
뿐만	-10.1242
려고	-10.1242
▁않으며	-10.1243
월에	-10.1243
주는	-10.1245
▁제시	-10.125
▁오래된	-10.1251
▁행위	-10.1255
▁홍보	-10.1263
▁스타일을	-10.1264
▁신청	-10.1264
▁만약	-10.1269
▁매개변수	-10.127
자리	-10.127
▁보장	-10.1276
▁멋진	-10.1277
▁휴식을	-10.1281
▁중요성을	-10.1285
▁인정	-10.1286
▁시각화	-10.1292
▁개요	-10.1293
되면서	-10.1293
▁의식	-10.1298
ter	-10.1303
create	-10.1303
▁포함합니다	-10.131
▁경력	-10.1311
la	-10.1314
지가	-10.1316
파일	-10.1317
▁증거	-10.1317
▁학생들이	-10.132
▁오랜	-10.132
▁사이버	-10.1321
▁달라집니다	-10.1323
▁곳	-10.1327
▁도시가	-10.1328
▁문을	-10.1329
message	-10.1334
▁약물을	-10.1336
▁용	-10.1341
▁제공해	-10.1343
▁성공적으로	-10.1352
▁명의	-10.1353
▁직접적인	-10.1353
클	-10.1356
▁직후	-10.1362
▁시작하는	-10.1363
▁빈혈	-10.1363
▁색	-10.137
▁목적으로	-10.1375
▁관심이	-10.1377
▁분해	-10.1378
▁private	-10.1382
▁type	-10.1384
▁범죄	-10.1385
▁주장	-10.139
▁일정을	-10.1394
▁이전에	-10.1395
▁+=	-10.1395
이기	-10.1396
▁지능	-10.1407
▁있어서	-10.1414
달러	-10.1417
▁</	-10.1425
▁플레이	-10.1432
▁차트	-10.1434
▁먹는	-10.1439
▁시절	-10.1439
▁모델이	-10.1442
query	-10.1444
▁문학	-10.1445
▁허	-10.1446
성과	-10.1449
';	-10.146
▁정기적인	-10.1465
▁교체	-10.1468
▁접	-10.1471
▁치아	-10.1473
▁건조	-10.1474
▁공연	-10.1478
▁시각적	-10.148
▁요	-10.1482
go	-10.1482
▁책임을	-10.1482
▁o	-10.1482
감을	-10.149
config	-10.1499
▁좀	-10.1506
▁DNA	-10.1511
▁빠르고	-10.1522
▁동작	-10.1522
▁뼈	-10.1524
▁남아	-10.1526
▁분비	-10.1529
▁개발하는	-10.1535
▁포인트	-10.1536
▁연료	-10.1536
▁at	-10.1536
▁순간	-10.1538
▁수정된	-10.1544
▁상당한	-10.1558
▁not	-10.1559
▁공학	-10.1563
▁뉴욕	-10.1566
▁대회	-10.1566
▁비행	-10.1568
▁문장	-10.157
▁논의	-10.158
▁교육을	-10.158
▁실시간	-10.1581
질환	-10.1585
나는	-10.1585
ts	-10.1585
▁그래서	-10.1587
▁무엇입니까	-10.1588
score	-10.1589
Model	-10.1589
▁가입	-10.1595
▁그를	-10.1597
▁어려울	-10.1598
▁부모	-10.1599
▁상태에	-10.16
▁선택하고	-10.1602
▁의존	-10.1607
▁말이	-10.1608
▁국내	-10.1611
▁수신	-10.1611
▁점막	-10.1612
▁압력	-10.1613
▁있네요	-10.1614
니아	-10.1618
▁베타	-10.1623
책	-10.1624
▁일본의	-10.1624
▁사과	-10.1625
▁습관	-10.1626
▁소견이	-10.1643
▁활성	-10.1646
▁간에	-10.165
▁금액	-10.1655
▁채택	-10.1656
▁압박	-10.1667
Request	-10.1667
function	-10.1668
▁눈에	-10.1679
▁직장	-10.169
▁노력을	-10.1692
기능	-10.1693
ant	-10.1699
▁화	-10.1699
▁효율성을	-10.1701
▁활동에	-10.1701
▁작업이	-10.1703
▁잠재력을	-10.1711
▁적은	-10.1711
▁연구는	-10.1711
가요	-10.1711
▁시각	-10.1712
화된	-10.1713
런	-10.1717
▁근력	-10.1718
▁프로그램은	-10.1719
▁해당하는	-10.1722
▁향상시키는	-10.1723
▁명확하게	-10.1729
▁시력	-10.1731
▁원인이	-10.1733
▁달성	-10.1734
output	-10.1734
▁의사소통	-10.1735
▁빨리	-10.1737
item	-10.1739
와의	-10.1742
▁루프	-10.1743
▁해결할	-10.1744
▁있었지요	-10.1745
▁성별	-10.1753
▁이야기가	-10.1755
되었는지를	-10.1756
▁부서	-10.1758
▁있어요	-10.1758
▁팀의	-10.1759
▁모델링	-10.1768
▁규칙을	-10.1769
▁창의적인	-10.1775
Get	-10.1777
▁내릴	-10.1778
▁시기를	-10.1784
)]	-10.1789
▁옷	-10.1791
▁과정	-10.1795
▁파트너	-10.1796
▁체제	-10.1798
▁목표에	-10.1805
Client	-10.1808
▁흐름	-10.1809
na	-10.1809
▁규칙	-10.1809
▁드릴	-10.1812
학적	-10.1813
▁토양	-10.1814
▁파일의	-10.1817
▁time	-10.1818
▁최	-10.1822
▁자전거	-10.1824
▁병변	-10.1825
번도	-10.1829
▁조합	-10.1836
▁여기	-10.1841
▁결정하는	-10.1842
▁경고	-10.1844
▁흡입	-10.1849
())	-10.1851
▁드	-10.1855
▁측면에서	-10.1858
▁사용자는	-10.1864
▁생각합니다	-10.1868
▁장소	-10.1869
rate	-10.1873
▁정수	-10.188
▁저항	-10.1881
▁약간	-10.1884
▁만족	-10.1889
▁false	-10.1889
엘	-10.1889
IN	-10.1889
▁방식에	-10.1889
▁접종	-10.1894
▁지급	-10.1898
▁}}	-10.1901
App	-10.1904
▁메서드	-10.1916
▁머리	-10.1917
▁마찬가지로	-10.1919
▁물리적	-10.1921
▁명상	-10.1927
▁채	-10.1932
▁데뷔	-10.1934
장이	-10.194
▁목표와	-10.1942
▁앞	-10.1942
▁요인에	-10.1944
례	-10.1946
▁설립	-10.195
번째	-10.1954
▁보겠습니다	-10.1954
▁시리즈	-10.1956
프로	-10.1961
▁절	-10.1962
▁소아	-10.1962
싱	-10.1971
▁원자	-10.1979
▁받았습니다	-10.1979
▁코드의	-10.198
▁체계	-10.1999
▁평가할	-10.2004
▁행정	-10.2007
▁경험과	-10.2013
▁크기를	-10.2017
ri	-10.2017
▁제대로	-10.2019
▁등과	-10.2021
se	-10.2021
▁관	-10.2022
▁강조	-10.2024
▁요인	-10.2026
▁도와줍니다	-10.2031
mi	-10.2034
▁차례	-10.2035
transform	-10.2039
▁계열	-10.2042
▁알고리즘	-10.2043
▁뿐만	-10.2044
▁법	-10.2047
▁항목을	-10.2049
▁이용해	-10.2056
▁로그	-10.206
▁적절하다	-10.2061
▁테	-10.2061
▁눈을	-10.2061
컵	-10.2062
▁묘사	-10.2064
Date	-10.207
▁캠페인	-10.2073
▁그래프	-10.2073
▁비밀	-10.2075
▁연구에	-10.2075
▁아프리카	-10.2076
▁하겠습니다	-10.2077
▁배우고	-10.2084
▁시작할	-10.2086
event	-10.2087
▁설명을	-10.2089
교육	-10.209
▁대상으로	-10.2092
풍	-10.2093
▁그렇지	-10.2095
▁센서	-10.2096
▁차이점은	-10.2102
▁my	-10.2103
▁시뮬레이션	-10.2104
▁조작	-10.2108
▁프레임워크	-10.211
▁스마트폰	-10.2118
▁발작	-10.2118
ce	-10.2124
▁마음을	-10.2127
▁미세	-10.213
Re	-10.2133
▁자원을	-10.2134
([	-10.2136
▁흥미로운	-10.2136
▁스스로	-10.2138
▁IP	-10.2142
긴	-10.2145
▁로그인	-10.2147
궁	-10.2157
▁변화는	-10.2162
▁힘	-10.217
▁애	-10.2175
기에	-10.2176
()	-10.218
씩	-10.2181
▁인덱스	-10.2185
▁명확하고	-10.2188
▁추가적인	-10.219
▁축	-10.2191
▁취할	-10.2194
명의	-10.2194
▁투	-10.2199
▁확인하기	-10.2202
패	-10.2205
▁정치적	-10.2206
▁카테고리	-10.2213
▁자산	-10.2219
▁혁신적인	-10.2226
▁연기	-10.2229
▁라인	-10.223
▁지식과	-10.2231
▁연구를	-10.2238
target	-10.2242
php	-10.2247
▁오디오	-10.2247
보세요	-10.2251
▁분할	-10.2254
▁내에	-10.2258
▁조언을	-10.226
▁세금	-10.2263
▁잘못된	-10.2264
▁이론	-10.2267
▁알고리즘은	-10.2267
삼	-10.2272
▁휴식	-10.2277
징	-10.2282
▁방출	-10.2282
request	-10.2287
▁선물	-10.2291
▁선호	-10.2295
▁머신러닝	-10.2297
▁권한을	-10.2302
른	-10.2302
▁결혼	-10.2302
▁위치에	-10.2305
▁방향	-10.2305
▁장기적인	-10.2307
▁CSS	-10.2308
명을	-10.2315
▁str	-10.2318
▁차이를	-10.2325
▁그대로	-10.2327
▁승리	-10.234
▁물고기	-10.2343
▁생	-10.2344
kg	-10.2355
려면	-10.2356
▁여부	-10.2358
▁생존	-10.2358
▁쇼	-10.2363
▁제도	-10.2365
▁이상이	-10.2367
▁억제제	-10.2367
▁과제	-10.2374
▁지침을	-10.2377
▁것이라고	-10.2378
▁개인이	-10.238
▁소득	-10.2381
▁절제	-10.2389
Message	-10.2393
▁캐나다	-10.2394
▁식별하고	-10.2396
▁회원	-10.2405
폐	-10.2409
▁천식	-10.2412
▁구축하는	-10.2414
▁내성	-10.2415
▁근	-10.2415
람	-10.2417
▁유형을	-10.2417
▁매개	-10.242
▁제공하며	-10.2424
▁패	-10.2426
dL	-10.2431
▁폭	-10.2432
▁train	-10.2433
▁알코올	-10.2434
▁직	-10.2435
▁document	-10.2435
향	-10.2442
node	-10.2443
▁기법	-10.2444
▁보이고	-10.2446
▁보호하는	-10.2446
▁결	-10.2446
▁어디에서	-10.2446
도를	-10.2446
▁쓰기	-10.2447
ER	-10.2451
힌	-10.2452
▁공유하고	-10.2454
으	-10.2458
▁비즈니스를	-10.246
이야	-10.2465
▁수입	-10.2466
▁일치	-10.2466
주세요	-10.2475
▁와인	-10.248
▁필터	-10.248
▁혈청	-10.2483
▁평가를	-10.2491
▁회전	-10.2493
▁반려동물	-10.2494
▁다섯	-10.2495
▁태	-10.2505
▁찾아보세요	-10.2507
딘	-10.251
▁구현하는	-10.251
▁물질	-10.2511
▁앨범	-10.2511
▁팬	-10.2516
Button	-10.2518
().	-10.2518
▁못	-10.2523
현재	-10.2524
▁속에서	-10.2525
▁일련의	-10.2526
▁대한민국	-10.2527
.```	-10.2527
▁그에	-10.2527
▁그린	-10.2544
릭	-10.2545
▁자료를	-10.2547
▁없으며	-10.255
fit	-10.2551
▁운전	-10.2558
Form	-10.2559
▁자금	-10.256
환	-10.2562
▁미칩니다	-10.2562
per	-10.2565
귀	-10.2566
▁분쟁	-10.2567
▁중에서	-10.2568
▁음	-10.2573
head	-10.2574
▁맥	-10.2577
▁방어	-10.2583
▁충전	-10.2586
▁패턴	-10.2587
▁조각	-10.2588
▁벡터	-10.2593
▁전혀	-10.2596
▁아버지	-10.2597
▁시장에서	-10.2597
▁준	-10.2598
▁교환	-10.2601
css	-10.2602
량을	-10.2602
▁수치	-10.2604
▁구글	-10.2613
▁국가의	-10.2615
▁문화를	-10.2618
짐	-10.262
▁개념	-10.2623
▁회사는	-10.2624
▁나중에	-10.2625
습	-10.2626
상을	-10.2628
▁플라스틱	-10.2629
▁부위	-10.2632
쉬	-10.2632
▁하드웨어	-10.2633
▁향	-10.2633
Page	-10.2636
▁변호사	-10.2636
돌	-10.2637
▁질환의	-10.2644
▁훌륭한	-10.2645
▁템플릿	-10.2645
▁카페	-10.2646
));	-10.2646
겠습니다	-10.2647
▁h	-10.2659
▁선거	-10.2659
gen	-10.2661
▁제시된	-10.2664
▁선형	-10.2665
▁시기에	-10.2666
▁공유할	-10.2667
▁북	-10.2673
▁글	-10.2677
▁나라의	-10.2677
▁뿐	-10.268
▁실행할	-10.2685
▁날짜를	-10.2686
▁침범	-10.2689
▁효과는	-10.269
style	-10.2696
▁상태에서	-10.2697
▁표현하는	-10.27
▁상징	-10.2701
▁식단	-10.2704
▁방향으로	-10.2704
뇨	-10.2717
▁소리	-10.2724
▁호텔	-10.2737
▁!=	-10.2739
▁군사	-10.2741
▁무역	-10.2743
):	-10.2746
▁손을	-10.2747
▁시스템에서	-10.2754
▁알아	-10.2757
▁사는	-10.2758
▁인스턴스	-10.2758
▁도착	-10.2758
▁수업	-10.2759
▁연결된	-10.2761
▁저장합니다	-10.2764
▁[[	-10.2767
▁시점이	-10.2769
슬	-10.2769
▁개체	-10.2773
net	-10.2773
▁맡은	-10.2774
딩	-10.2775
▁글을	-10.2776
▁요소에	-10.2777
▁우울증	-10.2777
▁측면	-10.2778
main	-10.2786
▁전용	-10.2789
▁나이	-10.279
▁안정	-10.2791
▁무엇일까요	-10.2797
▁웹사이트를	-10.2798
▁양의	-10.2798
▁증후군	-10.2798
▁표면	-10.2804
▁상태와	-10.2807
▁아키텍처	-10.2807
▁재료를	-10.2809
▁using	-10.2813
장을	-10.2815
▁설명으로	-10.2816
▁기기	-10.2818
▁호수	-10.2826
낭	-10.2826
사를	-10.2827
▁단체	-10.2827
▁수립	-10.2828
▁엔지니어	-10.2829
▁구독	-10.2835
▁요소입니다	-10.2839
▁인사이트를	-10.284
IT	-10.2846
▁임	-10.2846
▁구성되어	-10.2848
▁이것이	-10.2851
▁누	-10.2853
▁상위	-10.2853
핑	-10.2854
▁있습니까	-10.2854
▁신호를	-10.2855
레이	-10.2863
▁동료	-10.2868
▁방지	-10.2869
▁조리	-10.2871
▁일관된	-10.2874
▁박물관	-10.2875
▁아들	-10.2884
▁어디인지를	-10.2889
▁메서드는	-10.2896
로는	-10.29
▁담	-10.29
▁그렇게	-10.2902
▁솔루션	-10.2904
the	-10.2904
▁k	-10.291
▁의무	-10.2915
▁전력	-10.2918
▁위협	-10.2922
▁할인	-10.2924
▁뜻	-10.2924
▁수많은	-10.2925
▁기준을	-10.2928
▁모범	-10.2929
▁중요하다	-10.2929
load	-10.2929
▁프레임	-10.2929
▁확대	-10.2932
▁앤	-10.2933
▁프리	-10.2935
▁샤	-10.2936
▁추	-10.294
▁상황이	-10.2941
▁파이	-10.2942
▁신체적	-10.2947
▁설탕	-10.2952
화를	-10.2954
Item	-10.2959
▁않음	-10.2959
▁특성	-10.2965
▁절감	-10.2967
▁지남에	-10.2973
▁가슴	-10.2973
트리	-10.2975
▁포괄적인	-10.2976
▁중재	-10.2983
▁상처	-10.2986
▁초기화	-10.2989
세트	-10.2993
▁Re	-10.2993
▁찾아야	-10.2995
▁쪽	-10.2997
react	-10.2998
▁시민	-10.2998
▁기능에	-10.2998
▁HIV	-10.3009
AI	-10.301
자와	-10.3011
▁코로나	-10.3012
▁두통	-10.3014
▁뛰어난	-10.3014
철	-10.3017
시킵니다	-10.3018
▁연령	-10.3028
트로	-10.3029
좌	-10.3029
▁기법을	-10.303
▁인물	-10.3031
▁NULL	-10.3032
▁길을	-10.3036
sh	-10.3037
한다고	-10.3041
use	-10.3045
▁관심	-10.3046
▁날씨	-10.3047
▁회귀	-10.3051
▁개입	-10.3053
▁녹색	-10.3059
▁겪고	-10.3059
▁평가해야	-10.306
▁비밀번호	-10.3062
▁input	-10.3064
▁요소는	-10.3064
▁우승	-10.3067
▁음악을	-10.3067
▁스페인	-10.3071
▁법정	-10.3075
▁크기와	-10.3085
▁설명할	-10.3086
▁표시합니다	-10.3088
▁선택해야	-10.3089
▁end	-10.309
▁교차	-10.3091
▁합의	-10.3095
▁기호	-10.3095
범	-10.3097
치는	-10.3101
▁잠	-10.3101
▁가수	-10.3103
움	-10.3109
▁칼	-10.3109
▁감염을	-10.3109
▁축제	-10.3115
▁옷을	-10.3119
팔	-10.3119
▁지원합니다	-10.3121
▁AS	-10.3123
▁배울	-10.3123
▁업무를	-10.3124
▁작성할	-10.3126
Input	-10.3127
▁문화와	-10.313
▁스크립트	-10.3131
사는	-10.3133
▁끝	-10.3133
▁생각을	-10.3136
킹	-10.3142
▁연결을	-10.3146
웨이	-10.3154
▁range	-10.3156
▁만큼	-10.3157
content	-10.3158
password	-10.3159
▁문의	-10.3159
▁티	-10.3166
▁부상	-10.3166
▁주의해야	-10.3168
▁이벤트를	-10.3174
▁넓은	-10.3175
▁국민	-10.3177
▁감량	-10.3178
▁연속	-10.318
▁애플리케이션의	-10.3185
▁일정한	-10.3185
result	-10.3186
▁경계	-10.3187
▁start	-10.3188
▁AWS	-10.3191
▁게시물	-10.3208
▁아니면	-10.3208
▁사용된	-10.3208
▁제공해야	-10.3208
▁규칙적인	-10.3209
▁공공	-10.3211
▁데이터와	-10.3211
▁코드가	-10.3222
▁요가	-10.3223
▁무기	-10.3224
▁병원을	-10.3234
▁절대	-10.3234
▁접촉	-10.3239
▁남자가	-10.324
▁연주	-10.324
존	-10.3242
▁표시됩니다	-10.3246
▁기간을	-10.3248
▁비율	-10.3261
▁IT	-10.3262
▁고려한다	-10.3264
▁내가	-10.3264
▁만화	-10.3269
▁지역을	-10.3272
되었다	-10.3276
▁촉진하는	-10.3277
▁컨테이너	-10.3277
▁완벽한	-10.3277
▁Q	-10.3283
▁미국에서	-10.3284
▁식사를	-10.3284
."	-10.3284
>《	-10.3284
▁중독	-10.3286
▁플레이어가	-10.3287
▁방해	-10.3288
▁액체	-10.3288
▁혜택	-10.3288
▁사이에서	-10.3293
▁경향이	-10.3293
▁읽고	-10.3295
▁확인해	-10.3295
▁영역	-10.3298
▁파악하는	-10.3302
▁유래	-10.3306
▁기업의	-10.3306
return	-10.3307
▁공부	-10.3308
▁몸을	-10.3308
롤	-10.3311
▁성격	-10.3314
력이	-10.3316
▁테스트를	-10.3324
▁디스크	-10.3325
▁어디	-10.3326
▁적극적으로	-10.3327
▁영향에	-10.333
릿	-10.3333
▁사진을	-10.3335
▁등으로	-10.3337
▁단순한	-10.334
▁밴드	-10.3342
▁여기에	-10.3348
▁최적의	-10.3348
수를	-10.3357
▁추천해	-10.3358
▁흉부	-10.3359
▁메인	-10.336
▁df	-10.3363
▁분야에	-10.3363
▁근거	-10.3365
▁모양	-10.3369
▁증상은	-10.337
▁현상	-10.3371
▁고려하고	-10.3373
▁["	-10.3374
▁탈	-10.3376
▁특수	-10.338
▁대형	-10.3382
▁진술	-10.3385
▁프로그램이	-10.3388
▁알림	-10.3389
▁후속	-10.339
▁하는지	-10.3396
▁숫자를	-10.3397
▁야	-10.3397
▁주셔서	-10.3398
op	-10.34
▁current	-10.3403
▁약물의	-10.3404
▁예제입니다	-10.3406
▁구강	-10.3406
▁__	-10.3409
▁현금	-10.3413
거리	-10.3413
▁거야	-10.3415
▁모드	-10.3415
▁result	-10.3419
▁만한	-10.3421
▁상대	-10.3421
▁의료기관	-10.3421
▁피로	-10.3422
de	-10.3434
▁우유	-10.3434
▁연방	-10.3441
▁추출	-10.3441
▁헤	-10.3447
▁교수	-10.3449
벽	-10.3451
▁===	-10.3451
▁사례를	-10.3453
▁거리를	-10.3454
▁구역	-10.3454
▁▁▁▁▁▁▁▁▁▁	-10.3456
▁종류	-10.3459
▁수준을	-10.3461
ne	-10.3463
▁사건이	-10.3469
▁기능과	-10.347
▁압축	-10.347
▁인슐린	-10.3472
▁단순히	-10.3472
▁돕는	-10.3474
누	-10.3475
▁image	-10.3476
▁발음	-10.3476
▁프로토콜	-10.3478
흐	-10.3478
▁말고	-10.3479
녀	-10.3481
▁가리키는	-10.3482
▁조금	-10.3484
join	-10.3486
▁have	-10.3488
▁지불	-10.3489
▁싶은	-10.349
▁이름과	-10.3492
▁느낌을	-10.3492
▁}}```	-10.3494
▁원칙	-10.3494
▁오늘	-10.3497
▁맛있는	-10.3501
▁관리하기	-10.3503
▁여성의	-10.3503
익	-10.3504
▁추정	-10.3504
Count	-10.3513
▁규모	-10.3513
bash	-10.3516
▁밀	-10.3517
보다는	-10.352
칠	-10.3521
▁실천	-10.3524
▁다릅니다	-10.3527
했다고	-10.353
▁올	-10.3531
▁끝에	-10.3532
▁치료로	-10.3533
ide	-10.3534
RE	-10.3536
또는	-10.3537
▁구조와	-10.3547
len	-10.3551
올	-10.3555
▁평	-10.3558
▁얼마	-10.356
▁보호하기	-10.3562
▁영향력	-10.3562
▁변화와	-10.3563
▁모니터링하고	-10.3571
▁청소년	-10.3575
▁참여를	-10.3578
▁완전	-10.3583
틀	-10.3593
▁잘못	-10.3593
▁부담	-10.3595
▁상대적으로	-10.3595
▁재정	-10.3597
▁변동	-10.3598
▁폐기물	-10.36
우스	-10.3601
나무	-10.3604
ity	-10.3607
▁will	-10.361
▁유명합니다	-10.3612
▁제공한	-10.3612
▁노인	-10.3614
▁섬유	-10.3614
줍니다	-10.3618
▁업로드	-10.3618
덕	-10.362
▁다양성	-10.3623
▁벽	-10.3623
▁문법	-10.3626
▁서로의	-10.3627
▁초대	-10.3631
▁예방을	-10.3632
▁기록을	-10.3639
니다	-10.3641
▁안내	-10.3642
▁딸	-10.3648
▁필	-10.365
▁얼음	-10.3651
문자열	-10.3652
▁we	-10.3653
▁오픈	-10.3654
▁이름의	-10.3654
▁결정합니다	-10.3657
▁파악할	-10.3658
▁즐거운	-10.3658
▁장기간	-10.366
sql	-10.3664
▁응답을	-10.3665
▁처음으로	-10.3668
▁이상을	-10.3669
right	-10.3677
완	-10.3677
▁녹	-10.3678
▁상태가	-10.3679
▁반면에	-10.368
▁신용	-10.3685
▁함수의	-10.3686
▁석	-10.3688
▁불리는	-10.3696
▁스타트업	-10.3696
▁놀라운	-10.3698
권을	-10.3701
▁디자이너	-10.3702
▁고양이	-10.3706
})	-10.3711
▁생성된	-10.3713
▁빛	-10.3715
▁가치가	-10.3715
▁호주	-10.3718
명이	-10.3721
();	-10.3723
ec	-10.3723
▁모험	-10.3725
▁포함할	-10.3725
▁조정할	-10.3731
▁추적하고	-10.3731
▁낮	-10.3732
였던	-10.3735
▁혜택을	-10.3736
▁max	-10.374
▁가능합니다	-10.374
▁결핵	-10.374
▁리더	-10.3741
착	-10.3742
▁개인정보	-10.3747
▁제한된	-10.3747
▁목적을	-10.3748
ve	-10.3749
▁배열을	-10.3749
td	-10.3752
스가	-10.3755
▁정원	-10.3764
하였습니다	-10.3765
▁보일	-10.3767
▁-->	-10.3771
▁이용하여	-10.3774
▁소통	-10.3778
▁유의하세요	-10.3782
▁장식	-10.3783
▁디바이스	-10.3787
▁비트	-10.3787
▁지표	-10.3787
▁응용	-10.3792
스토	-10.3793
▁자신에게	-10.3794
▁cv	-10.3797
▁생기는	-10.38
▁code	-10.38
▁관점을	-10.3802
▁받습니다	-10.3804
▁반응이	-10.3804
▁찾습니다	-10.3818
▁수치가	-10.3821
sub	-10.3822
▁명확히	-10.3823
▁준비가	-10.3827
▁돈을	-10.383
▁지배	-10.3832
몬	-10.3838
년입니다	-10.384
ial	-10.3841
수록	-10.3841
▁치료의	-10.3842
▁치유	-10.3843
▁팁	-10.3844
▁맛을	-10.3845
▁정보는	-10.3848
▁초래할	-10.3851
▁구분	-10.3853
++)	-10.3853
▁갑상선	-10.3853
▁레이	-10.3853
▁부드러운	-10.3854
▁발현	-10.3855
▁저희	-10.3859
▁목적은	-10.3861
▁전문가의	-10.3862
▁혈소판	-10.3864
▁친환경	-10.3864
▁줄여	-10.3871
▁브	-10.3871
find	-10.3873
▁서명	-10.3878
▁재고	-10.388
했지	-10.3884
▁해결책을	-10.3885
애	-10.3888
▁메뉴	-10.3888
your	-10.3891
▁업데이트합니다	-10.3893
array	-10.3895
▁파티	-10.3898
▁원인은	-10.3901
▁문서를	-10.3905
▁전달할	-10.3906
▁갈등	-10.3909
▁친	-10.391
멘	-10.3912
였는지를	-10.3915
▁작용을	-10.3916
Set	-10.3916
▁게시	-10.3917
▁주시겠어요	-10.3917
▁공정	-10.3921
▁해변	-10.3924
▁생긴	-10.393
email	-10.393
▁This	-10.3931
▁호흡기	-10.3932
▁혁명	-10.3935
▁합	-10.3936
고객	-10.3941
물을	-10.3943
ED	-10.3943
▁마법	-10.3947
되었고	-10.3951
이미지	-10.3951
port	-10.3954
▁달성하기	-10.3956
▁형성하는	-10.3958
곤	-10.3958
▁비행기	-10.3958
▁유효성	-10.396
▁발진	-10.396
▁따뜻한	-10.3963
▁사용하세요	-10.398
김	-10.3981
▁성적	-10.3989
위를	-10.3991
▁오일	-10.3994
▁프로그램의	-10.3994
▁인종	-10.3998
▁질문은	-10.3999
▁조언	-10.4002
▁쿼리를	-10.4003
▁안전하고	-10.4005
위원회	-10.4006
▁디자인을	-10.401
▁협상	-10.401
▁전달하는	-10.4016
▁없을	-10.4016
▁매출	-10.4016
▁자연어	-10.4018
day	-10.4025
▁병합	-10.4027
++	-10.4032
임을	-10.4033
▁고려하는	-10.4034
▁여정	-10.4036
▁담당	-10.4036
▁제목을	-10.4037
▁모델에	-10.4039
▁캐시	-10.4042
▁크고	-10.4044
▁질환은	-10.4046
▁소실	-10.4046
▁화석	-10.4047
▁얻은	-10.4049
기억을	-10.405
▁기초	-10.405
open	-10.405
▁프로필	-10.4054
▁왔습니다	-10.4058
mp	-10.4061
▁매핑	-10.4065
▁반사	-10.4069
▁독	-10.407
post	-10.4072
▁확률	-10.4074
▁교사	-10.4083
퇴	-10.4089
▁축적	-10.4093
▁강의	-10.4095
▁어린이	-10.4096
▁방법과	-10.4097
▁갑작스러운	-10.4099
▁발전을	-10.41
▁기본적인	-10.4102
▁조직이	-10.4104
▁탐험	-10.4105
▁한국의	-10.4107
▁복제	-10.4109
▁작성하는	-10.4109
인이	-10.411
▁GPT	-10.4111
▁백업	-10.4115
▁여행을	-10.4115
▁System	-10.4117
▁저장하는	-10.4118
err	-10.4119
회사	-10.4123
▁운동은	-10.4124
device	-10.4127
받은	-10.4128
bar	-10.413
▁효율성	-10.4131
▁적절히	-10.4141
▁함수가	-10.4143
▁자리를	-10.4145
▁개발하고	-10.4145
▁코딩	-10.4146
▁소금	-10.4155
▁제품에	-10.4157
link	-10.416
▁대상이	-10.4165
폭	-10.4165
▁캘리포니아	-10.4167
▁정규	-10.4168
`:	-10.4169
▁보호하고	-10.4171
톤	-10.4172
하였다	-10.418
▁시작하기	-10.418
▁계속해서	-10.4182
▁농도	-10.4186
▁목록에	-10.4186
▁코드입니다	-10.4186
PA	-10.4189
DB	-10.419
▁필수적입니다	-10.4192
▁콜	-10.4198
▁교황	-10.4199
▁해는	-10.4202
견	-10.4205
▁싱글	-10.4206
▁운송	-10.4206
▁적용할	-10.4207
▁행동에	-10.4214
source	-10.4215
▁등장	-10.4216
▁케	-10.4218
me	-10.4218
▁넘어	-10.4221
▁가격을	-10.4224
▁조절하는	-10.4225
price	-10.4225
▁이메일을	-10.4227
▁권리	-10.4228
▁중요성	-10.4231
▁독성	-10.424
▁정서적	-10.4244
▁example	-10.4246
▁숨	-10.4247
▁기원	-10.4252
▁변이	-10.4254
▁되고	-10.4257
▁app	-10.4258
▁키를	-10.4262
▁후에	-10.4266
낸	-10.4267
▁안녕하세요	-10.4268
스테	-10.4268
▁사기	-10.427
▁서비스의	-10.427
▁하는데	-10.4271
동맥	-10.4272
▁공통	-10.4272
▁무엇이	-10.4273
▁설명하시오	-10.4281
▁Microsoft	-10.4282
▁수용	-10.4283
em	-10.4283
▁require	-10.4284
▁주도	-10.4285
▁휴대폰	-10.4285
▁전문가와	-10.4288
▁루	-10.4289
▁용량을	-10.4291
▁세계적으로	-10.4297
▁오른	-10.4305
▁기침	-10.4306
▁장면	-10.4308
▁창출	-10.4312
▁필수적인	-10.4315
▁낮추는	-10.4317
▁os	-10.4323
▁위기	-10.4323
▁효과와	-10.4324
▁뭐라고	-10.433
▁현재의	-10.4331
▁de	-10.4332
▁항체	-10.4334
▁이동합니다	-10.4335
▁네트워크를	-10.4342
width	-10.4346
▁단축	-10.4347
▁언급	-10.4347
번과	-10.4349
▁MRI	-10.4355
▁투표	-10.4358
▁파리	-10.4359
ap	-10.4362
▁부르는	-10.4364
▁결핍	-10.4365
▁오랫동안	-10.4365
▁이식	-10.4366
지에	-10.4368
▁분야	-10.4369
측	-10.4373
으니	-10.4381
▁필요하지	-10.4382
칭	-10.4386
▁알파	-10.4388
▁사용자를	-10.4391
▁함	-10.4391
▁그들이	-10.4392
▁Z	-10.4409
▁생태계	-10.441
▁측	-10.4413
▁역사적	-10.4418
▁기여할	-10.4421
▁폐렴	-10.4421
▁제공하세요	-10.4423
미국	-10.4431
엽	-10.4436
▁선택하세요	-10.4437
됐어	-10.4438
▁편안한	-10.4439
▁앱의	-10.4444
▁브라우저	-10.4444
▁add	-10.4446
▁환기	-10.4446
정보	-10.4447
▁극	-10.4448
▁옛	-10.4448
▁자본	-10.4449
java	-10.4453
▁없었습니다	-10.4455
▁말했습니다	-10.4457
▁시도해	-10.4458
▁장애인	-10.446
▁로컬	-10.4466
▁궁극적으로	-10.4469
▁미래를	-10.4474
▁문제는	-10.4475
▁예제에서는	-10.4477
▁해제	-10.448
▁송	-10.448
ist	-10.4481
▁발행	-10.4483
찰	-10.4483
푸	-10.4486
▁필터링	-10.4489
▁중년	-10.4491
▁인터페이스를	-10.4492
도가	-10.4492
▁유전적	-10.4494
▁혈중	-10.4494
▁남은	-10.4496
▁do	-10.4501
▁과정은	-10.4502
▁이용할	-10.4511
▁동작을	-10.4511
으로서	-10.4513
▁약제	-10.4513
혼	-10.4514
벌	-10.4516
▁실시	-10.4517
▁여자	-10.4518
으로는	-10.4521
▁사항과	-10.4521
▁의학	-10.4523
▁악	-10.4524
▁전문적인	-10.4526
▁익	-10.4526
ci	-10.4528
미터	-10.453
▁강조하는	-10.4537
▁토마토	-10.4537
▁설정을	-10.4538
▁판단해야	-10.4541
▁향해	-10.4542
므로	-10.4545
frame	-10.4548
량이	-10.4552
▁관광	-10.4554
자로	-10.4556
▁어렵습니다	-10.4556
▁세트	-10.4558
▁보드	-10.456
▁위생	-10.456
▁방향을	-10.4563
AL	-10.4572
▁고객과	-10.4574
▁학생들은	-10.4576
▁자바스크립트	-10.4581
ab	-10.4583
▁구체적으로	-10.4585
▁재사용	-10.4586
▁저장할	-10.4593
이제	-10.4593
words	-10.4595
닉	-10.4596
▁레시피	-10.4598
▁수축	-10.4599
▁장점	-10.4609
젠	-10.4614
▁장르	-10.4615
▁크	-10.4616
▁긴장	-10.4618
▁깨	-10.4629
Color	-10.4636
By	-10.4641
▁공급업체	-10.4642
▁작성하고	-10.4645
제가	-10.4647
▁갖추고	-10.4648
▁분위기를	-10.465
▁안전을	-10.4652
▁개발에	-10.4659
▁혼란을	-10.4661
▁히	-10.4663
ty	-10.4664
▁torch	-10.4669
▁아시아	-10.467
탁	-10.4677
Image	-10.4681
칸	-10.4682
센	-10.4683
▁급여	-10.4686
▁so	-10.4687
mean	-10.469
;}	-10.4691
▁시트	-10.4691
▁조치는	-10.4696
샤	-10.4699
▁죄송합니다	-10.47
▁대개	-10.47
▁신뢰	-10.4703
▁엔지니어링	-10.4703
IC	-10.4705
랜드	-10.4705
▁실행하여	-10.4706
스의	-10.4715
▁끌	-10.4716
▁민감한	-10.4718
▁신경학적	-10.4718
▁달성할	-10.4719
}}	-10.4722
▁버전의	-10.4722
그리고	-10.4722
▁중력	-10.4723
기도	-10.4723
▁고기	-10.4723
경로	-10.4725
▁다르다	-10.4727
▁멤버	-10.4728
▁시작된	-10.4731
▁소프트웨어를	-10.4732
▁이루어진	-10.4732
▁지적	-10.4736
AT	-10.4736
함수	-10.4737
▁교회	-10.4738
▁질환을	-10.4741
'],	-10.4745
▁높이기	-10.4749
▁따로	-10.475
▁소리를	-10.4751
▁안전성	-10.4751
(),	-10.4752
▁찬	-10.4755
▁처리하고	-10.4757
▁당신의	-10.4758
▁내리는	-10.476
ut	-10.4761
▁트위터	-10.4764
▁과학적	-10.4765
▁제국	-10.4768
▁액션	-10.4773
sum	-10.4776
▁조성	-10.4777
▁레벨	-10.4778
▁전처리	-10.4778
▁맞	-10.478
▁도시를	-10.4781
▁궁금한	-10.4782
▁key	-10.4785
▁확인한다	-10.4785
▁수수료	-10.4785
▁물이	-10.4787
▁캐	-10.4788
▁이완	-10.4788
include	-10.4791
요법	-10.4795
▁테이블을	-10.4795
스크	-10.4796
▁자가	-10.4796
▁피해	-10.48
▁종합	-10.48
▁최선을	-10.4801
▁재배	-10.4807
델	-10.4808
▁회	-10.4809
▁철학	-10.4811
▁선택지	-10.4811
▁소음	-10.4811
▁특별	-10.4812
▁그리드	-10.4817
귀하의	-10.4817
▁진정한	-10.4822
▁비교하여	-10.4825
▁방정식	-10.4832
대학교	-10.4834
▁악성	-10.4837
▁도구입니다	-10.4841
▁웹사이트의	-10.4841
▁정보와	-10.4842
∂	-10.4845
▁결합하여	-10.4847
▁성분	-10.4849
▁앉아	-10.4849
items	-10.485
▁연구에서	-10.4858
▁제기	-10.4861
▁도시의	-10.4862
▁표적	-10.4867
▁갖고	-10.487
▁사람과	-10.4873
▁의견	-10.4873
일차	-10.4877
▁문자열을	-10.4878
▁저장하고	-10.4878
택	-10.4878
▁신기능	-10.4879
Url	-10.488
▁도구와	-10.488
▁종목	-10.4881
▁이때	-10.4881
▁해외	-10.4884
▁점은	-10.4885
마일	-10.4886
▁클래스의	-10.4887
▁도달	-10.4888
▁재정적	-10.4888
search	-10.4891
▁기술에	-10.4893
▁해안	-10.4894
▁설명이	-10.4894
▁작품의	-10.4901
▁권고	-10.4901
▁흡연	-10.4904
▁나누어	-10.4906
▁걱정	-10.4912
tion	-10.4914
▁허가	-10.4915
▁안에서	-10.4917
▁다운로드	-10.4925
▁다만	-10.4926
▁보수	-10.4928
▁포장	-10.4929
▁위로	-10.4932
▁식	-10.4934
▁무릎	-10.4935
▁예측을	-10.4936
▁방법들을	-10.4938
Fi	-10.4938
▁비전	-10.4939
▁전형적	-10.4941
▁후보	-10.4943
▁대륙	-10.4952
다음	-10.4953
▁혼합	-10.4953
▁추론	-10.4958
▁사상	-10.4962
▁절약	-10.4966
▁오르	-10.4966
▁높다	-10.4967
▁조건에	-10.4968
▁쌍	-10.4971
▁식이	-10.4976
▁양을	-10.4981
하되	-10.4982
▁크기가	-10.4983
▁오히려	-10.4985
▁발견했습니다	-10.4987
▁소재	-10.5
▁씨	-10.5001
▁핵	-10.5001
▁데이터베이스에	-10.5002
▁소규모	-10.5002
▁잭	-10.5003
▁갑자기	-10.5006
▁용어	-10.5008
ES	-10.5011
점을	-10.5014
▁등급	-10.5015
▁소유	-10.5016
시설	-10.5018
▁답	-10.5019
▁지형	-10.5025
▁정도로	-10.5026
코드	-10.5028
▁신화	-10.5036
values	-10.5038
▁중복	-10.5042
▁기능은	-10.5042
▁가지를	-10.5042
env	-10.5044
▁렌더링	-10.5045
펜	-10.505
▁어깨	-10.5051
▁돈	-10.5055
▁벗어나	-10.5055
▁과학자	-10.506
▁교류	-10.506
▁음료	-10.5066
▁곳을	-10.5068
▁float	-10.507
▁팁을	-10.5075
▁곱	-10.5077
▁쿠	-10.5078
▁잔	-10.5078
제는	-10.5079
▁res	-10.5079
▁클러스터	-10.5079
▁병력	-10.508
Element	-10.508
▁꿈	-10.5085
write	-10.5094
▁대중	-10.5095
▁않았다	-10.5101
▁논문	-10.5103
▁불필요한	-10.5105
▁이점	-10.5105
▁테마	-10.5112
")	-10.5113
ence	-10.5118
▁해부학적	-10.5122
Content	-10.513
▁인권	-10.5143
▁내려	-10.5145
▁입증	-10.5149
사용	-10.5149
dir	-10.515
▁곳에서	-10.5153
▁UI	-10.5153
규	-10.5153
정맥	-10.5154
▁단어의	-10.5154
돈	-10.5156
▁자세	-10.5156
▁})	-10.5157
▁접근성	-10.5158
▁진행할	-10.5158
></	-10.516
▁표현할	-10.5161
▁따져	-10.5163
▁시각적으로	-10.5172
▁제거하는	-10.5175
년간	-10.5176
▁정확도	-10.5184
ies	-10.5186
▁Azure	-10.519
▁파일에서	-10.5191
▁has	-10.5196
▁MK	-10.5197
▁흰색	-10.5207
▁발병	-10.5212
▁통증이	-10.5213
▁페이지를	-10.5214
▁빵	-10.5215
▁그렇다면	-10.5215
했는데	-10.5219
▁금기	-10.5222
▁유효한	-10.5224
▁되었기를	-10.5225
▁내원했다	-10.5229
▁런던	-10.524
비아	-10.5245
▁배양	-10.525
▁부분이	-10.5253
▁:=	-10.5258
자바스크립트	-10.5259
IP	-10.5261
▁추가하는	-10.5266
핀	-10.5268
되	-10.527
▁잊지	-10.5271
▁매장	-10.5272
널	-10.5273
▁약속	-10.5274
▁바람	-10.5275
▁출력합니다	-10.5279
ni	-10.5281
▁리드	-10.5281
▁골프	-10.5285
▁파일이	-10.5288
parse	-10.529
▁것이며	-10.5291
▁컵	-10.5292
▁보유하고	-10.5293
▁헤더	-10.5294
▁답변을	-10.5296
능	-10.5297
▁None	-10.5298
▁지역이	-10.5301
▁박사	-10.5302
트라	-10.5305
▁꼭	-10.5308
▁그녀가	-10.531
▁귀중한	-10.5312
▁서로를	-10.5312
▁유명	-10.5313
▁Java	-10.5315
▁정신적	-10.5318
▁실시간으로	-10.5328
▁미술	-10.5331
tag	-10.5331
▁노동	-10.5334
▁높아	-10.5334
식을	-10.5335
▁It	-10.5336
▁지침	-10.5339
▁마리	-10.5339
▁탐지	-10.5339
▁건강과	-10.5339
▁가지가	-10.5344
▁충족	-10.5345
▁들어가	-10.5351
겨	-10.5351
▁선별	-10.5359
▁호스트	-10.5359
▁손가락	-10.5361
▁알아보세요	-10.5365
▁{}	-10.5366
▁스캔	-10.537
탕	-10.5371
되는지	-10.5371
▁파란색	-10.5373
취	-10.5375
▁알게	-10.5376
txt	-10.538
▁대전	-10.5381
▁판	-10.5381
▁쓸	-10.5383
킨	-10.5386
▁공화국	-10.5388
▁이용한	-10.5389
▁설명하지	-10.5391
▁모여	-10.5392
▁지출	-10.5396
▁요소의	-10.5396
해질	-10.5398
▁};	-10.5398
▁복합	-10.5399
시킨	-10.54
▁쓰이는	-10.5401
▁부작용을	-10.5403
분간	-10.5404
뜨	-10.5406
▁본문	-10.5406
▁인기를	-10.5409
▁검토하고	-10.5418
콜	-10.5421
▁감소를	-10.5428
셀	-10.5428
Number	-10.5432
▁림프절	-10.5433
▁버스	-10.5437
▁분위기	-10.5439
▁순위	-10.5441
▁도쿄	-10.5443
피트	-10.5443
감염	-10.5445
▁target	-10.5447
SS	-10.5449
▁곳에	-10.5451
▁관찰되었다	-10.5452
학교	-10.5453
▁슬	-10.5453
▁소유자	-10.5455
넘	-10.5455
▁마무리	-10.5456
잡	-10.5457
▁달성하는	-10.5457
수가	-10.5462
src	-10.5462
auth	-10.5465
MS	-10.5468
▁계산하는	-10.5469
▁콩	-10.5473
close	-10.5473
\"	-10.5474
▁둘째	-10.5474
▁their	-10.5476
저는	-10.5477
▁복사	-10.5477
▁복구	-10.5481
▁인력	-10.5481
▁부작용이	-10.5481
ca	-10.5482
틱	-10.5483
▁관측	-10.5486
ge	-10.5487
\_\_	-10.549
root	-10.5494
잔	-10.5495
▁보건	-10.5499
모든	-10.55
Index	-10.5501
(`	-10.5502
▁한다고	-10.5503
view	-10.5504
AP	-10.5504
▁시작하고	-10.551
▁계좌	-10.5512
▁잡힌	-10.5512
스키	-10.5515
▁질량	-10.5515
▁보유	-10.5519
▁이어지는	-10.552
걸	-10.5522
되나요	-10.5526
▁시작하여	-10.5527
▁완전한	-10.553
▁양파	-10.5535
▁구분해야	-10.5538
ok	-10.5539
pro	-10.5543
▁글쓰기	-10.5543
▁프로그램에	-10.5544
Array	-10.5544
주차	-10.5546
▁칸	-10.5548
놀	-10.5548
bin	-10.5549
▁탐구	-10.555
page	-10.555
▁값은	-10.5551
▁작품은	-10.5555
▁일상적인	-10.556
▁패널	-10.5561
▁무엇이며	-10.5563
▁얻는	-10.5565
롭	-10.5566
▁신생아	-10.5566
▁지역사회	-10.5566
▁결론적으로	-10.5569
▁확정	-10.5574
▁설명은	-10.5579
▁에피소드	-10.5579
▁가는	-10.558
▁포도당	-10.558
▁위장관	-10.5583
The	-10.5583
▁설정하는	-10.5583
▁공포	-10.5583
▁조달	-10.5584
AS	-10.5587
▁보증	-10.5587
Table	-10.5591
럼	-10.5593
group	-10.5595
레스	-10.5596
ator	-10.5599
▁심근	-10.5599
▁점수를	-10.5602
▁회로	-10.5602
▁컨텍스트	-10.5605
▁빛을	-10.5608
▁술	-10.5609
▁빌	-10.5609
▁척추	-10.561
▁상호작용을	-10.5611
▁것보다	-10.5611
▁임대	-10.5612
▁아트	-10.5612
labels	-10.5613
AR	-10.5615
▁선정	-10.5616
▁원소	-10.5619
▁생명	-10.5619
▁못할	-10.5619
▁수요	-10.5621
▁지수	-10.5622
▁다양성을	-10.5624
img	-10.5626
word	-10.5626
▁관계에	-10.5627
▁넣어	-10.5629
'])	-10.5629
증후군	-10.5632
▁주입	-10.5632
▁엔터테인먼트	-10.5636
▁추가로	-10.5637
▁의류	-10.5637
▁놓	-10.5639
pa	-10.5641
▁평가하기	-10.5645
▁쉽고	-10.5645
▁구매할	-10.5645
}```	-10.5646
▁매년	-10.565
():	-10.5652
▁퍼	-10.5652
▁작전	-10.5654
▁개인화된	-10.5658
ill	-10.566
▁일치하는	-10.5661
google	-10.5661
▁main	-10.5661
▁잠시	-10.5666
▁링크를	-10.5667
SA	-10.5668
▁우리나라	-10.5672
▁적혈구	-10.5673
▁여름	-10.5674
제품	-10.5675
▁사항은	-10.5676
▁동기를	-10.5676
▁되나요	-10.5677
▁영역을	-10.5679
▁하늘	-10.5679
▁있었고	-10.5682
▁시대에	-10.5682
▁레이블	-10.5688
지지	-10.5689
벨	-10.5692
▁처치	-10.5694
ary	-10.5695
▁투자자	-10.5699
▁차이	-10.57
▁천연	-10.5706
▁네덜란드	-10.5709
▁배우는	-10.5713
\_\_\_\_\_\_\_\_	-10.5715
▁각각의	-10.5715
척	-10.5717
▁야채	-10.5721
Node	-10.5724
드는	-10.5724
▁공사	-10.5728
▁하므로	-10.5729
이니	-10.5731
▁설	-10.5732
▁필요하면	-10.5736
▁제한적	-10.5739
▁학업	-10.5742
Result	-10.5748
Size	-10.5753
My	-10.5753
▁변수에	-10.5755
▁직무	-10.5757
닝	-10.5758
숙	-10.5764
▁대조	-10.5766
▁방광	-10.5767
▁len	-10.5768
Event	-10.5771
▁부과	-10.5772
여기서	-10.5774
▁SEO	-10.5775
▁업체	-10.5778
▁단계에서	-10.5778
어느	-10.5778
▁가져올	-10.5781
▁등장하는	-10.5781
▁값으로	-10.5781
▁세계를	-10.5782
▁규정을	-10.5783
▁플레이어	-10.5786
▁역사를	-10.5786
▁시행할	-10.5789
▁금연	-10.579
Order	-10.5796
▁연구가	-10.5805
하기도	-10.5806
▁문제와	-10.5809
▁기부	-10.5811
조의	-10.5812
ir	-10.5812
▁복원	-10.5815
))	-10.5818
▁상자	-10.5821
▁건축업자	-10.5824
▁살아	-10.5824
▁너비	-10.5825
pos	-10.5827
ess	-10.5832
left	-10.5833
▁확인된	-10.5834
▁단기	-10.5835
▁사망률	-10.5841
▁엘	-10.5843
▁출력을	-10.5843
▁생산성	-10.5845
▁시스템과	-10.5846
▁평가합니다	-10.5847
MA	-10.5851
▁감소와	-10.5851
▁멕시코	-10.5853
save	-10.5858
▁존중	-10.5862
톨	-10.5862
선을	-10.5863
update	-10.5864
▁자리한	-10.5864
▁시청	-10.5864
Log	-10.5865
▁수치를	-10.5865
▁요리를	-10.5867
ke	-10.5867
▁HTTP	-10.587
▁외상	-10.587
▁임포트	-10.5875
▁시장에	-10.5879
▁update	-10.5886
▁content	-10.5889
▁실행합니다	-10.589
▁event	-10.589
au	-10.589
▁JavaScript	-10.5891
랜	-10.5891
영화	-10.5892
▁스타	-10.5893
next	-10.5904
▁경우에	-10.5907
▁없으면	-10.5908
▁세트를	-10.5908
▁전이	-10.5911
▁부담을	-10.5913
▁건가요	-10.5913
▁세상에	-10.5913
▁index	-10.5917
▁CSV	-10.5918
▁과다	-10.5918
기간	-10.5919
다니	-10.592
▁개발을	-10.5923
▁치료와	-10.5924
header	-10.5925
▁추가하고	-10.5926
설명	-10.5928
▁메커니즘	-10.5929
▁먹을	-10.593
▁주소로	-10.5933
▁경험에	-10.5936
▁첫째	-10.5936
mg	-10.5938
Field	-10.594
▁폴더	-10.5942
풀	-10.5942
▁휴가	-10.5946
▁체결	-10.5947
PS	-10.5947
▁학생들에게	-10.5948
▁즉각적인	-10.5948
▁자체가	-10.5948
▁수영	-10.595
ig	-10.595
▁잎	-10.5954
}	-10.5956
▁참가	-10.5957
▁재활	-10.5957
▁상황과	-10.5957
SC	-10.5958
▁영화는	-10.596
▁개요를	-10.5966
order	-10.5966
▁과제를	-10.5971
▁각도	-10.5971
▁예외	-10.5972
action	-10.5972
▁밝은	-10.5979
▁작물	-10.5981
▁결정에	-10.5983
last	-10.5984
▁message	-10.5984
▁내용이	-10.5985
▁집합을	-10.5987
협	-10.5988
▁인식하고	-10.5988
▁기술적	-10.5996
▁확산	-10.5996
▁약화	-10.5999
▁지진	-10.5999
▁않기	-10.6002
▁지정합니다	-10.6005
▁있어도	-10.6006
▁없지만	-10.6007
▁표현을	-10.6007
▁인식을	-10.6008
▁쉬	-10.6011
LE	-10.6013
▁낙	-10.6014
▁확인하여	-10.6016
nn	-10.6017
▁면	-10.6018
:'''	-10.602
▁권한이	-10.602
▁동사	-10.6022
Component	-10.6026
================	-10.6027
▁폭발	-10.6028
Response	-10.6029
red	-10.6029
▁구조적	-10.603
▁try	-10.603
▁말하는	-10.6031
▁정밀	-10.6031
▁토큰을	-10.6032
▁드라이브	-10.6035
가장	-10.6036
▁식량	-10.6037
▁${	-10.6041
▁장치를	-10.6042
tic	-10.6043
▁글꼴	-10.6045
▁지도자	-10.6047
▁어두운	-10.6051
이었는지를	-10.6053
▁이익을	-10.6059
▁에세이	-10.6059
▁실내	-10.606
▁저렴한	-10.6062
▁발매	-10.6064
▁request	-10.6065
act	-10.6066
▁시술	-10.6067
▁소수	-10.6071
▁변환합니다	-10.6075
▁측정하는	-10.6078
▁주파수	-10.6079
▁것인지	-10.6079
▁공용	-10.6081
▁복	-10.6081
ay	-10.6083
▁테이블에	-10.6086
▁친화적인	-10.6092
▁방문하였다	-10.6092
▁z	-10.6095
number	-10.6098
▁과정이	-10.61
▁이번	-10.6105
pred	-10.6106
▁유일한	-10.6107
▁무작위	-10.6109
▁심리적	-10.6111
▁단락	-10.6112
▁이중	-10.6113
시키기	-10.6115
▁물리	-10.6116
▁전부터	-10.6116
range	-10.6119
▁봉	-10.6122
▁대처	-10.6122
▁일어난	-10.6124
▁심부전	-10.6126
▁used	-10.6126
거야	-10.6128
▁정당	-10.6129
▁활동한	-10.6129
▁가족과	-10.6131
rs	-10.6131
OS	-10.6134
▁async	-10.6138
▁마늘	-10.6141
▁언어로	-10.6142
▁채팅	-10.6142
▁조건이	-10.6144
▁주고	-10.6149
▁계약을	-10.6149
▁기여	-10.6151
▁신중하게	-10.6153
▁행복	-10.6153
▁플랫폼에서	-10.6157
ct	-10.6157
▁단계에	-10.6158
▁FROM	-10.6159
혀	-10.6161
▁내시경	-10.6161
▁권리를	-10.6162
▁시점	-10.6163
필드	-10.6164
▁수집하고	-10.6168
▁보낼	-10.617
▁영화를	-10.6171
▁양쪽	-10.6171
▁인스턴스를	-10.6172
▁은퇴	-10.6177
▁예측하는	-10.6178
▁개발할	-10.6182
ph	-10.6183
리고	-10.6183
random	-10.6183
쇼	-10.6184
▁못하고	-10.6186
번호	-10.6187
▁보장하기	-10.6187
쳐	-10.6192
▁사회의	-10.6202
▁사용하려면	-10.6205
▁품질을	-10.6207
▁연결되어	-10.6209
▁남부	-10.6212
RA	-10.6213
▁가치와	-10.6215
ng	-10.6215
았습니다	-10.6224
▁일관성	-10.6225
▁생명체	-10.6228
▁습관을	-10.6228
▁메시지가	-10.6229
▁패키지를	-10.623
▁기꺼이	-10.6232
▁color	-10.6232
▁드리겠습니다	-10.6236
▁감염병	-10.6238
▁/>	-10.6239
ag	-10.624
be	-10.624
텔	-10.624
대학	-10.6241
▁장소를	-10.6242
다른	-10.6251
▁설명하고	-10.6254
시스	-10.6256
빌	-10.6257
▁권	-10.6257
▁마스터	-10.6258
▁적합하다	-10.626
▁어머니	-10.6263
▁설정할	-10.6265
▁당신은	-10.6266
top	-10.6268
▁땅	-10.6273
▁살펴봐야겠	-10.6274
▁작고	-10.6276
▁숨겨진	-10.6278
▁정부는	-10.6279
API	-10.6279
▁현상을	-10.6281
▁집합	-10.6281
▁프로모션	-10.6283
▁하이	-10.6289
▁암호화폐	-10.6292
▁아래에	-10.6292
push	-10.6295
▁작업의	-10.6295
ot	-10.6297
by	-10.6298
▁잡	-10.6299
넷	-10.63
▁윤	-10.63
▁받지	-10.63
▁참여할	-10.63
▁영웅	-10.6301
▁스토리지	-10.6304
그런	-10.6305
리지	-10.6306
▁코드에서	-10.6308
페이지	-10.6308
▁슈	-10.631
ie	-10.631
▁데이터는	-10.631
▁민족	-10.6312
DE	-10.6312
로스	-10.6313
▁집에서	-10.6314
이렇게	-10.6314
▁사건을	-10.6317
▁제외	-10.6317
▁비즈니스에	-10.6322
칼	-10.6323
true	-10.6323
▁인터뷰	-10.6326
서비스	-10.6327
',	-10.6329
해서는	-10.6333
▁고품질	-10.6335
▁나열	-10.6336
▁수정할	-10.6338
▁태도	-10.6338
▁주행	-10.6339
'].	-10.6342
▁보내는	-10.6342
▁초과	-10.6342
▁당신이	-10.6343
▁string	-10.6344
렉	-10.6345
쓰	-10.6346
폰	-10.6348
▁공유하는	-10.6348
개를	-10.6351
하겠습니다	-10.6351
▁학생의	-10.6355
▁위치와	-10.6357
▁<<	-10.6357
▁되기	-10.6357
▁얻기	-10.6358
▁나트륨	-10.6358
▁의도	-10.6366
▁복잡	-10.6366
▁높여	-10.6366
▁생물학적	-10.6367
▁탭	-10.6368
▁균	-10.6368
우리	-10.6372
갔	-10.6373
입력	-10.6375
▁문헌	-10.6376
▁식별합니다	-10.6377
▁연관	-10.638
▁동영상을	-10.6381
▁속도가	-10.6381
▁차이점	-10.6383
▁측면을	-10.6383
▁번에	-10.6384
▁나가	-10.6386
▁함수에	-10.6386
▁플레이어는	-10.6389
▁실행하는	-10.6391
▁온실가스	-10.6393
▁심전도	-10.6393
▁사람들	-10.6394
▁놀	-10.6397
▁그룹을	-10.6398
▁관리가	-10.6399
▁있었어요	-10.6399
▁떠나	-10.6399
▁남긴	-10.6399
▁방지하기	-10.6401
▁백혈구	-10.6402
▁만족도	-10.6403
▁page	-10.6403
▁표시하는	-10.6403
▁연락처	-10.6404
▁선택하여	-10.6407
▁form	-10.6407
▁개선을	-10.641
때	-10.641
▁앞에	-10.6411
▁->	-10.6415
▁빨간색	-10.6418
법을	-10.6419
▁단위로	-10.642
shape	-10.642
▁많아	-10.6428
▁효과에	-10.6428
▁원칙을	-10.6428
▁제품이나	-10.6432
▁염증을	-10.6432
▁반복합니다	-10.6434
▁컴포넌트	-10.6435
▁것의	-10.6437
▁참가자	-10.6438
▁평가한다	-10.6441
▁배경을	-10.6441
▁파악	-10.6442
▁낸	-10.6446
▁부정	-10.6446
▁장관	-10.6451
▁기간이	-10.6452
export	-10.6453
▁역할에	-10.6458
▁맞서	-10.6461
▁무게	-10.6463
▁고르는	-10.6464
▁분만	-10.6464
▁식별하는	-10.6468
▁스택	-10.6468
▁미만	-10.6469
▁pro	-10.6473
▁make	-10.6474
son	-10.6474
▁고등학교	-10.6476
▁년도에	-10.6482
▁가격이	-10.6487
▁권력	-10.6487
▁겨울	-10.6494
텐	-10.6496
▁왕국	-10.6496
▁상대방의	-10.6499
▁물으니	-10.6499
▁이해관계자	-10.6502
▁useState	-10.6504
▁거짓	-10.6509
▁경우도	-10.651
▁높인다	-10.6515
Code	-10.6515
▁월드컵	-10.6517
▁트랜잭션	-10.6521
▁항공	-10.6522
▁애플리케이션에	-10.6524
Path	-10.6526
기술	-10.6529
run	-10.653
▁가능하게	-10.6532
res	-10.6535
▁서술하시오	-10.6538
나라	-10.6539
▁네트워킹	-10.6542
▁과정에	-10.6542
filter	-10.6542
▁고개를	-10.6546
▁로고	-10.6547
▁브라질	-10.6551
▁국립	-10.6557
▁컨트롤러	-10.6557
▁미래에	-10.6558
▁윤리	-10.6558
▁비만	-10.6563
▁전국	-10.6568
▁타입	-10.657
어떤	-10.6572
car	-10.658
▁비판	-10.6588
▁마련	-10.6589
▁옮겨	-10.659
▁정적	-10.6591
▁봅시다	-10.6591
field	-10.6593
얼	-10.6594
▁비롯한	-10.6597
▁경과	-10.6599
▁레이아웃	-10.6602
▁기독교	-10.6604
▁물에	-10.6605
▁계산할	-10.6606
Add	-10.6609
description	-10.6609
▁블랙	-10.661
육	-10.6611
▁식민지	-10.6612
▁도구가	-10.6618
▁plt	-10.6618
▁핵심이다	-10.6619
▁엔드포인트	-10.662
▁언론	-10.6621
▁취	-10.6623
▁못하는	-10.6624
까지의	-10.6624
▁위험에	-10.663
AM	-10.6631
▁우울	-10.6631
▁않지만	-10.6633
컬	-10.6635
---	-10.6635
▁중요성에	-10.6636
▁노트북	-10.6638
▁없으므로	-10.6639
▁관계없이	-10.6639
▁client	-10.6639
features	-10.6644
▁발명	-10.6645
▁색상을	-10.6645
아이	-10.6646
▁놀이	-10.6647
dev	-10.6647
▁As	-10.6648
▁임상적	-10.6649
졸	-10.665
▁스트리밍	-10.6651
▁야외	-10.6654
▁싶어	-10.6655
▁일부는	-10.6656
▁줄인다	-10.6658
▁음주	-10.666
▁all	-10.6664
▁아주	-10.6668
▁학습을	-10.6669
RT	-10.6679
▁프레젠테이션	-10.6682
하여야	-10.6684
▁궤양	-10.6685
▁주의를	-10.6687
▁슈퍼	-10.6688
지면	-10.669
▁간주	-10.6691
▁계란	-10.6693
▁오전	-10.6695
▁후기	-10.6697
허	-10.6698
location	-10.6699
▁푸	-10.6699
▁치과	-10.6704
▁맥락에서	-10.671
▁수액	-10.6711
▁명소	-10.6711
▁뷰	-10.6712
었다	-10.6712
▁존재하는	-10.6712
▁할까요	-10.6716
▁유산	-10.6717
▁물체	-10.672
▁사용한다	-10.6726
▁지각	-10.6736
▁가능하다	-10.6737
▁안정적인	-10.6742
▁수상	-10.6743
▁주어지면	-10.6747
▁진단과	-10.6747
▁옵션이	-10.6749
▁캠페인을	-10.675
Column	-10.6752
▁교육과	-10.6755
▁번째로	-10.6757
▁뿐이며	-10.6758
MP	-10.6759
베이	-10.6763
▁관리와	-10.6763
np	-10.6763
▁저하를	-10.6764
▁위험한	-10.6766
▁중대한	-10.677
▁해리	-10.6772
▁개발합니다	-10.6774
▁업그레이드	-10.6776
▁듣고	-10.6776
▁설명하기	-10.6778
▁차지	-10.678
▁집중할	-10.6782
▁협회	-10.6785
▁동물의	-10.6787
문화	-10.6788
ry	-10.6791
▁예방하는	-10.6792
▁굴	-10.6792
▁학생들의	-10.6794
▁요건	-10.6799
▁있었던	-10.6802
▁여정을	-10.6803
For	-10.6804
졌	-10.6806
시는	-10.681
대로	-10.681
콘	-10.6812
▁허리	-10.6812
▁아기	-10.6812
▁휴	-10.6815
▁그룹에	-10.6815
예를	-10.6818
▁배제	-10.6822
▁정해진	-10.6825
▁않거나	-10.6825
▁양측	-10.6826
▁불교	-10.6829
▁레코드	-10.6831
▁피해를	-10.6831
▁부문	-10.6832
▁보여줄	-10.6832
▁대표하는	-10.6832
▁공급망	-10.6835
서를	-10.6836
position	-10.6836
▁설계된	-10.6837
▁좋아요	-10.684
VM	-10.684
튼	-10.6841
사의	-10.6843
▁주시겠습니까	-10.6843
▁연극	-10.6847
▁낮다	-10.6849
▁표기	-10.6853
▁몸	-10.6853
옥	-10.6856
▁설문조사	-10.6858
▁누구	-10.6859
▁전략적	-10.6859
▁기분	-10.6859
▁남아가	-10.686
old	-10.6864
▁활용하는	-10.6864
▁거울	-10.6865
▁문맥	-10.6868
▁등에서	-10.6868
▁통치	-10.687
__(	-10.6875
▁이하	-10.6875
▁뉴	-10.688
▁아티스트	-10.6885
군의	-10.6887
req	-10.6889
▁편견	-10.6893
▁사용하거나	-10.6894
서는	-10.6897
▁조약	-10.6898
▁특징이	-10.69
▁제안을	-10.6901
▁지속되는	-10.6903
do	-10.6904
▁신경망	-10.6905
▁구성하는	-10.6906
▁{"	-10.6907
▁의심되는	-10.691
려는	-10.691
▁기업가	-10.6911
한다면	-10.6912
▁보이지	-10.6913
▁제거하고	-10.6917
▁확진	-10.6918
▁골수	-10.6918
▁전략은	-10.6919
▁초콜릿	-10.6922
▁주인공	-10.6922
info	-10.6922
▁경찰	-10.6923
▁승	-10.6924
▁인사	-10.6925
▁후반	-10.6932
▁소리가	-10.6932
plot	-10.6935
▁되지	-10.6935
▁조항	-10.6935
▁other	-10.6936
▁합병증을	-10.6938
▁옛날	-10.6941
▁뇌졸중	-10.6943
만큼	-10.6943
▁있음	-10.6944
▁허브	-10.6945
address	-10.6946
▁부드럽게	-10.6946
▁현장	-10.6949
▁단어가	-10.695
물질	-10.6952
▁정하는	-10.6952
▁달걀	-10.6954
▁파악합니다	-10.6955
▁계시는	-10.6955
▁원본	-10.6958
▁대변	-10.6959
▁여러분	-10.696
▁시대의	-10.6961
▁more	-10.6967
▁책은	-10.6972
▁내용은	-10.6973
되었다는	-10.6973
weight	-10.6974
▁스레드	-10.6977
CA	-10.6984
▁보이며	-10.6985
▁시퀀스	-10.6985
▁any	-10.6985
▁주소를	-10.6989
▁간격	-10.6991
▁진정	-10.6991
▁태어났습니다	-10.6992
▁영향은	-10.6992
▁획득	-10.6992
CO	-10.6993
▁가벼운	-10.6995
▁사용하도록	-10.6998
▁백엔드	-10.7001
▁자외선	-10.7001
제목	-10.7002
셋	-10.7004
▁정의하는	-10.7006
▁거친	-10.7009
▁시사한다	-10.701
▁물리학	-10.7013
format	-10.7013
▁체온	-10.7014
▁맞춘	-10.7014
ho	-10.702
라고도	-10.702
▁저혈압	-10.702
▁std	-10.7021
▁맛	-10.7021
▁받기	-10.7022
아웃	-10.7023
▁참석	-10.7023
board	-10.7026
▁이와	-10.7027
frac	-10.7028
▁간염	-10.7028
▁YouTube	-10.703
▁비유	-10.703
▁row	-10.7031
▁밥	-10.7031
▁따르는	-10.7032
하기로	-10.7034
▁시야	-10.7036
▁필요성을	-10.7036
▁가져	-10.7038
▁최초로	-10.7042
▁이하의	-10.7042
혈관	-10.7043
▁병력이	-10.7043
춘	-10.7044
▁자유롭게	-10.7045
▁곡	-10.7048
▁어휘	-10.7051
랄	-10.7054
▁보호를	-10.7054
▁음반	-10.7055
▁style	-10.7056
병증	-10.7056
▁타이	-10.7057
▁당사자	-10.7059
▁농	-10.7059
▁안정성을	-10.7062
▁위험과	-10.7064
▁부위에	-10.7065
▁채널을	-10.7067
▁털	-10.7067
이메일	-10.7068
▁output	-10.7069
▁선택은	-10.7075
▁전류	-10.7076
▁보게	-10.7077
ical	-10.7077
▁도울	-10.7078
▁연산	-10.7079
IF	-10.7079
▁얻고	-10.7082
▁언제부터	-10.7082
▁붙여	-10.7082
▁기관지	-10.7084
▁계정을	-10.7084
있	-10.7088
▁비상	-10.7089
ha	-10.7089
core	-10.709
▁전원	-10.7091
일본	-10.7093
active	-10.7093
▁생선	-10.7095
▁보안을	-10.7097
리스트	-10.7098
▁떠난	-10.7101
원을	-10.7101
dict	-10.7103
▁결석	-10.7104
▁예방에	-10.7104
press	-10.7108
상태	-10.7109
지기	-10.7112
:\	-10.7112
바로	-10.7112
하다는	-10.7113
▁염증성	-10.7115
▁문제로	-10.712
군이	-10.712
▁단계입니다	-10.7126
▁영어로	-10.7133
▁신문	-10.7134
▁강하게	-10.7135
▁열고	-10.7136
▁단계에서는	-10.7136
▁존재하지	-10.7137
▁갖는	-10.7141
▁지정할	-10.7142
▁경련	-10.7142
▁취하는	-10.7153
▁json	-10.7153
params	-10.7153
▁머	-10.7155
▁해결하고	-10.7156
▁인류	-10.7157
site	-10.716
▁연구의	-10.7161
▁요인을	-10.7161
')	-10.7163
▁트리거	-10.7166
▁필드를	-10.7166
▁키워드를	-10.7167
▁역량	-10.7168
▁디렉터리	-10.7169
▁전공	-10.717
▁증식	-10.7173
▁농구	-10.7173
]]	-10.7175
▁입자	-10.7177
tin	-10.7177
들도	-10.7178
▁세척	-10.7179
냐	-10.7181
Stream	-10.7182
▁반복적인	-10.7185
▁가중치	-10.7186
Map	-10.7188
base	-10.7189
▁인자	-10.7189
▁플랫폼은	-10.7189
▁물질을	-10.7189
닌	-10.719
▁유기	-10.7193
▁안정성	-10.7194
▁들고	-10.7195
ell	-10.7196
▁전후	-10.72
▁클	-10.7202
▁민간	-10.7204
▁확장성	-10.7205
▁이루어집니다	-10.7207
▁복잡하고	-10.7207
ase	-10.7211
▁면접	-10.7212
갑니다	-10.7215
▁서비스는	-10.7216
▁시행해야	-10.7219
▁사용이	-10.7223
▁모습	-10.7226
▁was	-10.7229
▁증가와	-10.7233
▁주어졌을	-10.7233
▁인상	-10.7235
▁번식	-10.7236
▁장애를	-10.7236
":"	-10.7237
▁협착	-10.7237
▁NOT	-10.7238
django	-10.7238
▁유튜브	-10.7238
..."	-10.7239
▁팀에	-10.7239
▁비용은	-10.724
▁제조업체	-10.7241
▁이루어져	-10.7248
▁가구	-10.7249
▁목적과	-10.725
▁캡처	-10.7251
▁하세요	-10.7252
▁그림자	-10.7252
▁크기의	-10.7254
▁저장소	-10.7255
▁감염이	-10.7259
계획	-10.7259
ure	-10.7259
▁부족하다	-10.726
스카	-10.726
▁소녀	-10.7261
▁횟수	-10.7261
Start	-10.7261
▁모양을	-10.7261
▁강도	-10.7261
에만	-10.7262
탑	-10.7265
▁발급	-10.7265
되지만	-10.7266
oc	-10.7267
▁구간	-10.7267
▁수리	-10.7269
해도	-10.7269
▁게임의	-10.727
▁제공함으로써	-10.7273
▁집안	-10.7274
▁변화하는	-10.7277
▁이해와	-10.7278
▁철도	-10.7279
ak	-10.7283
▁회계	-10.7283
▁정부의	-10.7289
▁비율을	-10.7289
▁대통령이	-10.729
▁노력이	-10.7291
remove	-10.7293
▁영국의	-10.7294
▁자금을	-10.7295
▁유출	-10.7298
▁Windows	-10.7298
▁설계되었습니다	-10.73
이기도	-10.73
▁신념	-10.7302
▁장비를	-10.7303
▁취하고	-10.7306
▁출발	-10.7307
▁구토	-10.7308
▁펜	-10.7308
덴	-10.7314
▁지나치게	-10.7314
▁귀하의	-10.7318
▁해시	-10.732
"{	-10.7321
▁추구	-10.7322
▁속한	-10.7328
▁탈출	-10.7328
height	-10.7329
▁이점이	-10.7331
▁연락	-10.7331
▁받아야	-10.7333
▁관점	-10.7335
▁아일랜드	-10.7336
▁반환하는	-10.7336
▁FC	-10.7339
▁증진	-10.7339
▁마우스	-10.734
느	-10.7342
▁직접적으로	-10.7344
▁구현할	-10.7345
▁회사를	-10.735
▁관계가	-10.7351
▁고통	-10.7353
▁주장합니다	-10.7354
▁증가하고	-10.7354
▁못했습니다	-10.7354
스러운	-10.7355
▁url	-10.7357
▁곡이	-10.7357
▁담당자	-10.7358
▁나타낼	-10.7359
▁공감	-10.7361
box	-10.7363
선택지를	-10.7363
▁list	-10.7367
▁유형에	-10.7369
뇌	-10.7369
▁시작하세요	-10.7371
▁말했다	-10.7371
▁카드를	-10.7371
ue	-10.7371
▁관상동맥	-10.7373
▁타고	-10.7377
▁연결하는	-10.7377
Update	-10.7378
▁맞습니다	-10.7384
▁호스팅	-10.7391
ach	-10.7391
▁비공개	-10.7392
▁살고	-10.7395
send	-10.7397
▁샐러드	-10.7397
▁피해야	-10.7401
▁않으므로	-10.7404
po	-10.7407
▁실수	-10.7408
git	-10.7409
▁구입	-10.7413
▁침해	-10.7417
▁포트폴리오	-10.7417
▁위성	-10.742
tra	-10.7421
▁떨어져	-10.7423
▁전역	-10.7424
▁나타났습니다	-10.7426
▁되면	-10.7428
▁일관되게	-10.7429
▁학문	-10.743
IS	-10.7432
조직	-10.7433
▁제임스	-10.7433
ref	-10.7434
▁의사는	-10.7434
α	-10.7435
▁포함되어야	-10.7438
▁뜻하는	-10.7438
▁반영	-10.7439
▁진출	-10.744
▁목적지	-10.7445
▁슬라이드	-10.7445
▁중에는	-10.7446
▁조지	-10.7447
▁보고서를	-10.7448
▁인용	-10.7451
▁문제의	-10.7452
▁예측할	-10.7453
▁편향	-10.7455
MO	-10.7457
▁학교에서	-10.746
▁지점	-10.746
pr	-10.7461
▁애플리케이션에서	-10.7462
▁기존의	-10.7463
ids	-10.7465
▁요인이	-10.7466
▁불안정	-10.7466
닐	-10.7469
▁다르게	-10.747
▁예제에서	-10.7473
Query	-10.7474
▁믿습니다	-10.7474
▁억제하는	-10.7475
▁목록이	-10.7476
잉	-10.7478
▁유의해야	-10.7481
▁헌신	-10.7483
졌습니다	-10.7487
▁최소화	-10.7488
▁이웃	-10.7494
텍스트	-10.7494
▁도서관	-10.7494
▁한계	-10.7497
▁그룹이	-10.7498
▁독자	-10.7503
▁다진	-10.7505
▁증상의	-10.7505
▁경우에도	-10.7505
일을	-10.7505
▁뭐지	-10.7509
▁세계의	-10.751
▁트렌드	-10.751
▁핀	-10.7514
인치	-10.7518
▁이끈	-10.7519
▁코치	-10.752
▁제공업체	-10.7521
▁전해질	-10.7525
▁체	-10.7526
▁주어	-10.7528
BC	-10.7528
▁about	-10.7531
▁강화하는	-10.7532
▁연간	-10.7532
▁Apple	-10.7532
▁심박수	-10.7539
▁소련	-10.754
Is	-10.7543
▁높고	-10.7546
PO	-10.7546
되었을	-10.7549
▁무선	-10.7549
▁죽음	-10.755
▁북한	-10.7552
▁중국의	-10.7562
기로	-10.7562
server	-10.7562
▁위험도	-10.7562
디아	-10.7565
▁바나나	-10.7568
▁페이지에	-10.7569
▁이산화탄소	-10.7569
’	-10.7571
service	-10.7573
▁random	-10.7575
▁부산	-10.7578
▁하나를	-10.7578
▁조기에	-10.7583
▁시계	-10.7586
▁모듈을	-10.7586
▁예정	-10.7587
matrix	-10.7591
핵	-10.7594
▁먼지	-10.7595
▁접근할	-10.7596
▁협력을	-10.7597
▁콜레스테롤	-10.7598
장은	-10.7601
▁천천히	-10.7604
▁일으키는	-10.7604
▁산책	-10.7606
▁감성	-10.7608
갑	-10.7609
▁element	-10.761
cor	-10.761
▁파트너십	-10.761
Hello	-10.7611
▁말은	-10.7611
container	-10.7612
▁발사	-10.7613
▁자체를	-10.7614
게임	-10.7614
▁악기	-10.7616
▁탐사	-10.7618
▁help	-10.7621
▁노선	-10.7621
▁보장하는	-10.7622
효	-10.7624
▁CD	-10.7625
ms	-10.7627
▁붉은	-10.763
▁시간은	-10.7631
▁도덕적	-10.7632
▁풀어	-10.7633
맥	-10.7633
▁단계로	-10.7636
▁왕이	-10.7639
False	-10.764
▁process	-10.7641
▁산화	-10.7646
▁문자를	-10.7647
▁이르기까지	-10.765
▁빈도	-10.7656
빙	-10.7657
▁handle	-10.7659
ST	-10.766
▁입력을	-10.7662
▁전달합니다	-10.7665
void	-10.7666
▁작용하는	-10.7668
▁드는	-10.7668
▁폭력	-10.7672
▁논리	-10.7674
▁개인적	-10.7674
▁차원	-10.7675
▁(!	-10.7678
▁대표팀	-10.768
▁떠	-10.7681
▁관객	-10.7682
▁거주	-10.7684
▁재미있는	-10.7688
ui	-10.7689
객	-10.769
▁예산을	-10.7691
▁그냥	-10.7694
▁원활하게	-10.7697
▁지낸	-10.7698
ize	-10.77
▁관심사	-10.7701
▁also	-10.7703
▁관행	-10.7706
▁연출	-10.7707
▁유용할	-10.7708
▁나라를	-10.7713
▁지질	-10.7714
loss	-10.7714
▁명이	-10.7714
▁녹음	-10.7715
▁격려	-10.7717
▁조사를	-10.7722
Controller	-10.7723
▁전형적인	-10.7724
검	-10.7724
▁신규	-10.7725
반응	-10.7726
▁정식	-10.7727
▁연도	-10.7729
겐	-10.7729
▁고도	-10.773
플라	-10.7731
▁없다고	-10.7735
밍	-10.7735
라이	-10.7739
▁연합	-10.7741
▁이동하여	-10.7741
▁공항	-10.7744
▁독점	-10.7746
images	-10.7746
mask	-10.7748
SP	-10.7751
▁요소로	-10.7752
▁다양합니다	-10.7752
▁l	-10.7753
▁맨	-10.7754
▁행렬	-10.7757
▁조직을	-10.7758
▁피하고	-10.7759
홀	-10.7761
▁타임	-10.7765
빛	-10.7766
▁매체	-10.7767
효소	-10.7767
▁거래를	-10.7768
▁구할	-10.7771
▁기회가	-10.7771
▁벤	-10.7773
▁업데이트를	-10.7775
킬	-10.7778
▁결정할	-10.7778
▁방영	-10.7779
차원	-10.7781
▁움직임을	-10.7782
▁형태를	-10.7786
TE	-10.7787
헤	-10.7787
선택	-10.7788
▁꿈을	-10.779
▁거대한	-10.7791
원이	-10.7793
▁case	-10.7794
▁숙련된	-10.7797
▁취득	-10.7797
탐	-10.7799
▁보충제	-10.7799
▁멀티	-10.7803
▁신앙	-10.7804
▁민	-10.7804
▁삶에	-10.7804
스티	-10.781
▁사용되고	-10.7815
▁설사	-10.7816
기의	-10.7816
평가	-10.7818
▁물건을	-10.7819
▁위원회	-10.7821
▁정복	-10.7822
▁이행	-10.7823
round	-10.7823
▁짚어야	-10.7824
▁구성원	-10.7825
▁서비스가	-10.7825
▁입력합니다	-10.783
▁추진	-10.783
DA	-10.7833
▁기전	-10.7834
▁구성됩니다	-10.7835
▁입각한	-10.7836
▁수술적	-10.7837
)}	-10.7837
▁닫	-10.7841
▁True	-10.7841
▁스토리를	-10.7845
▁클릭합니다	-10.7845
들로	-10.7845
▁폴	-10.7846
▁지원할	-10.7846
▁형제	-10.7848
▁외국	-10.785
▁다중	-10.785
host	-10.7852
step	-10.7856
▁이집트	-10.7856
▁이루는	-10.7856
▁오늘날	-10.7861
▁생각하는	-10.7862
▁긴급	-10.7862
▁나와	-10.7865
▁단점	-10.7866
▁알림을	-10.7866
ud	-10.7866
이거나	-10.7867
▁이온	-10.7873
리그	-10.7874
이어야	-10.7878
해요	-10.7881
기와	-10.7882
▁마침내	-10.7883
ps	-10.7884
▁검출	-10.7884
▁렌즈	-10.7889
▁});	-10.7891
▁뿌리	-10.7894
▁관절염	-10.7895
▁있기를	-10.7904
▁가용성	-10.791
▁경력을	-10.7911
▁세계에	-10.7914
▁헌법	-10.7914
▁상실	-10.7915
그룹	-10.7916
즉	-10.7919
▁체액	-10.7919
▁아내	-10.7919
▁라이	-10.7921
▁인코딩	-10.7921
▁축하	-10.7922
▁그것은	-10.7922
pe	-10.7923
▁이사	-10.7928
Ex	-10.793
▁사과드립니다	-10.793
▁자리에	-10.7931
▁열정을	-10.7934
ff	-10.7934
환자	-10.7936
▁인스타그램	-10.7936
▁생활을	-10.7937
With	-10.7939
▁식단을	-10.794
▁간소화	-10.794
▁성공에	-10.7941
▁방식입니다	-10.7942
▁집행	-10.7943
라인	-10.7946
▁Wi	-10.7947
▁끊임없이	-10.795
▁크림	-10.7953
▁배경으로	-10.7954
LA	-10.7956
▁행동과	-10.7957
▁노출을	-10.7958
▁지표를	-10.7959
▁코드에	-10.7959
bit	-10.7962
▁지원하기	-10.7965
▁말하세요	-10.7967
▁대안	-10.7967
▁지명	-10.7968
▁이미지의	-10.7968
▁그룹의	-10.797
▁자율	-10.7971
▁심리	-10.7972
▁독서	-10.7973
▁즐기는	-10.7973
▁솔	-10.7973
▁팀과	-10.7976
▁책임감	-10.7979
▁활동은	-10.7979
▁적합합니다	-10.7982
▁바닥	-10.7982
▁구축하고	-10.7984
pi	-10.7984
sample	-10.7989
▁발효	-10.7989
▁약간의	-10.7989
▁기름	-10.7989
▁each	-10.799
▁임금	-10.7991
▁되	-10.7994
▁정확하고	-10.7995
▁out	-10.7998
▁홍	-10.8
▁목적에	-10.8001
▁조합을	-10.8004
▁신속히	-10.8005
▁임시	-10.8007
predict	-10.8008
▁구현합니다	-10.8011
▁간식	-10.8012
▁생검	-10.8012
▁기계적	-10.8012
▁타겟팅	-10.8012
▁개념이	-10.8015
▁선호하는	-10.8015
▁대로	-10.8016
▁문장의	-10.8018
▁세워진	-10.8019
▁소년	-10.8022
pt	-10.8024
▁작	-10.8028
▁세분화	-10.8032
▁제거합니다	-10.8033
지도	-10.804
▁장기적으로	-10.8043
▁케이스	-10.8045
로드	-10.8045
▁물론이죠	-10.8045
▁가정합니다	-10.8047
▁남성의	-10.8049
▁만들려면	-10.8049
ee	-10.8049
resource	-10.8052
했어요	-10.8053
▁일본에서	-10.8054
▁알고리즘의	-10.8054
휴	-10.8056
▁혈류	-10.8056
▁블루	-10.8056
▁작동하는지	-10.8058
▁뚜렷한	-10.8058
▁레드	-10.8059
▁계약서	-10.8059
▁기대할	-10.8061
렸	-10.8062
▁느끼는	-10.8063
▁환	-10.8063
▁순서	-10.8065
▁시장의	-10.8067
▁대표적	-10.8069
▁아마존	-10.807
▁메타	-10.8071
▁예방하기	-10.8071
▁중요	-10.8072
▁array	-10.8073
▁word	-10.8075
윈	-10.8076
▁글자	-10.8077
CT	-10.8077
col	-10.8078
▁분류합니다	-10.8079
▁차이는	-10.8083
od	-10.8088
▁점입니다	-10.8088
▁저하와	-10.8088
▁특정한	-10.8088
▁error	-10.809
▁동적	-10.809
▁which	-10.8091
▁기원전	-10.8098
arr	-10.8101
▁요금	-10.8104
▁me	-10.8109
▁몰	-10.8112
▁검색할	-10.8114
▁발전에	-10.8114
▁의회	-10.8115
▁췌장	-10.8116
▁고려하세요	-10.8116
▁전사	-10.8116
scale	-10.8117
▁철분	-10.8118
▁>=	-10.8119
▁디스플레이	-10.8121
▁전시	-10.8122
Users	-10.8122
▁배달	-10.8123
&#	-10.8125
CS	-10.8125
option	-10.8126
▁개발한	-10.8127
▁깊게	-10.8128
▁차별	-10.8129
▁친구들과	-10.813
▁라이브	-10.8131
▁순위를	-10.8131
▁라이선스	-10.8134
SELECT	-10.8136
되짚어	-10.8137
▁감수성	-10.8139
▁군대	-10.8141
▁정의하고	-10.8143
▁사용하며	-10.8143
▁Pro	-10.8144
받는	-10.815
헌	-10.815
▁사회에	-10.8152
web	-10.8153
▁우정	-10.8153
▁구조체	-10.8157
ron	-10.8157
었고	-10.8159
이브	-10.8159
▁말초	-10.8163
▁대량의	-10.8164
${	-10.8164
▁충족하는	-10.8166
ian	-10.8167
▁수정하여	-10.8167
▁헬	-10.8168
▁중지	-10.8169
▁병변을	-10.8169
▁부족한	-10.817
▁노래를	-10.8175
▁검사가	-10.818
▁가족력	-10.818
CC	-10.8183
▁록	-10.8183
▁기관이	-10.8186
▁수익률	-10.8186
▁범주	-10.8187
훈	-10.8187
▁분석하는	-10.8188
▁셋째	-10.819
▁좌우	-10.8191
▁도구는	-10.8195
▁혼란	-10.8196
▁시나리오	-10.8198
▁골반	-10.8198
▁도와드릴	-10.8199
▁감독이	-10.8202
▁신속하게	-10.8204
제로	-10.8206
▁오차	-10.8207
▁객체의	-10.8207
받을	-10.8208
▁연도를	-10.8208
▁오브	-10.8209
▁온도를	-10.821
▁칼륨	-10.8211
▁정도의	-10.8213
▁옥	-10.8214
▁출	-10.8215
적이며	-10.8217
▁훗날	-10.8217
스와	-10.8218
▁각자의	-10.822
▁탈수	-10.8221
▁졸업	-10.8224
▁보상을	-10.8224
▁how	-10.8226
만이	-10.8228
▁방법론	-10.8229
▁맛과	-10.8231
ations	-10.8239
▁루트	-10.8243
▁생산성을	-10.8244
▁임상적으로	-10.8244
최	-10.8245
▁프	-10.8245
▁such	-10.8246
▁흥분	-10.8246
▁잡지	-10.825
parent	-10.8255
인은	-10.8257
▁위에서	-10.8258
CE	-10.8258
▁기억하세요	-10.826
▁지하철	-10.826
▁태양광	-10.8261
▁참여하는	-10.8261
▁유지합니다	-10.8262
▁Node	-10.8263
▁제품이	-10.8264
▁자아	-10.8265
▁대장	-10.8266
▁개선이	-10.8268
▁클래스는	-10.8268
);```	-10.8269
▁간호사	-10.8269
▁사용에	-10.827
▁서식지	-10.827
▁형식을	-10.8271
show	-10.8272
da	-10.8276
▁체험	-10.8276
▁엔티티	-10.8278
▁법원	-10.8281
▁물의	-10.8282
▁기체	-10.8283
back	-10.8284
▁의사와	-10.8284
▁법인	-10.8286
위치	-10.8288
▁연습을	-10.8288
▁유사	-10.829
Product	-10.8293
▁기구	-10.8294
▁스튜디오	-10.8294
ep	-10.8296
▁진통제	-10.8299
▁힘이	-10.8299
▁혁신을	-10.8299
▁담고	-10.83
▁방식과	-10.8301
▁감소시킨다	-10.8303
▁불법	-10.8303
▁증거를	-10.8306
with	-10.8308
▁정지	-10.8308
▁그해	-10.831
▁후에도	-10.831
▁되며	-10.8311
이라고도	-10.8311
▁스타일과	-10.8312
▁안구	-10.8313
해지고	-10.8314
어는	-10.8314
▁피부를	-10.8318
▁정부가	-10.8319
▁손실을	-10.8319
▁며칠	-10.8322
Row	-10.8327
pose	-10.8329
벤	-10.8332
▁질을	-10.8335
버스	-10.8336
FA	-10.8338
▁하나가	-10.834
▁능력과	-10.8343
▁요약하면	-10.8346
▁부인	-10.8348
증은	-10.8348
▁홀	-10.8351
▁망막	-10.8352
▁재판	-10.8355
▁제안합니다	-10.8356
▁아무	-10.8357
▁유지하면서	-10.8357
▁세계대전	-10.8358
윤	-10.8358
▁보행	-10.8358
▁야간	-10.8361
▁톤	-10.8362
▁나라는	-10.8362
▁먹	-10.8364
▁수출	-10.8365
▁세대	-10.8366
▁활동이	-10.8366
▁저장된	-10.837
▁열정	-10.8371
username	-10.8371
Context	-10.8373
▁레이저	-10.8375
task	-10.8375
▁있었다	-10.8378
비트	-10.8378
개인	-10.838
▁애플	-10.838
▁유도하는	-10.8383
▁while	-10.8384
곳	-10.8384
▁아동	-10.8386
aws	-10.8386
▁곤충	-10.8388
▁절약할	-10.8389
▁거예요	-10.8393
▁수행하고	-10.8395
럴	-10.8396
▁피아노	-10.8396
▁진행성	-10.8397
std	-10.8399
▁식물성	-10.84
▁증가할	-10.84
▁곳으로	-10.84
▁일어나는	-10.8402
▁한쪽	-10.8404
클래스	-10.8405
▁모두에게	-10.8405
ice	-10.8407
환경	-10.8407
▁기저	-10.8407
주기	-10.8414
▁덕분에	-10.8414
▁흑	-10.8415
▁다룬	-10.8415
▁회피	-10.8418
▁발견하고	-10.8418
▁만들었습니다	-10.8419
▁변경할	-10.8419
작업	-10.842
▁물론입니다	-10.842
▁발견된	-10.8425
▁논쟁	-10.8435
media	-10.8437
▁이익	-10.8438
▁비동기	-10.8438
Class	-10.844
▁비즈니스의	-10.844
▁확실히	-10.8443
▁디렉토리	-10.8443
float	-10.8443
▁갈색	-10.8444
▁하니	-10.8447
▁예방접종	-10.8448
▁일과	-10.8449
ax	-10.8449
▁있으시면	-10.845
NAME	-10.845
SE	-10.845
▁아이템	-10.8452
▁회사에	-10.8453
▁포도	-10.8453
페이	-10.8453
▁생성하여	-10.8456
▁마사지	-10.8456
fa	-10.8457
▁드라이버	-10.846
▁천체	-10.8461
▁믿음	-10.8462
결국	-10.8464
▁system	-10.8464
▁이벤트에	-10.8467
▁인생	-10.8469
▁화합물	-10.8471
야마	-10.8471
▁멀리	-10.8474
▁답이	-10.8475
▁이내에	-10.8482
SM	-10.8483
▁노란색	-10.8485
▁안경	-10.8486
total	-10.8486
▁정기	-10.8487
▁드려	-10.8489
▁없기	-10.849
▁생각나	-10.8491
▁연구와	-10.8492
char	-10.8493
▁떠올리면	-10.8493
▁사업을	-10.8495
앉	-10.8497
▁경기장	-10.8498
▁이들	-10.85
De	-10.85
sin	-10.8501
▁정규화	-10.8501
욕	-10.8503
▁멸종	-10.8507
▁소통하고	-10.8508
▁점에서	-10.8508
사항	-10.8511
▁공동체	-10.8513
▁삼성	-10.8513
▁층	-10.8514
▁src	-10.8515
▁버터	-10.8522
▁나타난다	-10.8522
▁구성을	-10.8523
▁출산	-10.8524
▁먹이	-10.8524
▁진행하는	-10.8525
▁배열의	-10.8526
▁의미가	-10.8526
▁후추	-10.8528
off	-10.853
▁발생하면	-10.8531
▁유연성	-10.8532
▁그러면	-10.8533
our	-10.8535
om	-10.8536
▁De	-10.8538
▁기사를	-10.854
▁지하	-10.854
▁따라야	-10.8542
▁미생물	-10.8543
ner	-10.8543
▁탄	-10.8543
수술	-10.8544
▁세탁	-10.8546
▁역사와	-10.8547
▁기상	-10.8548
▁있군요	-10.855
▁충분하지	-10.8551
▁법칙	-10.8556
▁관습	-10.8558
SI	-10.8558
카드	-10.8558
▁공중	-10.8559
column	-10.8559
▁유지하세요	-10.8561
회의	-10.8561
▁엄마	-10.8563
▁취급	-10.8565
▁사무실	-10.8566
▁분비물	-10.8568
▁황제	-10.8571
▁겸	-10.8571
렛	-10.8571
▁어디인지	-10.8574
▁전압	-10.8575
▁만에	-10.8577
관절	-10.8577
keras	-10.8578
▁인기가	-10.8579
참고	-10.8579
▁출판	-10.8581
▁서버에	-10.8585
해져	-10.8585
▁용어는	-10.8587
년대에	-10.8587
▁학위를	-10.8589
▁그중	-10.8591
출력	-10.8592
book	-10.8592
▁주민	-10.8594
지금	-10.8597
va	-10.8598
▁주가	-10.86
▁가능하고	-10.8606
;```	-10.8607
▁따르세요	-10.8608
전이	-10.8611
▁향상시키고	-10.8617
▁큐	-10.8617
▁검	-10.8619
세계	-10.8619
Group	-10.8621
ting	-10.8621
▁화산	-10.8623
▁플랫폼에	-10.8623
화가	-10.8626
ta	-10.8628
▁조선시대	-10.863
▁터키	-10.8631
rm	-10.8633
}\	-10.8634
▁요청할	-10.8635
▁역학	-10.8636
▁게임은	-10.8639
▁행을	-10.8639
▁용도로	-10.8639
All	-10.8639
▁마크	-10.8643
▁액세스를	-10.8643
▁스트레칭	-10.8644
▁행동이	-10.8644
▁어려움	-10.8644
▁항공기	-10.8646
▁사랑하는	-10.8647
▁구성합니다	-10.8649
▁인쇄합니다	-10.865
▁요구를	-10.8652
십	-10.8653
▁들어간	-10.8656
증을	-10.8656
▁계획에	-10.8658
솔	-10.8658
▁페이지의	-10.866
▁발견한	-10.866
▁역류	-10.8661
흥	-10.8663
▁세그먼트	-10.8663
▁고위험	-10.8669
ba	-10.867
▁유통	-10.8673
UI	-10.8673
▁식도	-10.8675
▁업무에	-10.8677
lat	-10.8683
▁아버지가	-10.8683
▁책임이	-10.8685
▁복지	-10.8686
▁마법사	-10.8686
떨	-10.8687
▁저널	-10.8688
▁주간	-10.8689
▁권장되는	-10.8691
▁혼자	-10.8703
▁때문	-10.8704
▁예상됩니다	-10.8704
▁err	-10.8705
block	-10.8705
▁수소	-10.8705
").	-10.8706
▁태도를	-10.8706
cr	-10.8707
▁알려	-10.8707
▁식품을	-10.871
▁눈이	-10.8711
▁저작권	-10.8712
룩	-10.8713
▁온난화	-10.8716
▁관점에서	-10.8717
▁읽을	-10.8718
▁유아	-10.8719
보호	-10.8719
▁발생했습니다	-10.8719
▁실현	-10.872
▁붙	-10.8721
답	-10.8722
▁바이	-10.8723
ang	-10.8723
▁같아요	-10.8725
▁시기가	-10.8726
Token	-10.873
▁자세를	-10.873
▁유의하게	-10.8731
▁부착	-10.8734
엄	-10.8735
▁장애물	-10.8738
▁다이어트	-10.8738
▁비대	-10.8742
US	-10.8742
▁CPU	-10.8743
보고	-10.8743
dim	-10.8744
▁수술을	-10.8744
하면서도	-10.8744
▁install	-10.8744
었던	-10.8744
TO	-10.8747
십시오	-10.8747
users	-10.8748
▁처리를	-10.8752
▁언어의	-10.8753
리오	-10.8756
▁능력에	-10.8758
▁플롯	-10.876
▁피하는	-10.876
▁필요성	-10.8764
▁연산자	-10.8767
download	-10.8767
▁유행	-10.8769
▁업계에서	-10.8772
▁심해	-10.8773
▁지리적	-10.8774
▁특징입니다	-10.8774
▁나라에서	-10.8774
▁<=	-10.8775
▁결과로	-10.8776
▁복잡성	-10.8778
▁근육을	-10.8779
▁안정화	-10.878
찬	-10.8781
▁마취	-10.8782
▁level	-10.8782
수는	-10.8785
▁방정식을	-10.8785
▁창조	-10.8787
pdf	-10.8788
▁플라	-10.879
▁공을	-10.8791
▁List	-10.8791
▁앱은	-10.8792
▁장애가	-10.8793
▁생태계의	-10.8794
▁정의된	-10.8796
▁},	-10.8798
사와	-10.8798
▁사유	-10.8798
ti	-10.8799
▁프로세스에	-10.88
▁엔	-10.8804
▁WHERE	-10.8804
▁운행	-10.8805
▁염	-10.8807
▁복통	-10.8808
▁결정됩니다	-10.8812
모델	-10.8815
'	-10.8815
▁조합은	-10.8816
▁뉴런	-10.8817
context	-10.8818
▁움직임	-10.8819
▁밑	-10.8819
▁결손	-10.8821
로우	-10.8822
click	-10.8823
▁사례에	-10.8823
▁존재합니다	-10.8824
▁조정해야	-10.8824
▁부품	-10.8824
라도	-10.8826
▁것이었습니다	-10.8827
센터	-10.8829
▁프로세스의	-10.8829
▁연설	-10.883
▁인플루언서	-10.8831
call	-10.8833
▁상품을	-10.8837
▁선호도에	-10.8838
▁독특하고	-10.8838
▁도서	-10.8843
▁모터	-10.8846
학과	-10.8847
▁명사	-10.8848
자들이	-10.8851
▁min	-10.8852
AC	-10.8854
▁분노	-10.8854
▁화성	-10.8855
▁사라	-10.8855
▁적용하는	-10.8857
▁시청자	-10.8858
▁무언가를	-10.8861
▁호흡곤란	-10.8861
▁유용합니다	-10.8861
대가	-10.8861
▁밀도	-10.8863
}"	-10.8865
▁결론을	-10.8865
PI	-10.8866
AN	-10.8868
▁평화	-10.887
▁무시	-10.887
▁문명	-10.8873
▁관여	-10.8873
▁성숙	-10.8873
▁My	-10.8875
pythonimport	-10.8876
▁증서	-10.8876
▁모자	-10.8878
그러나	-10.8878
▁색깔	-10.8878
▁유방	-10.8881
▁인물은	-10.8881
납	-10.8882
▁해군	-10.8882
]);	-10.8882
vi	-10.8884
Ch	-10.8885
▁건너	-10.8888
▁스위스	-10.8889
▁형식의	-10.8891
▁예술가	-10.8891
테크	-10.8892
▁다룹니다	-10.8893
▁고전	-10.8898
▁것들이	-10.8899
▁병변이	-10.8902
▁전략에	-10.8904
▁감자	-10.8905
▁공장	-10.8905
▁처	-10.8906
▁피부에	-10.8908
▁일어나	-10.891
▁속하는	-10.891
▁마스크	-10.8911
▁변화의	-10.8912
했나요	-10.8919
▁($	-10.8923
match	-10.8925
▁이내	-10.8926
▁틀	-10.8928
▁중단하고	-10.8929
▁끓	-10.8931
▁광고를	-10.8932
▁가사	-10.8932
그램	-10.8933
리가	-10.8936
▁모험을	-10.8937
▁신뢰를	-10.894
유형	-10.894
▁예로	-10.8942
▁베이스	-10.8943
사업	-10.8943
▁위해서	-10.8946
▁진동	-10.8947
▁일자리	-10.8948
▁쌀	-10.8949
▁아스피린	-10.8952
ea	-10.8953
feature	-10.8953
비를	-10.8953
▁스웨덴	-10.8956
▁빛의	-10.8956
▁스크립트는	-10.8958
▁조정하는	-10.896
▁명령은	-10.896
▁보장합니다	-10.8962
▁곡선	-10.8966
▁충격	-10.8967
▁곳입니다	-10.8969
활동	-10.8971
결과	-10.8971
금을	-10.8973
▁should	-10.8978
세가	-10.8979
▁않고도	-10.8981
▁변환하는	-10.8983
▁나눌	-10.8983
▁장면을	-10.8985
▁토지	-10.8987
▁화상	-10.899
룸	-10.899
▁display	-10.8991
BI	-10.8992
ver	-10.8992
▁울	-10.8995
At	-10.8999
들에	-10.9001
▁부종	-10.9001
▁아르헨티나	-10.9003
▁수단	-10.9004
학생	-10.9004
▁역할과	-10.9005
▁운반	-10.9006
한국	-10.9009
▁점심	-10.901
admin	-10.901
attr	-10.9011
ple	-10.9011
▁선택이	-10.9012
customer	-10.9016
마지막으로	-10.9018
▁생체	-10.9019
▁부하	-10.902
▁component	-10.9024
▁탄수화물	-10.9026
▁피하기	-10.9026
▁진통	-10.9026
▁사랑과	-10.9028
/[	-10.9029
▁환경과	-10.9031
▁밤에	-10.9033
혔	-10.9036
▁베트남	-10.9037
▁선호도	-10.9038
▁선택을	-10.9038
▁팀원	-10.904
▁제공되는	-10.9043
▁편안하게	-10.9044
일입니다	-10.9046
▁유입	-10.9047
낼	-10.9048
▁워	-10.905
▁계절	-10.905
▁도파민	-10.9051
▁유지보수	-10.9051
슬라이드	-10.9055
니스	-10.9057
Create	-10.9057
▁달라	-10.9059
▁when	-10.9059
delete	-10.9059
▁가장자리	-10.9059
로서의	-10.906
▁지향	-10.9061
▁테이블의	-10.9063
▁인간과	-10.9063
▁상수	-10.9063
▁열이	-10.9066
▁복수	-10.9066
▁수유	-10.9067
▁기억력	-10.9067
▁힘과	-10.9067
▁주방	-10.907
▁웹사이트에	-10.9075
▁경험할	-10.9078
▁주인	-10.9081
▁갖게	-10.9081
▁수혈	-10.9082
▁칼로리	-10.9085
▁내의	-10.9089
▁옳지	-10.9089
▁운전자	-10.9089
▁모기	-10.9089
▁하루를	-10.909
▁호전	-10.9091
▁날개	-10.9092
▁현상이	-10.9092
▁둡니다	-10.9093
오는	-10.9093
▁증거가	-10.9096
▁잉글랜드	-10.9097
계약	-10.9098
▁빛이	-10.9098
tro	-10.9099
▁석유	-10.9099
▁에이전트	-10.9099
▁드론	-10.9108
▁점검	-10.9112
▁특별히	-10.9113
▁트래픽	-10.9114
▁제공하지	-10.9114
셨	-10.9116
▁콘	-10.9117
드라	-10.9119
▁에너지원	-10.912
▁You	-10.912
었는지를	-10.9122
▁죽은	-10.9123
▁구름	-10.9125
뉴	-10.9125
▁곡을	-10.9126
▁영화의	-10.9127
▁물질이	-10.9128
▁데이터베이스를	-10.9128
▁종괴	-10.9131
렸습니다	-10.9133
▁노르웨이	-10.9134
▁라디오	-10.9135
대를	-10.9138
▁수있는	-10.9138
▁장난감	-10.9141
▁화폐	-10.9143
더라도	-10.9143
▁자신과	-10.9143
프랑스	-10.9147
▁선택적	-10.9147
hi	-10.915
▁정한다	-10.9154
밥	-10.9157
▁걸까요	-10.9159
▁허혈	-10.916
▁열에	-10.9161
▁버전을	-10.9164
▁Amazon	-10.9164
▁폴란드	-10.9165
▁식욕	-10.9165
AD	-10.9169
project	-10.9172
UN	-10.9173
▁App	-10.9173
정부	-10.9174
ex	-10.9174
▁걸리는	-10.9174
워크	-10.9175
CD	-10.9177
▁시행한다	-10.9179
▁돌연변이	-10.918
▁구하는	-10.918
▁안전성을	-10.9181
▁개혁	-10.9182
sort	-10.9185
이에요	-10.9186
결론적으로	-10.9187
▁이스라엘	-10.9187
▁Open	-10.9187
▁다음으로	-10.919
▁구축할	-10.9192
▁검은색	-10.9196
▁width	-10.9196
▁불러	-10.9196
▁브랜드를	-10.9196
▁경기를	-10.9196
▁효율적이고	-10.9197
지역	-10.9201
▁컴파일	-10.9201
RO	-10.9203
▁특이	-10.9203
▁지식이	-10.9206
▁신발	-10.921
참	-10.921
▁작업은	-10.9215
▁조사하고	-10.9215
▁피로와	-10.9217
폴	-10.9217
▁open	-10.9218
▁원리	-10.9218
▁기준에	-10.9226
▁길이가	-10.9226
▁명시	-10.9227
bo	-10.9229
▁연결되는	-10.923
▁판매자	-10.923
▁Get	-10.9231
▁완화하는	-10.9232
▁열어	-10.9232
▁영화가	-10.9233
▁침	-10.9233
ear	-10.9233
▁구조가	-10.9234
▁비밀번호를	-10.9236
▁수학적	-10.9238
▁농도를	-10.9241
▁사랑을	-10.9244
▁딥	-10.9245
▁막대	-10.9248
▁고객은	-10.925
▁구운	-10.9251
▁부분에	-10.9254
▁물건	-10.9254
▁관계는	-10.9254
fs	-10.9256
우드	-10.9258
▁이론은	-10.9259
▁미치지	-10.9259
NET	-10.9262
▁장벽	-10.9263
▁추출합니다	-10.9263
웰	-10.9264
fetch	-10.9264
default	-10.9267
▁일할	-10.9275
▁아르	-10.9275
▁서식	-10.9276
▁원숭이	-10.9277
▁마치	-10.9278
▁구매자	-10.9279
▁체인	-10.9279
▁준비를	-10.9279
▁유효	-10.9281
▁칩	-10.9281
▁월드	-10.9282
▁주장을	-10.9283
잠	-10.9286
▁조직에	-10.9286
▁소견을	-10.9286
EP	-10.9291
혈증	-10.9292
▁work	-10.9292
▁어시스턴트	-10.9295
▁조치가	-10.9295
▁펀드	-10.9296
▁항우울제	-10.9298
▁야생	-10.9298
▁깨끗한	-10.9299
▁목록에서	-10.9302
▁바꿉니다	-10.9303
folder	-10.9307
Status	-10.9311
▁일하는	-10.9311
▁억제해	-10.9312
▁설치합니다	-10.9312
▁설명한	-10.9312
이어서	-10.9313
▁저의	-10.9314
▁병행	-10.9315
▁단어는	-10.9318
▁처리합니다	-10.9321
▁영양소	-10.9321
젤	-10.9326
▁모임	-10.9326
▁북부	-10.9332
low	-10.9332
▁광물	-10.9332
ated	-10.9334
▁부위를	-10.9334
▁클릭하여	-10.9335
지로	-10.9336
window	-10.9337
▁부르	-10.9339
ood	-10.934
▁기본적으로	-10.934
▁지역은	-10.934
▁리소스에	-10.9341
▁주제와	-10.9342
lambda	-10.9342
▁지금까지	-10.9343
module	-10.9343
▁손상이	-10.9345
▁프레임워크를	-10.9346
light	-10.9346
▁컨트랙트	-10.9347
connect	-10.9348
DO	-10.9348
▁형성하고	-10.9349
▁평등	-10.9351
package	-10.9352
▁피자	-10.9354
Ref	-10.9356
▁에어	-10.936
세의	-10.936
선이	-10.936
▁source	-10.9365
▁극장	-10.937
▁유산소	-10.937
▁조합하여	-10.9372
▁여왕	-10.9373
되었지만	-10.9373
홍	-10.9376
학자	-10.9378
▁마음에	-10.9381
▁player	-10.9381
▁휘	-10.9384
▁관련성	-10.9386
▁가설	-10.9386
ness	-10.9388
종이	-10.9388
▁우수한	-10.9389
▁평생	-10.939
부가	-10.9395
시에	-10.9396
▁작동합니다	-10.9396
▁기전을	-10.9397
▁항생제를	-10.9398
▁보낸	-10.9399
▁온도가	-10.9399
논	-10.9399
도시	-10.94
▁컴포넌트를	-10.94
models	-10.9401
▁제한이	-10.9401
▁초점	-10.9401
▁출신의	-10.9402
product	-10.9403
Sub	-10.9403
▁다이어그램	-10.9404
▁집을	-10.9404
▁자신만의	-10.9404
▁열대	-10.9405
▁자식	-10.9407
▁값에	-10.9408
▁맥주	-10.9409
▁II	-10.941
BA	-10.9411
픽	-10.9411
▁자체의	-10.9412
틸	-10.9412
▁운영을	-10.9415
Int	-10.9416
▁개념은	-10.9418
▁대회가	-10.9419
안녕하세요	-10.9422
▁특성과	-10.9422
▁목소리	-10.9422
하신	-10.9422
▁클래식	-10.9424
▁속도와	-10.9425
▁종류와	-10.9425
▁예방적	-10.9426
▁총리	-10.9429
so	-10.9429
▁의약품	-10.943
▁섭취를	-10.943
msg	-10.943
▁모양의	-10.943
▁성장에	-10.9431
▁타워	-10.9433
▁자살	-10.9434
▁나누고	-10.9434
▁자신감	-10.9435
▁적절하게	-10.9436
lines	-10.9436
art	-10.9439
▁선생님	-10.9439
TS	-10.9439
▁스키마	-10.9439
▁To	-10.944
치를	-10.944
하고자	-10.9444
▁증상으로	-10.9448
▁섞어	-10.9449
▁도시는	-10.9449
Card	-10.9449
▁가까이	-10.9459
브리	-10.9461
▁무리	-10.9462
▁저자	-10.9462
OL	-10.9465
tokens	-10.9468
▁합류	-10.9469
▁되네요	-10.947
▁지금은	-10.9472
▁Facebook	-10.9473
▁생성을	-10.9474
율을	-10.9475
▁증가는	-10.9476
스를	-10.9477
▁search	-10.9482
▁We	-10.9483
EN	-10.9486
▁자궁경부	-10.949
▁조인	-10.9491
▁그녀를	-10.9491
build	-10.9492
▁비교하면	-10.9493
▁되겠습니다	-10.9493
▁제공됩니다	-10.95
▁신뢰성	-10.9501
하다고	-10.9502
▁사실이	-10.9503
'),	-10.9505
▁스위치	-10.9508
하는지	-10.9509
력과	-10.9509
으세요	-10.9512
▁대화형	-10.9513
하려	-10.9515
ick	-10.9516
▁역사상	-10.9516
▁요약하자면	-10.9518
▁연결할	-10.9519
▁입학	-10.952
▁결과의	-10.9522
년이라고	-10.9524
▁도구로	-10.9524
학년	-10.9526
▁움직이는	-10.9527
▁작동하는	-10.9527
▁생성한	-10.9528
▁연관된	-10.953
▁브랜드의	-10.953
▁혹은	-10.9532
일은	-10.9533
▁파열	-10.9536
▁꾸	-10.9537
login	-10.9543
▁언어와	-10.9544
▁그것을	-10.9544
▁열리는	-10.9545
사람	-10.9546
▁때의	-10.9549
▁반대로	-10.9552
▁해소	-10.9559
CI	-10.956
▁소견은	-10.956
▁Here	-10.9561
▁키가	-10.9561
▁과목	-10.9562
▁이상적인	-10.9562
▁영혼	-10.9563
▁캐릭터의	-10.9566
스톤	-10.9567
▁컬렉션	-10.9568
▁보완	-10.9569
▁곁들인	-10.9572
어를	-10.9572
▁기온	-10.9572
▁사회적인	-10.9572
▁요정	-10.9573
▁가정해	-10.9574
▁과정입니다	-10.9576
▁그리	-10.9577
▁텔레비전	-10.9578
▁게임에서	-10.9578
▁산업에서	-10.9579
▁결절	-10.9581
ium	-10.9582
▁저축	-10.9582
▁시행하는	-10.9585
▁스토어	-10.9586
▁마이크로	-10.9587
Country	-10.9587
▁추측	-10.9587
▁조직은	-10.9587
출혈	-10.9588
▁농도가	-10.9591
▁then	-10.9591
▁사막	-10.9593
win	-10.9593
대상	-10.9593
ML	-10.9594
▁효능	-10.9594
PT	-10.9595
▁너	-10.9595
Change	-10.9601
▁면허	-10.9601
▁딴	-10.9603
▁예상치	-10.9603
▁속도로	-10.9604
▁책정	-10.9605
▁마르	-10.9606
▁입력으로	-10.9608
▁심근경색	-10.9611
▁상태는	-10.9611
시대	-10.9611
펠	-10.9611
▁유형이	-10.9612
▁받았	-10.9613
▁소통할	-10.9615
('/	-10.9616
▁농장	-10.9617
▁Co	-10.962
▁제품은	-10.962
▁활약	-10.9621
ai	-10.9622
TA	-10.9624
▁랩	-10.9624
sklearn	-10.9627
▁전설	-10.9632
트는	-10.9633
▁만드세요	-10.9634
▁염두에	-10.9634
▁CEO	-10.9634
▁반영하는	-10.9635
▁소모	-10.9635
주고	-10.9636
▁재건	-10.9639
▁오디언스	-10.9642
▁급	-10.9643
▁음식물	-10.9645
▁수직	-10.9647
▁저희는	-10.9647
▁AND	-10.9647
▁차별화	-10.9651
CR	-10.9652
dataset	-10.9653
▁촉진하고	-10.9653
▁반복되는	-10.9655
then	-10.9655
▁내부의	-10.9656
Exception	-10.9657
▁점도	-10.966
());	-10.966
▁번의	-10.9663
▁부채	-10.9663
▁계획이	-10.9665
▁소비를	-10.9667
년에는	-10.9671
▁번호를	-10.9672
▁목적이	-10.9673
Function	-10.9674
▁개인과	-10.9674
▁스키	-10.9675
▁환자를	-10.968
▁필요하며	-10.9681
▁햇빛	-10.9681
▁수행해야	-10.9681
▁벌어진	-10.9682
▁수분을	-10.9683
프리	-10.9684
getElementById	-10.969
yaml	-10.969
▁악화시킬	-10.9692
▁폴리	-10.9693
▁학습된	-10.9693
▁PDF	-10.9697
ating	-10.97
▁미국인	-10.97
▁작곡	-10.9702
▁외래	-10.9703
Select	-10.9704
▁역량을	-10.9705
▁않는다는	-10.9712
▁개봉	-10.9715
names	-10.9715
▁ST	-10.9717
Base	-10.9718
▁오염을	-10.9719
▁재산	-10.9719
Of	-10.972
▁혈압을	-10.9724
▁설득력	-10.9727
iv	-10.9733
▁영향력을	-10.9734
using	-10.9735
▁용기	-10.9736
▁병변의	-10.9737
▁사회에서	-10.9738
시아	-10.9738
▁케이블	-10.974
▁통찰력을	-10.9741
인의	-10.9741
card	-10.9742
법은	-10.9742
▁다이	-10.9746
▁제목이	-10.9748
▁않게	-10.9749
▁오렌지	-10.9749
▁like	-10.9758
▁원활한	-10.9759
▁경쟁사	-10.9761
하는데	-10.9761
▁요구와	-10.9765
▁http	-10.9765
▁약물이	-10.9766
▁처음에는	-10.9768
▁구단	-10.9768
>```	-10.9769
▁완료되면	-10.9769
▁모음	-10.977
▁밀가루	-10.9771
ual	-10.9772
▁국가와	-10.9775
▁논	-10.9776
촌	-10.9777
▁개인화	-10.9777
▁사물	-10.9781
▁저에게	-10.9781
랩	-10.9781
켓	-10.9782
▁환자와	-10.9782
▁강화하고	-10.9783
▁책이	-10.9785
▁통일	-10.9787
이즈	-10.9788
립니다	-10.9788
NE	-10.9789
▁계	-10.9791
▁기울	-10.9791
▁일반화	-10.9793
▁부위의	-10.9793
▁느낌	-10.9794
되었	-10.9795
▁맵	-10.9796
▁민주주의	-10.9796
▁트랙	-10.9797
▁St	-10.9797
시장	-10.98
▁응고	-10.98
▁예는	-10.9801
▁발생한다	-10.9803
일부터	-10.9803
▁계수	-10.9805
▁향상시키기	-10.9805
SH	-10.9808
▁정한	-10.9809
▁Math	-10.9809
Email	-10.981
〉	-10.9812
▁벨	-10.9813
MI	-10.9818
▁실험을	-10.9819
▁자녀	-10.982
OR	-10.982
▁시작해	-10.9821
▁항공사	-10.9823
▁창작	-10.9824
굴	-10.9824
▁발전과	-10.9824
▁늘	-10.9824
▁인구가	-10.9826
side	-10.9827
plt	-10.9828
어로	-10.983
▁자신	-10.9832
▁장려	-10.9833
▁비서	-10.9834
▁역사적인	-10.9835
▁전문성을	-10.9835
put	-10.9838
▁static	-10.9841
ib	-10.9843
▁이야기는	-10.9846
▁꺼	-10.9846
▁산맥	-10.9846
융	-10.9847
▁플랫폼의	-10.9849
▁default	-10.985
개발	-10.9852
▁심지어	-10.9853
▁스크린	-10.9853
▁학습하고	-10.9855
▁역할은	-10.9856
▁습도	-10.9857
▁전문성	-10.9859
임신	-10.9862
▁사용량	-10.9864
▁미래의	-10.9866
▁규모의	-10.9866
▁가게	-10.9867
았	-10.9867
▁글머리	-10.9869
▁키보드	-10.987
▁회복을	-10.9871
▁식물의	-10.9871
▁차단제	-10.9877
▁제거할	-10.9879
▁상담을	-10.9879
▁작용할	-10.9879
▁제시합니다	-10.988
▁먼	-10.988
▁작성하여	-10.9881
▁바이트	-10.9884
▁슬픔	-10.9885
▁과거에	-10.9886
▁지닌	-10.9887
▁메커니즘을	-10.9893
session	-10.9894
▁돕기	-10.9894
연구	-10.9894
▁조정하여	-10.9898
▁기준이	-10.9899
▁Docker	-10.9902
▁하루에	-10.9902
▁루프를	-10.9902
▁활약한	-10.9904
효과	-10.9905
▁수정합니다	-10.9905
세대	-10.9906
▁영토	-10.9907
▁반려견	-10.991
localhost	-10.991
혜	-10.9911
▁없다면	-10.9911
▁배출을	-10.9912
▁파악하기	-10.9912
▁낮아	-10.9912
▁당근	-10.9914
▁섞	-10.9916
template	-10.9916
AV	-10.9917
ana	-10.9917
▁직원의	-10.9917
▁물으시니	-10.9918
ind	-10.992
▁사운드	-10.9921
▁조절할	-10.9921
▁팽창	-10.9927
▁results	-10.9927
어야	-10.9928
▁우주의	-10.993
▁물류	-10.9931
▁성경	-10.9931
▁but	-10.9932
▁강력하고	-10.9933
▁응급실에	-10.9933
▁추적하는	-10.9933
▁활	-10.9934
▁데이터로	-10.9934
▁격리	-10.9934
▁풍경	-10.9936
▁비판적	-10.9936
▁리듬	-10.9936
▁소장	-10.9941
▁조회	-10.9942
메이	-10.9944
▁담긴	-10.9944
▁포착	-10.9947
▁출전	-10.9949
▁대략	-10.9949
ify	-10.9949
사회	-10.9951
캐	-10.9952
ative	-10.9954
▁줄을	-10.9956
▁유료	-10.9956
▁결과와	-10.9956
▁장점이	-10.9956
ug	-10.9956
▁속에	-10.9957
▁method	-10.9959
▁PC	-10.9959
▁통지	-10.9962
▁기능적	-10.9964
▁유형은	-10.9966
겼	-10.9966
▁배설	-10.9967
멜	-10.997
▁육	-10.9971
▁유지해야	-10.9971
▁간주됩니다	-10.9972
▁종교적	-10.9973
echo	-10.9976
▁희망	-10.9976
▁포함하고	-10.9976
ob	-10.9976
▁폐색	-10.9977
sion	-10.9978
성은	-10.9979
해보세요	-10.998
▁고향	-10.9981
▁손에	-10.9984
▁마이그레이션	-10.9985
▁봄	-10.9986
▁ad	-10.9986
▁흐르는	-10.9988
▁공식을	-10.9992
만을	-10.9993
"></	-10.9994
▁담은	-10.9994
▁item	-10.9995
Point	-10.9996
▁변화로	-10.9996
▁암호	-10.9999
행동	-10.9999
▁끊	-11
▁잠재력	-11.0001
▁황달	-11.0003
▁앱에	-11.0004
▁반복적으로	-11.0005
▁이슬람	-11.0007
▁축소	-11.0008
롬	-11.0009
▁동굴	-11.001
▁특	-11.0011
의료	-11.0013
만으로는	-11.0014
▁권위	-11.0016
▁출연	-11.0017
▁시장을	-11.002
▁두려움	-11.0022
처리	-11.0022
바이러스	-11.0023
▁체계를	-11.0024
▁오리	-11.0025
▁해줍니다	-11.0027
▁마리아	-11.0028
▁확률을	-11.003
grid	-11.0034
▁break	-11.0034
섬유	-11.0034
▁버퍼	-11.0039
▁구조물	-11.004
랭	-11.004
mat	-11.004
▁캠핑	-11.0043
az	-11.0048
▁뒷받침	-11.0048
di	-11.0049
오르	-11.0051
▁브랜치	-11.0051
▁명칭을	-11.0052
document	-11.0052
▁올리브	-11.0052
▁학생이	-11.0055
▁옵션은	-11.0058
▁명칭이	-11.0058
▁실용적인	-11.006
▁주석	-11.0061
▁저하가	-11.0062
▁제제	-11.0063
▁right	-11.0064
▁계약에	-11.0067
▁위대한	-11.0068
▁롤	-11.0068
▁양상	-11.0071
element	-11.0071
▁계시	-11.0072
▁따	-11.0072
▁검진	-11.0073
▁노력하고	-11.0074
▁창출할	-11.0074
▁치료법	-11.0075
▁다음을	-11.0076
▁뜨거운	-11.0076
▁존중하고	-11.0079
▁절반	-11.0079
▁주위	-11.008
섬	-11.008
▁참여하고	-11.0082
not	-11.0082
▁echo	-11.0084
room	-11.0084
▁가축	-11.0085
▁서부	-11.0087
묘	-11.0087
Label	-11.0087
route	-11.0089
▁성격을	-11.0089
앤	-11.0091
bot	-11.0092
▁챗봇	-11.0098
▁담당합니다	-11.0099
▁돕고	-11.0101
▁빅	-11.0103
에르	-11.0104
▁이상반응	-11.0105
▁닭	-11.0109
▁비교할	-11.0109
year	-11.0109
▁단순화	-11.011
▁피트니스	-11.011
▁라우터	-11.011
▁부피	-11.0111
농	-11.0111
▁사용은	-11.0113
▁의존성	-11.0113
▁가공	-11.0114
▁주변의	-11.0114
되었다고	-11.0114
▁긴장을	-11.0117
jpg	-11.0119
▁계획하고	-11.012
▁문장에서	-11.0121
▁미소를	-11.0123
▁표시되는	-11.0123
▁답안을	-11.0124
▁소스를	-11.0125
▁냉각	-11.0127
▁부드럽고	-11.0128
▁패스	-11.0128
물이	-11.0128
▁고용량	-11.0128
▁열차	-11.0129
▁풍력	-11.0129
▁초기에	-11.0129
▁un	-11.0131
▁웹사이트에서	-11.0135
Manager	-11.0136
less	-11.0137
▁평가에	-11.0137
Test	-11.0139
▁가문	-11.014
png	-11.0141
▁노트	-11.0142
▁적절하지	-11.0143
눈	-11.0144
VI	-11.0144
▁문구	-11.0145
▁사명	-11.0146
▁게임이	-11.0147
▁예시를	-11.0148
▁전쟁이	-11.015
▁뭐	-11.0151
▁절개	-11.0151
▁도와드리겠습니다	-11.0152
▁병원체	-11.0154
▁인수를	-11.0155
평균	-11.0155
▁우주선	-11.016
▁원리를	-11.0161
▁이동하는	-11.0163
감과	-11.0165
주소	-11.0165
▁은하	-11.0167
▁건축물	-11.0167
▁잡고	-11.0168
▁운동과	-11.0169
angle	-11.0169
▁문서화	-11.0173
▁생명을	-11.0174
▁학술	-11.0175
세기에	-11.0175
▁운영하는	-11.0175
▁맛이	-11.0178
▁증가시킨다	-11.0179
che	-11.0179
▁분배	-11.0181
▁자신감을	-11.0181
▁대중교통	-11.0187
bi	-11.0187
IA	-11.0188
▁need	-11.0189
▁중이다	-11.0189
▁원인과	-11.019
ME	-11.0191
▁자라	-11.0191
▁없었다	-11.0195
브라	-11.0195
csharp	-11.0203
▁받게	-11.0205
▁유엔	-11.0207
▁파라미터	-11.0207
▁아카데미	-11.0208
▁참여하여	-11.0208
▁갈등을	-11.0208
▁원인으로	-11.021
▁아이들이	-11.0213
▁압력을	-11.0214
▁진행을	-11.0215
▁검은	-11.0217
iz	-11.0217
TP	-11.0218
vir	-11.0218
ml	-11.0219
Screen	-11.022
▁가치관	-11.0223
▁해산물	-11.0224
호가	-11.0225
Sql	-11.0226
▁취미	-11.0227
▁부합한다	-11.0228
▁불균형	-11.0228
▁미니	-11.0228
▁항원	-11.0233
생활	-11.0234
어가	-11.0235
▁노력합니다	-11.0236
▁버그	-11.0237
하더라도	-11.0237
▁재구성	-11.0237
보드	-11.0238
false	-11.0239
▁이미지와	-11.024
▁소유주	-11.024
▁다발성	-11.024
EC	-11.0241
▁굳	-11.0242
▁코르티코스테로이드	-11.0243
CH	-11.0243
▁인근	-11.0244
▁꾸준히	-11.0245
▁유발하는	-11.0245
▁나타내며	-11.0246
dist	-11.0247
▁경영	-11.0249
▁버전입니다	-11.025
▁납부	-11.025
▁좌	-11.0252
▁효과적이다	-11.0254
queue	-11.0254
ized	-11.0255
▁레시피를	-11.0256
ton	-11.0257
alpha	-11.0262
합니까	-11.0263
웨	-11.0265
▁서브	-11.0267
▁강아지	-11.0268
sis	-11.0269
▁파스타	-11.0274
▁정의할	-11.0279
▁임상시험	-11.028
▁연결하고	-11.0281
▁혼동	-11.0282
▁자격을	-11.0284
▁단계가	-11.0286
ning	-11.0287
▁조절을	-11.0287
▁선택하면	-11.0288
▁밝히	-11.0288
▁관행을	-11.0288
▁용도	-11.0289
▁크레	-11.0291
지게	-11.0291
▁비교하고	-11.0294
도움이	-11.0294
▁닭고기	-11.0296
▁감상	-11.0301
▁목록의	-11.0301
IL	-11.0301
;}```	-11.0302
▁수동	-11.0307
▁엄격한	-11.0308
▁지시	-11.0309
▁병기	-11.0309
▁변수가	-11.0313
넬	-11.0313
▁볼륨	-11.0314
ite	-11.0316
▁불가	-11.0321
%)	-11.0323
▁프로덕션	-11.0324
▁기억에	-11.0325
common	-11.0325
이것은	-11.0326
▁직책	-11.0328
apply	-11.0329
▁채권	-11.033
▁좋을	-11.0331
▁승객	-11.0331
▁문화에	-11.0335
player	-11.0335
▁화재	-11.0336
▁적응증	-11.0336
▁이차	-11.0338
▁프랑스어	-11.0339
▁플러그인	-11.0342
▁문구를	-11.0344
(()	-11.0345
이것이	-11.0346
▁중화	-11.0347
▁팀워크	-11.0349
▁화가	-11.0351
▁맞는다	-11.0352
▁가격은	-11.0352
▁독일의	-11.0354
▁정도를	-11.0354
▁만나	-11.0355
▁"""	-11.0355
section	-11.0356
▁남는	-11.036
▁식별자	-11.036
첫	-11.0361
▁금액을	-11.0361
▁매력	-11.0362
scss	-11.0363
);}	-11.0368
eat	-11.0369
▁화이트	-11.0369
▁product	-11.037
▁훈련을	-11.037
▁좌표	-11.0373
Async	-11.0373
");	-11.0375
▁개를	-11.0376
▁페이	-11.0377
웠	-11.0377
▁진입	-11.0379
▁때에는	-11.0379
ound	-11.038
▁바꿀	-11.0383
▁프레임을	-11.0385
▁의무를	-11.0385
rows	-11.0386
앙	-11.0387
업체	-11.039
조영술	-11.0391
▁기관의	-11.0392
▁버섯	-11.0393
▁대해서는	-11.0394
▁표면에	-11.0399
▁회사에서	-11.0399
Post	-11.04
▁내는	-11.0402
▁누군가	-11.0403
체를	-11.0404
증상	-11.0405
▁섭취하는	-11.0407
함에	-11.0407
category	-11.0408
▁컨설팅	-11.0408
Person	-11.0408
▁경계를	-11.0409
▁적용되는	-11.0409
▁시티	-11.0416
캡	-11.0417
▁대한민국의	-11.042
▁분석할	-11.042
▁알리	-11.0421
▁교육은	-11.0423
"}	-11.0424
▁부대	-11.0424
▁수요가	-11.0424
▁씁니다	-11.0425
돌이켜	-11.0425
▁저혈당	-11.0426
▁해당합니다	-11.043
▁적용하여	-11.043
ox	-11.043
▁무대	-11.0432
Up	-11.0432
▁감정과	-11.0433
▁점차	-11.0435
▁그룹화	-11.0435
▁line	-11.0435
파이	-11.0438
▁모래	-11.0441
▁집중하고	-11.0441
▁논리적	-11.0442
▁몸에	-11.0443
클로	-11.0443
docker	-11.0444
▁염증과	-11.0444
스탄	-11.0444
▁돌아가	-11.0449
▁mmHg	-11.0449
▁취향에	-11.0451
sheet	-11.0453
video	-11.0453
▁정착	-11.0454
▁tf	-11.0456
▁우선순위	-11.0458
흉	-11.046
};	-11.0462
▁기울기	-11.0463
points	-11.0463
▁괜찮	-11.0463
▁취업	-11.0465
▁테니스	-11.0465
은행	-11.0467
▁패치	-11.0469
▁뒤를	-11.047
down	-11.0471
▁table	-11.0471
▁검사와	-11.0475
And	-11.0476
▁책의	-11.0477
▁불가능	-11.048
center	-11.048
▁For	-11.0481
Read	-11.0482
▁공간이	-11.0486
▁제한을	-11.0486
▁자연스러운	-11.0488
▁날이	-11.0489
▁모두가	-11.0492
▁발전소	-11.0493
hr	-11.0494
소리	-11.0495
▁색소	-11.0496
rand	-11.0496
▁증가를	-11.0497
▁외교	-11.0498
part	-11.05
종은	-11.05
NO	-11.0501
▁투어	-11.0503
align	-11.0504
▁아니요	-11.0509
▁고장	-11.0509
▁주변에	-11.051
doc	-11.051
▁이진	-11.051
▁소송	-11.0511
▁결함	-11.0513
▁처리하기	-11.0514
▁상을	-11.0516
점이	-11.0517
▁방지하는	-11.0517
회씩	-11.0517
단체	-11.0517
▁예상되는	-11.0519
▁게스트	-11.0519
Info	-11.052
▁`<	-11.052
문제	-11.0522
▁실행하고	-11.0523
▁좋지	-11.0523
▁발열과	-11.0525
▁올라	-11.0527
어서	-11.0527
▁달려	-11.0527
con	-11.0528
련	-11.0529
▁앱이	-11.053
▁부릅니다	-11.0531
▁끝난	-11.0532
▁범위가	-11.0534
▁질문이네요	-11.0534
▁붙은	-11.0534
sa	-11.0534
▁수행하여	-11.0535
"],	-11.0539
▁세로토닌	-11.0539
KEY	-11.0539
▁비건	-11.054
Api	-11.0541
Line	-11.0541
▁메서드가	-11.0541
▁괴사	-11.0547
부의	-11.0547
▁비강	-11.0552
상의	-11.0552
ast	-11.0555
▁Go	-11.0555
limit	-11.0561
일이었습니다	-11.0562
▁대량	-11.0563
▁일시적으로	-11.0563
▁음식과	-11.0563
▁추정치	-11.0563
▁주에	-11.0564
▁직면한	-11.0565
ub	-11.0565
▁웃	-11.0568
▁공기를	-11.0568
▁COVID	-11.0569
▁간단하고	-11.0571
였고	-11.0571
음을	-11.0572
▁대해서도	-11.0572
MD	-11.0573
▁불만	-11.0573
▁트래픽을	-11.058
NS	-11.0582
▁채취	-11.0583
▁네트워크의	-11.0584
▁작동하지	-11.0585
롱	-11.0587
▁생성됩니다	-11.0587
▁이상으로	-11.0587
▁모색	-11.059
New	-11.0591
▁양식을	-11.0592
일까요	-11.0592
point	-11.0594
큐	-11.0594
mode	-11.0594
▁벌금	-11.0596
▁차이점을	-11.0596
▁그림을	-11.0596
▁그러므로	-11.0597
▁뜻을	-11.0598
▁숙소	-11.0602
▁미쳤습니다	-11.0606
▁동기화	-11.0606
der	-11.0607
System	-11.061
▁낮출	-11.061
국이	-11.0613
▁생각과	-11.0614
▁개념과	-11.0614
▁생성하기	-11.0614
▁생기면	-11.0614
▁href	-11.0615
▁컨트롤	-11.0616
▁노이즈	-11.0619
▁에스트로겐	-11.0621
▁영구	-11.0622
▁워싱턴	-11.0626
장치	-11.0632
▁검색합니다	-11.0632
▁잠금	-11.0632
▁주기적으로	-11.0633
▁개설	-11.0634
▁마이클	-11.0635
▁인플레이션	-11.0636
▁상담하는	-11.0636
쳤	-11.0636
▁메이	-11.0645
▁흰	-11.0645
혹	-11.0649
▁호출하여	-11.0651
▁템플릿을	-11.0651
▁전략이	-11.0651
▁개발자가	-11.0653
켄	-11.0653
루스	-11.0654
앱	-11.0657
▁ure	-11.0661
에게는	-11.0661
▁떨어진	-11.0661
▁요건을	-11.0662
▁구조는	-11.0663
질문	-11.0663
▁손목	-11.0665
▁국가가	-11.0667
▁~	-11.0668
해지는	-11.0671
호흡	-11.0672
▁자연의	-11.0676
▁한국에서	-11.0676
▁호기심	-11.0677
▁맞추고	-11.0677
▁서버를	-11.0679
▁장려합니다	-11.068
▁일부를	-11.068
당한	-11.0681
▁co	-11.0682
부전	-11.0687
▁CO	-11.0688
▁날짜가	-11.0689
▁이루어질	-11.069
▁방지할	-11.069
▁필요로	-11.0692
▁node	-11.0693
▁아메리카	-11.0693
약을	-11.0693
▁col	-11.0695
드리	-11.0696
▁표시할	-11.0696
▁진행합니다	-11.0697
▁왕조	-11.0699
▁기준은	-11.07
▁요구에	-11.0701
▁판매하는	-11.0701
▁만들어야	-11.0704
fill	-11.0705
둘	-11.0706
rating	-11.0709
기본	-11.0711
▁기차	-11.0711
?*	-11.0712
▁이상한	-11.0714
▁촉진할	-11.0715
▁초기에는	-11.0717
check	-11.0718
그녀는	-11.0719
▁가족의	-11.0721
ft	-11.0722
▁친구가	-11.0722
▁상속	-11.0722
▁주체	-11.0722
▁해독	-11.0723
▁다룰	-11.0726
▁피할	-11.0727
Net	-11.0729
▁영적	-11.073
IM	-11.0731
▁val	-11.0732
▁돼	-11.0732
▁이해가	-11.0735
▁치료제	-11.0735
▁화장실	-11.0735
▁태국	-11.0736
unique	-11.0737
▁공격을	-11.0737
sign	-11.0739
▁이니셔티브	-11.074
나가	-11.0741
▁초기화합니다	-11.0742
▁붕괴	-11.0743
▁말할	-11.0743
▁향한	-11.0744
▁도움	-11.0745
▁지원하고	-11.0746
▁줘	-11.0747
▁북쪽	-11.0747
사이	-11.0747
▁괴	-11.0751
▁청력	-11.0752
▁항목이	-11.0755
레이트	-11.0755
▁포함하세요	-11.0756
CP	-11.0757
라이트	-11.0758
▁존중하는	-11.0759
secret	-11.0759
Module	-11.076
▁감소는	-11.0764
▁산업에	-11.0765
▁도달할	-11.0767
▁완	-11.0769
▁나아가	-11.077
From	-11.0772
만원	-11.0773
span	-11.0775
▁물질의	-11.0775
▁것이라는	-11.0775
args	-11.0776
▁지정하는	-11.0776
▁확립	-11.0776
▁혼	-11.0777
▁대체할	-11.0778
▁보냅니다	-11.078
마리	-11.078
▁아파트	-11.078
▁냉동	-11.078
▁베이	-11.0783
▁프로세스가	-11.0783
▁캘린더	-11.0784
▁요청에	-11.0784
▁숫자가	-11.0785
▁취약	-11.0785
▁전에는	-11.0786
▁표현하고	-11.0787
▁최상의	-11.0788
▁서양	-11.0789
▁원작	-11.079
▁패턴과	-11.0792
MC	-11.0793
트를	-11.0794
오스	-11.0794
▁의식을	-11.0795
▁중추	-11.0797
▁재흡수	-11.0797
▁마음	-11.0799
▁스타일로	-11.08
▁분열	-11.0801
SD	-11.0801
local	-11.0806
▁증강	-11.0806
▁성능이	-11.0806
▁확보할	-11.0807
▁요소와	-11.0808
▁가득한	-11.0811
▁핵심은	-11.0811
nd	-11.0812
▁스트림	-11.0813
▁동반한	-11.0813
DR	-11.0814
▁낮춘다	-11.0814
▁지원과	-11.0815
▁프랑스의	-11.0816
▁elif	-11.0818
replace	-11.0818
포트	-11.0819
PL	-11.0819
▁약을	-11.082
미드	-11.0822
End	-11.0822
▁아이디	-11.0827
xml	-11.0828
▁생리적	-11.0828
▁올리	-11.0829
▁경우에만	-11.0831
▁데에도	-11.0833
시키지	-11.0834
▁아니지만	-11.0834
▁감기	-11.0834
▁대시보드	-11.0838
▁제곱	-11.0839
▁안보	-11.0841
POST	-11.0841
▁받으면	-11.0841
▁어렵고	-11.0841
▁이동할	-11.0841
rain	-11.0842
▁노력하는	-11.0843
보는	-11.0847
▁리포지토리	-11.0847
우리는	-11.0847
▁예로는	-11.0847
▁label	-11.0847
몰	-11.0848
▁죄송하지만	-11.0851
▁딥러닝	-11.0851
하라	-11.0851
▁도시에서	-11.0853
▁미치고	-11.0855
▁어려워	-11.0857
▁쓰레기	-11.0858
▁its	-11.0858
▁태어나	-11.086
cos	-11.086
▁아이폰	-11.086
▁포럼	-11.0861
▁변수는	-11.0862
되던	-11.0866
▁실수를	-11.0866
선은	-11.0868
▁감사드립니다	-11.0869
▁발을	-11.087
삭	-11.087
=(	-11.0872
▁말로	-11.0873
▁표현이	-11.0875
▁워크숍	-11.0878
▁곤란	-11.0878
▁나쁜	-11.0878
▁run	-11.0878
▁매개변수를	-11.0885
▁코어	-11.0885
▁표본	-11.089
ga	-11.0893
▁지방자치단체	-11.0894
▁통합하는	-11.0894
▁확신	-11.0897
param	-11.0899
▁PD	-11.0899
▁키우는	-11.0899
▁super	-11.09
▁변수의	-11.0905
▁과도하게	-11.0905
▁"$	-11.0906
▁징후	-11.091
▁눈의	-11.0913
▁주실	-11.0918
▁운동이	-11.0918
application	-11.092
▁근거를	-11.0921
바이	-11.0922
▁윌리엄	-11.0923
▁number	-11.0923
▁디버깅	-11.0923
javascript	-11.0924
이겠지요	-11.0924
▁누적	-11.0924
▁over	-11.0926
된다는	-11.0926
▁초래	-11.0927
▁의상	-11.0928
▁캐릭터가	-11.0929
추가	-11.093
▁로봇은	-11.0931
▁푸시	-11.0932
▁풍	-11.0932
법이	-11.0933
▁한계를	-11.0935
▁아웃	-11.0937
▁이들이	-11.0937
▁마약	-11.0938
▁근본	-11.0938
▁up	-11.0939
▁증가한다	-11.0939
▁처벌	-11.0939
▁설정하여	-11.094
▁품종	-11.094
now	-11.0941
▁단계별	-11.0941
▁아니므로	-11.0942
▁심리학	-11.0942
▁골라야	-11.0943
▁흑인	-11.0943
▁If	-11.0944
장의	-11.0944
Link	-11.0945
▁에이	-11.0946
여야	-11.0947
▁픽셀	-11.0947
▁임명	-11.0948
▁유로	-11.0949
▁간략한	-11.0951
스턴	-11.0951
▁탄생	-11.0952
자들은	-11.0953
▁근본적인	-11.0954
IV	-11.0955
▁죄	-11.0955
▁구절	-11.0958
▁고민	-11.0958
▁계획은	-11.0958
▁전반에	-11.096
▁대체로	-11.0962
),	-11.0963
object	-11.0963
▁마주	-11.0965
옵션	-11.0966
"(	-11.0972
문을	-11.0973
시가	-11.0973
▁개수	-11.0974
▁댄스	-11.0975
▁생리	-11.0976
▁작가가	-11.0976
▁불가능한	-11.0976
▁신라	-11.0979
ization	-11.0982
분의	-11.0983
console	-11.0983
▁배액	-11.0984
▁물과	-11.0985
했기	-11.0985
▁피로를	-11.0986
비용	-11.0987
▁되찾	-11.0987
)^	-11.0989
▁변비	-11.0991
▁언제나	-11.0991
팩	-11.0991
▁카페인	-11.0993
"*	-11.0994
▁학습할	-11.0994
▁부른	-11.1
▁분야를	-11.1001
▁있는지에	-11.1002
icon	-11.1003
▁둘러싼	-11.1005
▁노예	-11.1007
▁비침습적	-11.1008
▁접속	-11.1008
arg	-11.1008
▁세트에	-11.1008
▁가능성과	-11.1008
▁전체에	-11.1011
▁일하고	-11.1012
타운	-11.1013
▁충	-11.1013
Config	-11.1015
ult	-11.1015
▁항바이러스제	-11.1016
▁주문을	-11.1016
▁액	-11.1017
▁타임스탬프	-11.1018
▁차이점이	-11.1022
▁추적할	-11.1023
▁내내	-11.1023
Http	-11.1023
▁생활습관	-11.1024
▁퀴즈	-11.1024
▁양념	-11.1024
▁기념	-11.1025
▁도전과	-11.1026
관계	-11.1029
Action	-11.103
▁검색하는	-11.1031
▁dis	-11.1032
▁춤	-11.1033
▁크다	-11.1035
▁유의한	-11.1036
▁협업을	-11.1038
▁뭘	-11.104
▁진실	-11.104
EX	-11.1042
▁꿀	-11.1044
이었던	-11.1047
){	-11.1048
▁규모를	-11.1048
land	-11.1048
▁종합적인	-11.1049
▁걸어	-11.1049
▁연구소	-11.105
▁말하기	-11.1056
▁머리카락	-11.106
▁침대	-11.106
▁용어를	-11.106
▁수정하는	-11.1061
▁목록은	-11.1062
▁발생하며	-11.1062
▁제품과	-11.1063
▁숙	-11.1066
▁이력서	-11.1066
▁미디어를	-11.1067
END	-11.1067
▁PHP	-11.107
▁사양	-11.1072
▁누구의	-11.1072
▁품목	-11.1072
mb	-11.1074
▁Ra	-11.1075
▁막기	-11.1078
hu	-11.1079
▁치킨	-11.1081
정을	-11.1082
▁종류가	-11.1082
▁기술입니다	-11.1082
▁아이콘	-11.1082
▁레몬	-11.1083
▁NSW	-11.1084
▁보도	-11.1084
▁전달하고	-11.1087
▁길고	-11.1088
spec	-11.1088
Title	-11.1089
▁쇼핑몰	-11.1089
▁난소	-11.1091
렬	-11.1093
▁특징적인	-11.1093
▁they	-11.1095
▁게시물을	-11.1096
On	-11.1096
하는지를	-11.1097
tab	-11.1097
▁전구	-11.1097
Repository	-11.1098
sudo	-11.1098
▁바지	-11.1099
▁field	-11.1102
▁이슈	-11.1103
레이션	-11.1104
▁상점	-11.1104
▁뛰어	-11.1104
draw	-11.1105
베르	-11.1109
▁커뮤니티에	-11.1111
▁파일은	-11.1113
▁경부	-11.1116
Record	-11.1117
▁농부	-11.1118
▁msg	-11.1119
▁시점에	-11.1119
▁나오	-11.1122
▁말씀	-11.1123
▁연결합니다	-11.1123
▁가로	-11.1124
▁상당	-11.1124
▁댓글	-11.1125
)))	-11.1125
▁되는지	-11.1125
▁편의성	-11.1127
프레	-11.1128
▁성분이	-11.1129
▁특성에	-11.113
"""	-11.113
auto	-11.1131
흔	-11.1131
ade	-11.1132
▁스타일의	-11.1133
▁감별	-11.1134
Open	-11.1136
▁상대적	-11.1137
util	-11.1137
yl	-11.1142
cover	-11.1142
▁AR	-11.1143
▁티켓	-11.1144
▁Con	-11.1144
▁프로젝트에서	-11.1145
▁World	-11.1146
▁일일	-11.1147
entry	-11.1152
▁생성자	-11.1153
▁영역에서	-11.1153
▁싸움	-11.1155
▁손님	-11.1156
ll	-11.1157
정리하면	-11.1158
▁바꾸는	-11.1159
▁수면을	-11.1159
머리	-11.1161
번처럼	-11.1162
▁서류	-11.1163
layout	-11.1163
Work	-11.1163
()#	-11.1163
▁가상의	-11.1164
받	-11.1164
▁폐포	-11.1165
mL	-11.1167
비가	-11.1168
▁의미는	-11.1169
기구	-11.1169
촉	-11.117
▁파워	-11.1171
▁봇	-11.1173
용으로	-11.1175
▁파일로	-11.1175
▁나누는	-11.1179
▁시기는	-11.1181
렐	-11.1182
Auth	-11.1182
조선	-11.1182
▁과거의	-11.1183
▁납	-11.1184
▁Di	-11.1184
을까요	-11.1185
▁발휘	-11.1186
first	-11.1187
lower	-11.1188
▁길이를	-11.1189
▁확립된	-11.1191
▁튜토리얼	-11.1191
▁프로세서	-11.1191
▁RNA	-11.1193
▁연구자	-11.1195
▁생성하세요	-11.1196
▁동맥	-11.1198
▁본인	-11.1199
구매	-11.1199
▁주름	-11.12
▁명칭	-11.1204
▁활동과	-11.1204
▁자극을	-11.1204
▁열성	-11.1204
▁서비스와	-11.1205
몽	-11.1206
par	-11.1206
process	-11.121
▁콘솔	-11.121
▁첨부	-11.1213
▁박스	-11.1214
▁전문의	-11.1215
▁해당한다	-11.1217
장에서	-11.1218
▁나타난	-11.1218
▁항응고제	-11.122
pip	-11.122
▁순서를	-11.122
▁디자인은	-11.1223
응	-11.1223
▁지상	-11.1223
▁당신을	-11.1225
값을	-11.123
▁가방	-11.123
일까지	-11.123
▁배운	-11.1231
▁Web	-11.1231
▁회색	-11.1233
▁모아	-11.1234
▁분석에	-11.1234
▁무료로	-11.1235
▁경영진	-11.1236
▁정체	-11.1237
▁고품질의	-11.1239
▁사고를	-11.1239
layers	-11.1242
ans	-11.1243
▁여부와	-11.1244
코르	-11.1244
▁내어	-11.125
▁오스트리아	-11.1251
▁노벨	-11.1253
▁도와주	-11.1254
이었고	-11.1254
▁노력과	-11.1255
▁프로젝트는	-11.1258
리며	-11.1263
▁비교해	-11.1263
▁배우가	-11.1263
부분	-11.1264
ns	-11.1265
▁모델과	-11.1265
식이	-11.1265
▁계약의	-11.1266
▁막는	-11.1267
▁없거나	-11.1267
산업	-11.1269
▁추세	-11.1269
▁다양성과	-11.1271
▁실무	-11.1273
▁부부	-11.1274
▁따져봐야겠	-11.1276
▁양수	-11.1276
▁pass	-11.1276
▁요청하는	-11.1278
▁동생	-11.1281
ish	-11.1286
▁블록을	-11.1287
▁위치해	-11.1288
▁냉장고	-11.1288
▁팬데믹	-11.1289
▁폐기	-11.1291
Access	-11.1294
▁형용사	-11.1294
▁경쟁력을	-11.1295
▁자연스럽게	-11.1295
▁button	-11.1298
domain	-11.1299
▁조율	-11.13
▁투자를	-11.13
▁Excel	-11.13
▁하드	-11.13
hy	-11.13
▁손상과	-11.1301
섭	-11.1301
▁쿠키	-11.1302
▁잠재적으로	-11.1304
hidden	-11.1304
▁숙박	-11.1305
하나	-11.1306
우는	-11.1308
들과의	-11.1309
▁증가시킬	-11.1309
파이썬	-11.131
명은	-11.1311
시킨다	-11.1313
▁아래로	-11.1314
▁사원	-11.1316
았다	-11.1317
▁집에	-11.1318
place	-11.132
▁워크플로	-11.1321
▁사건은	-11.1323
▁광범위	-11.1324
납니다	-11.1324
▁중세	-11.1327
▁표현식	-11.1327
▁공주	-11.1327
▁context	-11.1328
▁면적	-11.1329
▁세균성	-11.1329
▁노동자	-11.1329
▁단정	-11.1329
▁{'	-11.133
▁가져오는	-11.1333
'))	-11.1333
▁텍스트가	-11.1334
▁파이프라인	-11.1334
BS	-11.1334
▁나서	-11.1334
브로	-11.1336
▁동일	-11.1337
▁뜻이	-11.1338
▁최소화하고	-11.1339
▁원형	-11.1339
▁컴퓨터의	-11.1339
DS	-11.1339
▁타일	-11.134
▁가루	-11.1341
햄	-11.1342
▁검역	-11.1342
원은	-11.1344
전쟁	-11.1346
파운드	-11.135
▁생겨	-11.1351
▁토끼	-11.1352
Builder	-11.1353
▁유연한	-11.1353
▁헤어	-11.1356
찌	-11.1361
▁과정의	-11.1361
▁작곡가	-11.1362
보험	-11.1362
▁각막	-11.1364
JSON	-11.1365
▁스트레스와	-11.1367
▁세우고	-11.1369
▁분명	-11.137
execute	-11.137
▁보호할	-11.1371
he	-11.1372
해집니다	-11.1374
프라	-11.1375
힐	-11.1376
▁장점은	-11.1377
냅니다	-11.1377
▁느꼈습니다	-11.1378
▁생산량	-11.138
Task	-11.1382
▁double	-11.1382
▁분석합니다	-11.1383
▁()	-11.1384
중국	-11.1386
PC	-11.1387
▁인터랙티브	-11.1389
▁일기	-11.139
▁종류에	-11.1391
▁욕구	-11.1392
스코	-11.1394
▁특징과	-11.1395
▁견과류	-11.1399
▁감염과	-11.1401
▁감소가	-11.1406
▁생일	-11.1406
▁통합하여	-11.1407
▁제어할	-11.141
동물	-11.141
▁희생	-11.1411
▁문장이	-11.1412
▁가능성은	-11.1412
▁제국의	-11.1413
▁이용하는	-11.1413
▁처음부터	-11.1414
▁제공자	-11.1414
▁톰	-11.1415
▁왔다	-11.1415
▁결합한	-11.1415
AST	-11.1415
tri	-11.1417
home	-11.1417
▁여성은	-11.1417
▁흉터	-11.1418
▁방문하여	-11.1418
▁들면	-11.1419
왔	-11.142
▁외에	-11.142
▁담아	-11.1422
▁습득	-11.1423
플러그인	-11.1423
▁아나	-11.1424
LO	-11.1425
obj	-11.1425
▁수행하기	-11.1426
▁옛적에	-11.1428
▁국립공원	-11.1428
▁동물이	-11.1429
ik	-11.1429
▁아이디어와	-11.1433
▁출혈을	-11.1436
끼	-11.1436
clear	-11.1438
▁INT	-11.1439
▁자유를	-11.1441
▁\_\_	-11.1441
nltk	-11.1443
▁직원이	-11.1445
켈	-11.1446
▁월경	-11.1447
▁드레싱	-11.1447
println	-11.1448
▁재료로	-11.1448
▁관류	-11.1448
▁의자	-11.1449
▁first	-11.1449
형을	-11.145
▁문의해	-11.1453
▁랜덤	-11.1453
▁여성에서	-11.1455
▁fetch	-11.1457
Check	-11.1457
ele	-11.1458
▁문장은	-11.1459
▁중요하지만	-11.1462
zip	-11.1462
▁기반을	-11.1463
화와	-11.1463
▁단락을	-11.1465
▁확인한	-11.1465
▁정의를	-11.1466
▁세포의	-11.1466
▁필요하지만	-11.147
▁전망	-11.1471
▁왜곡	-11.1471
▁염색체	-11.1472
▁미친	-11.1474
프로젝트	-11.1475
FS	-11.1478
▁산소를	-11.1485
▁스펙트럼	-11.1485
▁into	-11.1486
▁업데이트하는	-11.1486
▁컬러	-11.1487
▁계산을	-11.1489
tasks	-11.149
access	-11.1492
▁연대	-11.1495
▁침착	-11.1495
▁진찰	-11.1496
▁숨을	-11.1497
획	-11.1499
JS	-11.1501
▁원합니다	-11.1504
▁종의	-11.1504
▁비용과	-11.1508
▁커리어	-11.1508
▁새우	-11.1509
▁대답	-11.1512
work	-11.1512
굽	-11.1518
▁부분은	-11.1521
▁발표한	-11.1521
▁입을	-11.1522
▁관련성이	-11.1522
▁정책과	-11.1523
▁상담하여	-11.1523
▁경미한	-11.1524
audio	-11.1524
▁체계적으로	-11.1526
layer	-11.1527
▁평가와	-11.1533
▁첨단	-11.1534
▁사냥	-11.1535
▁가이드라인	-11.1536
null	-11.1536
▁가족에게	-11.1537
맹	-11.1537
▁비누	-11.1539
▁customer	-11.154
▁해서	-11.1541
먹	-11.1542
▁개발과	-11.1544
--------------	-11.1548
▁법을	-11.1548
▁장시간	-11.155
▁초에	-11.155
서버	-11.155
▁리뷰를	-11.1552
▁유의미한	-11.1553
▁차량의	-11.1554
▁동전	-11.1554
▁권리와	-11.1555
▁경주	-11.1555
▁걸릴	-11.1556
▁소독	-11.1557
▁AD	-11.1557
▁종속성	-11.1558
었을	-11.1559
▁디렉터리에	-11.1559
▁연산을	-11.156
▁경쟁력	-11.1561
▁불리	-11.1563
▁연구하는	-11.1565
si	-11.1568
ster	-11.157
▁인도의	-11.157
▁주스	-11.1572
▁기쁩니다	-11.1572
▁돕습니다	-11.1573
날짜	-11.1574
▁완벽하게	-11.1575
▁옆	-11.1576
▁능력은	-11.1576
▁증상에	-11.1577
▁임무	-11.1578
nav	-11.1578
GA	-11.1579
▁state	-11.1581
buffer	-11.1582
▁중요하다는	-11.1584
막염	-11.1584
▁약제를	-11.1584
▁격	-11.1584
▁폰	-11.1584
▁전도	-11.1585
▁소견	-11.1585
▁Ar	-11.1588
▁도출	-11.1588
ful	-11.1589
테스트	-11.159
mark	-11.1594
▁태평양	-11.1594
▁중요하게	-11.1597
▁기간은	-11.1599
거래	-11.1599
▁척도	-11.16
▁건강하고	-11.16
ling	-11.16
▁견	-11.1601
▁투수	-11.1603
▁보이	-11.1603
술은	-11.1603
▁라이트	-11.1604
▁LED	-11.1604
TR	-11.1605
▁구합니다	-11.1606
▁폐지	-11.1609
▁넘는	-11.1611
▁스니펫	-11.1611
▁하이브리드	-11.1611
▁불일치	-11.1612
▁물은	-11.1614
▁관건이	-11.1615
copy	-11.1616
▁False	-11.1616
▁화학적	-11.1618
▁드리	-11.1619
ef	-11.162
정의	-11.162
▁사건의	-11.1621
▁취해야	-11.1621
칙	-11.1623
클레	-11.1623
av	-11.1624
▁적합하지	-11.1625
▁받았다	-11.1627
▁사용되었습니다	-11.1631
▁열심히	-11.1631
▁인덱스를	-11.1636
▁이주	-11.1636
▁몸의	-11.1636
▁표현은	-11.1637
부를	-11.1638
▁분석가	-11.1638
gr	-11.1638
mod	-11.1639
▁이미지가	-11.1639
지며	-11.1639
▁마음챙김	-11.1641
Sheet	-11.1641
상은	-11.1641
▁선천성	-11.1644
▁현재는	-11.1645
▁일대	-11.1646
▁만족도를	-11.1646
▁비어	-11.1646
▁그것	-11.1647
관을	-11.1647
넌	-11.1647
▁평가가	-11.1648
▁상황에서는	-11.1649
▁성장하고	-11.1649
▁낮추고	-11.165
display	-11.165
tfidf	-11.1651
github	-11.1651
요청	-11.1651
▁기밀	-11.1655
멸	-11.1655
▁묻	-11.1656
▁발목	-11.1656
▁부모님	-11.1658
components	-11.1658
▁이어진	-11.1659
▁check	-11.1659
▁엄청난	-11.166
퀴	-11.166
타입스크립트	-11.1662
▁컴퓨터가	-11.1667
▁빛나는	-11.1669
▁트레이딩	-11.167
eu	-11.1671
▁제목은	-11.1673
RS	-11.1675
접	-11.1676
▁정권	-11.1677
콤	-11.1678
▁코끼리	-11.168
▁입고	-11.1681
▁열쇠	-11.1682
fe	-11.1684
▁신속한	-11.1685
▁빼	-11.1686
▁검색하고	-11.1688
VC	-11.1689
▁email	-11.1693
▁아버지는	-11.1693
▁태반	-11.1693
▁GPU	-11.1694
▁관할	-11.1695
인자	-11.1699
watch	-11.1701
▁약물로	-11.1701
▁생식	-11.1702
)'	-11.171
함과	-11.171
▁데이터에서	-11.1713
정책	-11.1714
▁클라	-11.1716
▁지방산	-11.172
Json	-11.172
리기	-11.172
▁감염성	-11.1722
▁먹으면	-11.1723
▁태어났어	-11.1723
▁걸린	-11.1724
▁곡은	-11.1724
▁가열	-11.1724
▁동물을	-11.1725
▁값의	-11.1726
지방	-11.1727
▁인물로	-11.1728
짓	-11.1729
▁머리를	-11.1729
▁수락	-11.1729
▁one	-11.173
▁그룹은	-11.1731
▁상단	-11.1734
▁질감	-11.1735
▁등은	-11.1735
▁전략과	-11.1736
select	-11.1736
출처	-11.1737
▁지위	-11.1738
렘	-11.1739
▁아이스크림	-11.1739
▁살펴봅니다	-11.1739
Game	-11.174
')#	-11.174
▁본질	-11.174
▁쥐	-11.1741
▁캔	-11.1741
▁미소	-11.1741
RF	-11.1742
▁항목은	-11.1743
하자	-11.1744
▁완화하기	-11.1746
Write	-11.1746
meta	-11.1746
▁함수입니다	-11.1746
▁담배	-11.1747
▁삼아	-11.1748
▁표시된	-11.1749
▁열기	-11.1749
토큰	-11.1751
시키	-11.1751
▁기간에	-11.1752
▁전체를	-11.1753
▁했던	-11.1754
▁총기	-11.176
▁batch	-11.1761
▁탑	-11.1764
IO	-11.1768
째	-11.1769
Application	-11.1769
▁브랜딩	-11.1769
ray	-11.1771
▁준다	-11.1772
에너지	-11.1776
▁반복하고	-11.1777
▁짜	-11.1777
▁문화의	-11.1777
▁모니터	-11.1778
Un	-11.1779
▁영아	-11.178
▁손으로	-11.1781
년의	-11.1782
▁문장으로	-11.1782
▁store	-11.1782
▁기관은	-11.1783
▁맥박	-11.1784
▁지내	-11.1784
▁소재로	-11.1786
▁기여하는	-11.1787
▁상염색체	-11.1789
▁방법에는	-11.179
▁보호와	-11.179
▁실습	-11.179
▁우측	-11.1791
▁조정합니다	-11.1792
DI	-11.1793
갔습니다	-11.1793
▁고용주	-11.1793
▁최적화하는	-11.1793
sp	-11.1793
▁앞선	-11.1794
ave	-11.1794
▁내리고	-11.1794
▁외국인	-11.1797
▁요로	-11.1797
Command	-11.1799
라스	-11.1805
▁누락된	-11.1806
▁강제	-11.1806
▁커뮤니케이션을	-11.1807
톡	-11.1807
▁size	-11.1809
convert	-11.1809
▁절제술	-11.181
▁*/	-11.1811
▁말기	-11.1812
▁크기는	-11.1815
헬	-11.1817
▁골다공증	-11.1818
▁증폭	-11.1819
첩	-11.1819
"))	-11.1821
개국	-11.1821
▁포함하도록	-11.1827
acc	-11.1828
▁네트워크에	-11.1829
▁성향	-11.1833
▁물리치료	-11.1838
▁앓고	-11.1839
);//	-11.184
Box	-11.1841
당이	-11.1841
▁질환이	-11.1842
▁필요하다는	-11.1843
타르	-11.1846
▁흉통	-11.1847
▁의심된다	-11.1848
작용	-11.1848
cap	-11.1849
▁적정	-11.1849
▁서서히	-11.1849
▁개인에게	-11.185
▁보내기	-11.1851
▁뒤로	-11.1852
▁킹	-11.1854
면역	-11.1854
▁생각에	-11.1855
▁정체성	-11.1856
▁service	-11.1858
▁어렵게	-11.1858
▁뮤지컬	-11.186
ls	-11.1863
▁John	-11.1864
구를	-11.1867
▁단계의	-11.1867
▁그릴	-11.1868
떡	-11.1868
▁복귀	-11.1869
▁오해	-11.1871
▁흔들	-11.1872
▁여러분이	-11.1872
▁동향	-11.1873
▁프로젝트가	-11.1873
▁앱에서	-11.1875
▁법은	-11.1879
▁간접	-11.1879
▁커밋	-11.1879
▁상당히	-11.188
▁망	-11.1883
식은	-11.1885
기업	-11.1886
▁손상된	-11.1886
▁옹호	-11.1887
▁소고기	-11.1889
LI	-11.1889
chart	-11.189
▁회장	-11.1892
▁nltk	-11.1893
▁깨달았습니다	-11.1893
▁구조의	-11.1894
▁학위	-11.1895
▁쓰고	-11.1896
힘	-11.1896
▁야생동물	-11.1899
▁침윤	-11.1899
▁리스트	-11.1899
▁처치는	-11.1901
▁증가하는	-11.1901
▁추천을	-11.1902
▁광합성	-11.1903
▁케이크	-11.1903
▁잡은	-11.1903
협회	-11.1905
▁긍정적	-11.1907
balance	-11.1909
▁이커머스	-11.1909
▁신용카드	-11.1909
▁끌어	-11.1911
▁이름에	-11.1911
▁요통	-11.1912
▁특징은	-11.1913
▁장군	-11.1913
▁플레이어의	-11.1913
닥	-11.1913
▁total	-11.1914
꽃	-11.1917
submit	-11.1919
해주세요	-11.192
ens	-11.1921
▁이미지에	-11.1922
▁이어져	-11.1922
▁만들어졌	-11.1924
▁사유가	-11.1925
▁예정입니다	-11.1925
flu	-11.1926
▁디자인에	-11.1926
Position	-11.1929
▁관심사를	-11.1932
▁품질과	-11.1932
되기도	-11.1933
▁침입	-11.1935
뼈	-11.1936
▁항문	-11.1939
행위	-11.1939
▁brand	-11.194
버그	-11.194
▁구조에	-11.1944
▁노화	-11.1945
▁Cloud	-11.1946
▁결단력	-11.1949
▁중등도	-11.1949
▁조절하고	-11.1952
▁결정해야	-11.1952
▁일자리를	-11.1952
메타	-11.1953
▁화학요법	-11.1957
eg	-11.1959
▁may	-11.1961
▁도전에	-11.1962
▁다소	-11.1964
▁간격을	-11.1967
스라고	-11.1969
fer	-11.1972
으로도	-11.1974
▁PM	-11.1975
▁연결이	-11.1979
▁사이즈	-11.1981
handle	-11.1981
▁쇼크	-11.1982
game	-11.1983
▁한때	-11.1984
법과	-11.1985
weights	-11.1986
▁부담이	-11.1987
▁사후	-11.1992
▁알고리즘이	-11.1992
▁청중	-11.1994
▁보호에	-11.1996
▁않았고	-11.1997
▁정하고	-11.1997
▁인상을	-11.1998
▁체내	-11.2
▁계급	-11.2001
적이지	-11.2003
▁바닥에	-11.2003
▁계정에	-11.2003
md	-11.2003
데스	-11.2003
▁답을	-11.2004
룡	-11.2008
▁항구	-11.2009
▁최선의	-11.201
cl	-11.2014
▁시간대	-11.2015
gov	-11.2017
";	-11.2021
▁에너지의	-11.2023
ran	-11.2025
▁목소리로	-11.2026
▁next	-11.2026
vis	-11.2026
▁먹이를	-11.2027
files	-11.2027
▁연고	-11.2027
edit	-11.2028
▁대학에서	-11.2028
▁한정	-11.2028
▁전기를	-11.2028
▁강화할	-11.2029
▁샌드위치	-11.203
쯤	-11.203
▁의학적	-11.203
▁세트에서	-11.203
▁출혈이	-11.2037
▁어울리는	-11.2038
▁플랫폼입니다	-11.2038
▁끈	-11.2039
▁환경적	-11.2041
확	-11.2041
func	-11.2042
▁중반	-11.2043
▁범	-11.2045
profile	-11.2045
▁있었는지를	-11.2049
식으로	-11.205
▁직장에서	-11.2051
▁탁월한	-11.2054
▁절단	-11.2055
▁먹고	-11.2056
▁들어오는	-11.2057
▁국회	-11.2059
wi	-11.2059
▁유형과	-11.2059
▁간략하게	-11.2061
▁체크리스트	-11.2061
▁대회에서	-11.2062
▁어디로	-11.2063
▁부여하는	-11.2063
▁집중력	-11.2065
▁의미하는	-11.2066
▁단서가	-11.2066
증이	-11.2068
▁모양이	-11.2069
하실	-11.207
CG	-11.2071
▁비활성화	-11.2072
▁공기가	-11.2073
IG	-11.2074
▁에러	-11.2075
▁차지하는	-11.2075
▁Create	-11.2076
▁사용된다	-11.2079
▁태어났	-11.208
▁임의의	-11.2082
▁별도로	-11.2085
▁무용	-11.2087
▁‘	-11.2087
▁싱가포르	-11.2089
컨	-11.209
▁con	-11.2091
넥	-11.2091
▁페이스북	-11.2092
▁우크라이나	-11.2092
▁기분이	-11.2092
▁유형입니다	-11.2096
▁팔로워	-11.2098
▁사전에	-11.2101
▁언어가	-11.2103
tk	-11.2107
▁의사결정	-11.2108
▁뒷받침하는	-11.2109
▁물음	-11.211
▁그때	-11.2111
timestamp	-11.2112
▁비영리	-11.2112
▁누출	-11.2113
Math	-11.2114
▁대면	-11.2115
▁order	-11.2115
▁섹션을	-11.2117
소스	-11.2118
▁그들을	-11.2119
▁작성자	-11.2119
▁코미디	-11.2121
▁크리스	-11.2123
빠	-11.2123
▁타기	-11.2125
▁산업의	-11.2125
▁제정	-11.2126
▁참여도	-11.2127
초기	-11.2128
▁집계	-11.2129
▁no	-11.2131
distance	-11.2133
▁최소화하는	-11.2135
▁오버	-11.2137
▁문자열로	-11.2139
▁제안하세요	-11.2139
:|	-11.2142
▁체력	-11.2142
▁열의	-11.2144
▁게임에	-11.2147
▁호환성	-11.2147
▁단어로	-11.2148
▁계약자	-11.2149
▁메리	-11.2153
▁극복하고	-11.2154
▁정상적인	-11.2155
▁뱀	-11.2157
▁구분하는	-11.2157
else	-11.2157
▁가전제품	-11.2159
▁주거	-11.2163
Method	-11.2163
▁싶다면	-11.2163
▁영양소를	-11.2164
▁파트너십을	-11.2164
▁리스크	-11.2167
pri	-11.2167
}'	-11.2168
▁텍스트의	-11.2169
▁디자인과	-11.2169
▁그려	-11.217
▁뿐입니다	-11.217
▁저를	-11.217
▁홍콩	-11.217
▁고혈압과	-11.2174
▁모양으로	-11.2175
▁기획	-11.2175
▁배뇨	-11.2176
▁않아도	-11.2176
▁참조하는	-11.2176
case	-11.2177
▁비정상적인	-11.2177
▁담당하는	-11.218
▁도시로	-11.218
율이	-11.218
▁횟수를	-11.218
▁민감도	-11.2182
▁보냈습니다	-11.2184
release	-11.2184
▁에너지가	-11.2187
▁핀란드	-11.219
▁활용하세요	-11.219
▁메모	-11.219
▁책임자	-11.2192
▁좌석	-11.2197
ability	-11.2197
▁취향과	-11.2199
님께	-11.2203
▁치료에서	-11.2204
▁편집기	-11.2204
▁시카고	-11.2205
▁catch	-11.2207
▁할지	-11.2209
record	-11.221
대사	-11.2211
▁흐름이	-11.2211
▁올려	-11.2212
▁페이지에서	-11.2213
▁tag	-11.2214
▁될까요	-11.2214
▁상태의	-11.2214
▁있	-11.2214
gu	-11.2214
cursor	-11.2215
▁플랜	-11.2215
▁project	-11.2216
▁읽는	-11.2219
군을	-11.222
▁내장	-11.2223
븐	-11.2223
▁웰빙을	-11.2226
으면서	-11.2226
▁필름	-11.2227
EM	-11.2228
▁전화번호	-11.2229
uc	-11.2232
티스	-11.2232
▁챔피언	-11.2235
▁엉덩이	-11.2236
▁매니저	-11.2236
▁개정	-11.2236
▁않아야	-11.2239
gi	-11.224
▁느끼고	-11.2241
▁다루고	-11.2241
▁파도	-11.2243
air	-11.2243
▁상환	-11.2245
▁information	-11.2246
지거나	-11.2246
ose	-11.2247
▁원주민	-11.2247
▁가져온	-11.2248
▁일찍	-11.2248
▁결혼식	-11.2248
▁보석	-11.2248
▁학사	-11.2251
정신	-11.2252
ET	-11.2252
▁향상을	-11.2252
▁남쪽	-11.2254
▁User	-11.2254
EE	-11.2255
▁효율성과	-11.2258
▁BY	-11.2259
▁데이터베이스에서	-11.226
▁구별	-11.226
했으니	-11.2261
▁목표가	-11.2262
해진	-11.2264
치료를	-11.2265
channel	-11.2265
▁공백	-11.2266
▁카운티	-11.2267
▁세력	-11.2267
▁분포를	-11.227
숫자	-11.2272
▁흥미를	-11.2272
▁padding	-11.2277
▁존경	-11.2277
▁불확실성	-11.2278
▁초보자	-11.2278
내는	-11.2279
▁web	-11.2279
▁누구인가요	-11.2279
Cl	-11.2279
▁무증상	-11.2279
▁접근법	-11.228
▁무엇	-11.228
▁당국	-11.228
▁영향이	-11.228
▁단체가	-11.2282
▁left	-11.2283
▁지키	-11.2284
놓	-11.2285
▁경로가	-11.2285
▁상상	-11.2287
▁꾸준한	-11.2288
▁덴마크	-11.2288
▁연령과	-11.229
space	-11.2291
▁he	-11.2291
▁마감	-11.2292
conn	-11.2293
▁args	-11.2293
▁이론을	-11.2293
numbers	-11.2295
▁반전	-11.2297
▁범위와	-11.2298
▁판타지	-11.2298
▁진짜	-11.2299
▁합격	-11.23
▁우리에게	-11.23
DD	-11.2302
results	-11.2304
▁삶	-11.2305
▁후보자	-11.2306
▁보존적	-11.2307
▁전환을	-11.2307
▁바이오	-11.2308
▁걷기	-11.2309
▁한국어	-11.2309
▁유익한	-11.2311
▁조정하고	-11.2311
티아	-11.2311
▁항히스타민제	-11.2312
▁비교하는	-11.2314
▁부합하는	-11.2315
▁심사	-11.2315
털	-11.2315
명령	-11.2315
No	-11.2316
learn	-11.2317
지원	-11.2319
▁['	-11.2319
▁컨퍼런스	-11.2319
partial	-11.232
▁설치되어	-11.2321
▁하나인	-11.2321
였다는	-11.2322
columns	-11.2322
▁〈	-11.2322
목표	-11.2322
▁싶어요	-11.2323
▁누락	-11.2324
▁water	-11.2326
▁켜	-11.2327
▁준비하는	-11.2327
').	-11.2327
깔	-11.2329
Container	-11.233
▁보너스	-11.233
▁제휴	-11.2331
dy	-11.2332
%,	-11.2332
screen	-11.2333
GB	-11.2335
▁순간을	-11.2335
▁수준에	-11.2336
부종	-11.2337
blog	-11.2337
delta	-11.234
▁박테리아	-11.234
▁점령	-11.2343
▁부정맥	-11.2344
플레이	-11.2344
▁남편	-11.2344
▁find	-11.2347
▁달리기	-11.2349
hen	-11.2349
▁객체에	-11.235
▁소중한	-11.2351
Search	-11.2351
▁잭은	-11.2354
▁마찰	-11.2354
▁미토콘드리아	-11.2355
▁일부로	-11.2355
▁창문	-11.2357
▁이해합니다	-11.2358
▁터미널	-11.2361
▁도자기	-11.2362
▁자동화된	-11.2362
▁방지하고	-11.2363
▁폐쇄성	-11.2365
▁식습관	-11.2369
{{	-11.237
▁억제한다	-11.237
▁좋아합니다	-11.2371
▁업적	-11.2372
▁부작용은	-11.2372
▁IoT	-11.2373
▁포함해야	-11.2375
▁간결한	-11.2376
▁nil	-11.2377
▁판단하는	-11.2378
▁상업	-11.2378
▁안정적으로	-11.2379
valid	-11.2379
▁마드리드	-11.2381
▁입장	-11.2381
▁스프레드시트	-11.2382
계를	-11.2383
tree	-11.2387
▁클래스에	-11.2387
▁클로	-11.2387
▁수명	-11.2388
링크	-11.2388
mon	-11.2389
▁우선적으로	-11.239
▁폐질환	-11.2391
▁언어는	-11.2392
properties	-11.2393
▁미네랄	-11.2393
▁엽니다	-11.2393
▁많고	-11.2393
▁필리핀	-11.2394
▁목록입니다	-11.2395
▁궁금해	-11.2395
▁가서	-11.2399
▁생산하는	-11.2399
▁여부는	-11.24
▁인용문	-11.24
▁Mo	-11.2401
▁아름다움	-11.2401
▁방송사	-11.2402
▁홍수	-11.2402
private	-11.2403
▁포유류	-11.2403
RP	-11.2403
▁의원	-11.2404
ON	-11.2407
▁치매	-11.2407
▁결코	-11.2408
Per	-11.241
체계	-11.241
▁팩	-11.2413
▁특허	-11.2415
cat	-11.2417
▁안과	-11.242
▁SELECT	-11.2421
las	-11.2421
▁커널	-11.2422
▁철학자	-11.2423
▁출력은	-11.2424
▁풍미	-11.2424
▁소중히	-11.2424
▁생존율	-11.2426
▁수질	-11.2426
▁때로는	-11.2427
cc	-11.2428
원의	-11.2429
▁마이	-11.2431
▁height	-11.2431
▁체크	-11.2433
▁다리를	-11.2433
ow	-11.2435
CREATE	-11.2435
▁급격한	-11.2435
▁개선에	-11.2436
▁소지	-11.2438
▁무단	-11.2439
쾌	-11.2442
EL	-11.2443
받고	-11.2445
▁프레	-11.2446
▁때때로	-11.2446
▁비가	-11.2446
▁관리는	-11.2446
▁군인	-11.2446
▁범위의	-11.2446
itis	-11.2447
▁두는	-11.2449
we	-11.245
▁선수로	-11.2451
▁db	-11.2451
▁이론적	-11.2453
티브	-11.2455
옹	-11.2455
▁이끄는	-11.2457
전자	-11.2457
언제	-11.2457
▁효율	-11.2457
Web	-11.2458
▁유연성을	-11.2459
idx	-11.246
▁냄새	-11.2463
이전	-11.2464
▁포스트	-11.2464
▁추가하면	-11.2466
▁바르	-11.2466
진다	-11.2467
▁적합	-11.2467
▁급격히	-11.2467
IR	-11.2467
face	-11.2468
▁확장할	-11.2469
플로	-11.2469
이든	-11.247
▁터치	-11.2471
▁부적절하다	-11.2472
▁친구와	-11.2472
ash	-11.2475
▁의지	-11.2475
filename	-11.2477
dr	-11.2478
▁우리를	-11.2478
cache	-11.248
▁땀	-11.248
▁늘리는	-11.2481
▁적어	-11.2482
ack	-11.2484
▁경기에서	-11.2485
MT	-11.2485
▁};	-11.2486
▁these	-11.2487
▁말해	-11.2487
▁규범	-11.2488
▁언덕	-11.2488
cy	-11.2489
▁조건에서	-11.2491
▁요인은	-11.2494
▁키울	-11.2494
▁근로자	-11.2495
▁데뷔한	-11.2496
▁지켜	-11.2499
▁즐겨보세요	-11.2499
개월간	-11.25
화학	-11.25
▁해상도	-11.2501
▁은유	-11.2502
▁신경계	-11.2508
▁구축하기	-11.2508
▁버전이	-11.2509
▁텍사스	-11.251
▁알파벳	-11.251
article	-11.2511
▁콜백	-11.2511
counts	-11.2512
▁사건에	-11.2513
둥	-11.2514
▁company	-11.2516
▁성적을	-11.2516
▁집중력을	-11.2516
비는	-11.2518
▁껍질	-11.252
센트	-11.2522
▁감염의	-11.2522
▁인터넷을	-11.2525
]:	-11.2525
▁직원들이	-11.2525
▁위축	-11.2527
▁합리적인	-11.2527
▁불안을	-11.2528
▁동반된	-11.2529
▁아니	-11.2529
▁상징하는	-11.2531
▁실제로는	-11.2531
인보이스	-11.2531
▁영원히	-11.2531
▁커뮤니티를	-11.2533
▁인정받	-11.2533
▁경도	-11.2538
▁확보하는	-11.2539
Bar	-11.2545
▁보장할	-11.2546
▁포함된다	-11.2548
()```	-11.2549
▁어둠	-11.2551
▁요구사항	-11.2552
{\	-11.2553
▁업	-11.2554
계의	-11.2555
PE	-11.2559
▁비정상	-11.2559
전을	-11.2559
ism	-11.256
▁직사각형	-11.2563
driver	-11.2564
▁영역에	-11.2565
▁법안	-11.2568
▁묘	-11.2571
공학	-11.2571
로운	-11.2573
이었으니	-11.2574
▁카테터	-11.2574
▁컨설턴트	-11.2574
▁포함되지	-11.2574
▁제공했습니다	-11.2576
▁전기차	-11.2577
주간	-11.2578
▁주최	-11.2578
▁효과로	-11.258
▁장려하는	-11.2582
oo	-11.2583
▁구현을	-11.2585
▁유방암	-11.2586
요약하면	-11.2587
그레	-11.2591
▁전략의	-11.2591
▁예수	-11.2592
튀	-11.2595
다리	-11.2596
▁그레이	-11.2596
지구	-11.2597
▁세상에서	-11.2597
▁마비	-11.2598
▁사자	-11.2599
graph	-11.2602
▁show	-11.2603
▁시작됩니다	-11.2604
▁개인은	-11.2604
▁구독자	-11.2606
▁무거운	-11.2606
▁판다	-11.2607
▁numpy	-11.261
metrics	-11.2611
▁창업	-11.2611
▁독립적인	-11.2612
▁노드를	-11.2612
▁시설을	-11.2613
▁전투에서	-11.2614
▁유기농	-11.2614
는지가	-11.2615
▁외모	-11.2615
▁경제에	-11.2616
▁이른	-11.2616
몇	-11.2617
▁나타납니다	-11.2617
▁재채기	-11.2617
▁옮기	-11.2617
▁주목할	-11.2618
▁관계에서	-11.2618
▁조산	-11.2618
▁주목	-11.2621
구조	-11.2623
분석	-11.2625
▁편의	-11.2626
대에	-11.2629
power	-11.2629
Player	-11.2631
▁iOS	-11.2631
로도	-11.2632
▁다운	-11.2632
define	-11.2632
topic	-11.2632
으로써	-11.2635
▁상피	-11.264
▁대동맥	-11.2641
▁논의합니다	-11.2641
▁기반한	-11.2641
▁통로	-11.2641
▁인재	-11.2642
▁count	-11.2642
multi	-11.2642
▁자산을	-11.2643
▁커버	-11.2644
▁포용	-11.2645
▁독소	-11.2646
감이	-11.2647
클리	-11.2647
시티	-11.2649
▁융합	-11.2649
▁조류	-11.265
children	-11.265
▁아이디어가	-11.2653
박쥐	-11.2655
▁식별할	-11.2655
None	-11.2655
▁sub	-11.2656
▁불렀	-11.2657
액을	-11.2657
▁못해	-11.2659
▁di	-11.2659
었	-11.2659
▁누구지	-11.2659
▁기전은	-11.266
▁아니라는	-11.266
▁이외에도	-11.266
코러스	-11.2662
▁기회에	-11.2662
산소	-11.2663
▁ex	-11.2665
ome	-11.2667
▁예방할	-11.2667
▁피임	-11.2668
▁근처에	-11.2669
has	-11.2669
▁향기	-11.2669
▁익숙	-11.267
▁인체	-11.2672
▁근거는	-11.2672
▁관리자는	-11.2673
▁널	-11.2674
▁pH	-11.2674
▁참여한	-11.2676
▁인증을	-11.2677
▁숫자의	-11.268
▁화려한	-11.2682
▁include	-11.2684
▁두통과	-11.2684
diff	-11.2685
▁일반적	-11.2686
▁범위에	-11.2688
▁나치	-11.2688
npm	-11.2689
▁득점	-11.2691
cu	-11.2692
▁제조사	-11.2692
tags	-11.2694
▁디테일	-11.2695
▁단서	-11.27
▁고리	-11.2702
ular	-11.2703
▁작성해야	-11.2703
\*\*\*\*\*\*\*\*	-11.2704
▁눌러	-11.2704
▁char	-11.2704
!	-11.2706
▁눈물	-11.2707
TI	-11.2708
compute	-11.2709
▁형사	-11.271
▁임무를	-11.271
▁최근에	-11.2711
▁간기능	-11.2711
오류	-11.2714
▁가능성에	-11.2715
▁친구를	-11.2716
▁사용의	-11.2717
▁아들이	-11.2719
▁대칭	-11.2719
▁주제로	-11.2722
국가	-11.2722
dart	-11.2725
▁색이	-11.2725
▁수신자	-11.2726
▁인간이	-11.2726
▁uint	-11.2727
▁도시에	-11.2727
▁사용되지	-11.2728
);}```	-11.2728
own	-11.2728
▁메시지는	-11.2728
하시는	-11.273
version	-11.273
주를	-11.2731
▁인물들	-11.2733
▁선출	-11.2735
▁중입니다	-11.2735
▁저항성	-11.2738
▁연구에서는	-11.2738
▁학습과	-11.2738
▁살펴보고	-11.2739
▁협력과	-11.274
way	-11.274
▁환영합니다	-11.2744
▁역대	-11.2744
▁공식적으로	-11.2745
▁세우는	-11.2745
upload	-11.2747
▁핵심이겠	-11.2747
▁강도를	-11.2749
▁것부터	-11.275
▁보였다	-11.275
mmHg	-11.275
▁분석은	-11.2752
▁load	-11.2752
▁final	-11.2752
점으로	-11.2753
▁기형	-11.2754
▁넘치는	-11.2754
▁대여	-11.2755
▁근대	-11.2755
sqrt	-11.2758
▁plan	-11.2758
▁팟캐스트	-11.2758
▁who	-11.276
했다면	-11.2762
▁낮고	-11.2763
ever	-11.2763
etc	-11.2764
▁날을	-11.2764
테르	-11.2767
▁│	-11.2768
▁싶지	-11.2773
메시지	-11.2774
▁집중하는	-11.2775
쇄	-11.2775
▁조립	-11.2775
괴	-11.2775
▁썬	-11.2777
▁some	-11.2777
하다가	-11.2778
▁고관절	-11.2778
▁혈액검사	-11.278
▁트윗	-11.278
냈습니다	-11.278
YOUR	-11.278
▁디저트	-11.278
▁알아야	-11.278
▁로스앤젤레스	-11.2781
음악	-11.2781
CL	-11.2782
▁위임	-11.2784
▁이상은	-11.2785
▁일관성을	-11.2786
▁안쪽	-11.2787
▁보급	-11.2789
웃으며	-11.2793
▁다양하게	-11.2793
▁여아가	-11.2795
▁Me	-11.2795
▁용액	-11.2798
dt	-11.2802
▁설정되어	-11.2803
▁필터를	-11.2803
▁단서를	-11.2804
▁과잉	-11.2805
였다	-11.2807
▁항생제는	-11.2808
▁나이가	-11.2809
try	-11.2814
▁공룡	-11.2815
▁동쪽	-11.2817
MR	-11.2817
▁막을	-11.2817
▁자료가	-11.2818
▁사용되어	-11.2818
▁분비를	-11.2819
flow	-11.282
begin	-11.2821
손상	-11.2823
▁design	-11.2823
▁오프라인	-11.2824
▁교육에	-11.2828
▁권장합니다	-11.2829
장으로	-11.2829
▁문제입니다	-11.2829
▁공간에	-11.283
▁date	-11.283
ix	-11.2832
▁장내	-11.2832
▁동부	-11.2833
▁고양이는	-11.2833
NF	-11.2834
▁형성할	-11.2835
따	-11.2835
스크립트	-11.2836
▁유해	-11.2836
inputs	-11.2837
▁돼지	-11.284
▁양이	-11.2842
▁마법의	-11.2843
▁프레스	-11.2844
으므로	-11.2844
eral	-11.2845
헨	-11.2846
▁순서대로	-11.2847
▁만든다	-11.2848
▁보험료	-11.2848
▁감지하고	-11.2851
▁간격으로	-11.2852
어스	-11.2852
▁연결하여	-11.2853
죽	-11.2853
▁조직에서	-11.2853
였으며	-11.2853
account	-11.2854
▁아래는	-11.2855
종의	-11.2857
▁비트코인	-11.2858
su	-11.286
▁규모가	-11.286
▁수익성	-11.2862
모토	-11.2862
▁속성이	-11.2864
▁해체	-11.2865
▁약한	-11.2867
Company	-11.2868
▁꼬리	-11.2868
▁혈장	-11.287
▁소견과	-11.2872
내고	-11.2872
산화	-11.2873
아르헨티나	-11.2877
▁스코틀랜드	-11.2877
▁높아집니다	-11.288
시키며	-11.288
▁시작되었습니다	-11.2882
▁친절	-11.2884
▁지속성	-11.2885
▁면제	-11.2887
쟁	-11.2887
글루	-11.2888
▁오늘은	-11.2889
앵	-11.289
▁want	-11.2892
병원	-11.2892
▁불립니다	-11.2892
▁팝	-11.2892
▁예시일	-11.2892
▁재능	-11.2893
▁않다는	-11.2894
▁태아의	-11.2896
▁`/	-11.2896
▁질병의	-11.2897
▁해결하려면	-11.2898
mer	-11.29
▁스킬	-11.29
▁배려	-11.2901
▁스토리텔링	-11.2902
▁가리	-11.2903
▁코칭	-11.2904
▁측정값	-11.2905
▁프로그램에서	-11.2905
▁부분으로	-11.2905
▁때가	-11.2906
lock	-11.2907
▁진보	-11.2908
▁젖	-11.2909
▁늘릴	-11.2913
▁사용했습니다	-11.2914
▁집합의	-11.2916
▁활동성	-11.2916
러스	-11.2917
▁공정한	-11.2917
▁이자율	-11.2918
▁맹	-11.2919
▁탐색하고	-11.2919
심을	-11.2922
트의	-11.2923
▁[	-11.2924
짜리	-11.2924
▁꼬	-11.2924
▁패킷	-11.2925
Active	-11.2925
▁아프	-11.2925
▁깨끗하게	-11.2925
▁team	-11.2929
▁완화할	-11.293
▁입은	-11.293
▁합계	-11.2934
▁예전	-11.2934
▁베르	-11.2935
▁라우팅	-11.2935
▁프로퍼티	-11.2936
▁별자리	-11.2936
▁제안된	-11.2937
술을	-11.2938
▁나무를	-11.2938
▁사회를	-11.2938
맵	-11.294
▁예제를	-11.294
▁변경합니다	-11.2941
▁our	-11.2943
▁처분	-11.2947
▁않으	-11.2948
▁일부가	-11.2949
ler	-11.295
세를	-11.295
▁산소화	-11.295
optimizer	-11.295
▁query	-11.295
▁render	-11.2951
경기	-11.2953
▁상부	-11.2958
▁방문자	-11.2958
▁일에	-11.2961
▁고열	-11.2961
▁LLC	-11.2969
▁강조하고	-11.297
▁잔액	-11.2971
▁Next	-11.2972
▁독립적으로	-11.2974
당시	-11.2975
▁평점	-11.2975
▁바뀌	-11.2975
font	-11.2977
▁필드에	-11.2977
▁수용체를	-11.2978
over	-11.2979
딜	-11.2979
되는지를	-11.2981
late	-11.2981
▁시작해야	-11.2982
▁보려면	-11.2983
ile	-11.2984
▁약물치료	-11.2984
▁강좌	-11.2985
▁새끼	-11.2985
MB	-11.2986
화는	-11.2986
du	-11.2988
▁유치	-11.2988
▁확인하려면	-11.299
▁수행한	-11.299
▁LinkedIn	-11.2991
El	-11.2991
▁내원했고	-11.2991
▁인물의	-11.2992
▁나선	-11.2992
▁반응과	-11.2992
▁향상시킵니다	-11.2993
▁패배	-11.2993
가며	-11.2994
▁거미	-11.2995
위험	-11.2996
률을	-11.2996
▁빠지	-11.2996
릅니다	-11.2997
▁체스	-11.2998
할지	-11.2998
▁커서	-11.2998
database	-11.2998
Document	-11.3002
▁명령줄	-11.3004
▁과장	-11.3005
▁춤을	-11.3005
▁국가는	-11.3009
▁환경의	-11.3009
▁정확도를	-11.301
}$	-11.301
▁조각을	-11.3012
▁목소리를	-11.3013
▁측정하고	-11.3014
▁조금씩	-11.3014
▁식물을	-11.3014
[[	-11.3015
▁메일	-11.3019
▁저산소증	-11.302
LP	-11.302
▁배우기	-11.3021
방송	-11.3021
ev	-11.3024
▁최소화하기	-11.3025
▁유도할	-11.3025
child	-11.3025
▁타임라인	-11.3025
▁거리가	-11.3025
▁주지	-11.3026
▁컴퓨터는	-11.3026
▁인식하는	-11.3028
▁보전	-11.303
▁면에서	-11.3031
▁시간적	-11.304
▁확실한	-11.304
▁가져와	-11.3042
TH	-11.3042
▁누구나	-11.3045
▁className	-11.3045
▁이어지	-11.3045
▁기분을	-11.3046
▁성취	-11.3047
▁build	-11.3047
▁경사	-11.3047
▁날은	-11.3047
▁구현하기	-11.3048
');	-11.3048
▁수준에서	-11.3049
▁감소한다	-11.305
sim	-11.3052
▁바위	-11.3055
▁구성원들	-11.3056
▁금리	-11.3057
▁폭풍	-11.3058
▁언제인지를	-11.3058
SIZE	-11.3058
▁일어날	-11.3058
▁성인의	-11.3062
▁로드합니다	-11.3063
▁감수	-11.3064
▁일으킨	-11.3066
TV	-11.3066
packages	-11.3066
▁구워	-11.3066
▁기능의	-11.3067
인들이	-11.3068
▁스파	-11.3068
▁수준이	-11.3069
▁구성할	-11.3069
cre	-11.307
▁예외를	-11.3071
프린	-11.3076
▁여성에게	-11.3077
룬	-11.3081
Price	-11.3082
▁role	-11.3086
▁떠오르는데	-11.3086
▁설득	-11.3086
▁재난	-11.3088
동성	-11.3088
sc	-11.3088
▁색을	-11.3088
▁업데이트할	-11.3089
▁일치하지	-11.3089
rin	-11.309
uint	-11.309
▁전체적인	-11.3091
▁노력해야	-11.3092
▁임베딩	-11.3092
▁터널	-11.3092
parser	-11.3094
대의	-11.3095
▁믿는	-11.3095
증과	-11.3095
▁뉴질랜드	-11.3095
▁능숙	-11.3096
▁국가에서	-11.3096
▁논의하고	-11.3097
▁가이드를	-11.3097
일이라고	-11.3099
▁콘텐츠에	-11.31
▁가족을	-11.31
▁동시	-11.3102
cluster	-11.3104
▁국제적인	-11.3104
selected	-11.3105
▁덕	-11.3107
▁html	-11.3108
loc	-11.3109
▁인원	-11.3109
▁존재할	-11.311
▁위장	-11.3111
ru	-11.3112
▁음악은	-11.3112
ware	-11.3113
▁캐릭터를	-11.3113
▁몸이	-11.3114
▁의미와	-11.3117
▁경비	-11.3118
오리	-11.3119
sk	-11.3119
▁완벽	-11.3119
▁풍선	-11.3121
품을	-11.3121
▁모금	-11.3124
BE	-11.3125
tensor	-11.3126
▁페르소나	-11.3126
▁고혈당	-11.3127
하지는	-11.3127
▁성공한	-11.3129
▁지갑	-11.3129
▁발전시킬	-11.3129
▁계획과	-11.3131
▁마친	-11.3131
▁데이비드	-11.3133
급성	-11.3133
체가	-11.3134
▁재위	-11.3137
뢰	-11.3138
인산	-11.3139
▁정보의	-11.314
▁대응할	-11.3141
▁빠져	-11.3142
형성	-11.3142
돼	-11.3143
▁본래	-11.3143
카라	-11.3144
▁형태가	-11.3146
쇠	-11.3146
que	-11.3148
▁거버넌스	-11.3149
apt	-11.3149
tail	-11.3151
▁신원	-11.3151
▁감소하고	-11.3152
instance	-11.3152
▁An	-11.3153
▁수렴	-11.3158
▁측면에	-11.3158
리안	-11.3159
Invoice	-11.316
▁덱	-11.316
슬라	-11.3161
시험	-11.3161
▁정리하고	-11.3163
▁고속	-11.3163
라운드	-11.3164
▁부호	-11.3164
▁상승이	-11.3164
▁외계	-11.3165
▁부울	-11.3168
▁담관	-11.3171
▁아니고	-11.3172
하라는	-11.3173
▁server	-11.3174
▁치료하는	-11.3174
▁턱	-11.3176
▁작업할	-11.3176
▁설치할	-11.3178
▁적극적인	-11.3178
▁빌더	-11.3179
▁리더는	-11.3179
▁기본값	-11.3179
▁경험하고	-11.3181
▁사법	-11.3182
▁이력을	-11.3182
▁요금제	-11.3185
▁Ioni	-11.3186
▁사용과	-11.3187
▁대수	-11.3188
▁관리합니다	-11.3189
▁사용자와	-11.319
▁관리자가	-11.319
주가	-11.319
▁인도네시아	-11.3191
▁컴퓨터를	-11.3193
▁오는	-11.3194
iter	-11.3194
▁정치인	-11.3195
rel	-11.3195
▁어디인가요	-11.3196
▁지속적	-11.3196
▁제시하고	-11.3196
득	-11.3197
▁해결해야	-11.3199
ions	-11.32
▁범위에서	-11.32
▁압통	-11.3205
▁여행지	-11.3206
news	-11.3207
▁요리에	-11.3207
▁행동은	-11.3207
관련	-11.3207
▁이점은	-11.3208
▁포인터	-11.3208
▁흙	-11.3209
적이거나	-11.3216
}")	-11.3216
▁합쳐	-11.3216
▁소유권	-11.3217
▁불편	-11.3217
▁베를린	-11.3217
structure	-11.3218
▁지도를	-11.3218
뛰	-11.3218
tools	-11.3224
▁휴식과	-11.3228
▁리조트	-11.3229
▁이뇨제	-11.3229
▁접근성을	-11.323
callback	-11.323
▁기록이	-11.3231
▁nn	-11.3231
▁아름다움을	-11.3232
ight	-11.3233
샘	-11.3234
▁그에게	-11.3235
▁아이의	-11.3236
▁페이지로	-11.3239
▁치료사	-11.324
▁발전은	-11.324
▁향신료	-11.324
Schema	-11.324
▁ML	-11.3241
▁math	-11.3242
ings	-11.3243
▁배변	-11.3244
▁주고받	-11.3244
▁청각	-11.3245
▁가중치를	-11.3249
SL	-11.325
keys	-11.3251
▁기관에	-11.3251
▁개통	-11.3253
Exp	-11.3254
▁해수면	-11.3254
sales	-11.3256
▁글의	-11.3257
pl	-11.3257
pass	-11.3257
Click	-11.3259
▁낮추	-11.3262
▁앨범이	-11.3264
▁Linux	-11.3265
▁잡아	-11.3267
▁성찰	-11.3267
▁가치에	-11.3268
▁고체	-11.3268
▁식료품	-11.3269
▁테스트하고	-11.327
▁나열하세요	-11.327
▁누구에게	-11.3271
▁가려	-11.3271
▁중심이	-11.3272
으시는군요	-11.3274
▁가톨릭	-11.3275
▁아침에	-11.3276
▁나라에	-11.3276
ous	-11.3278
▁낙상	-11.3279
cal	-11.3279
▁마시는	-11.328
eo	-11.3285
▁원시	-11.3286
▁방대한	-11.3286
▁크리스마스	-11.3286
▁일본어	-11.3287
일반적으로	-11.3288
▁캠퍼스	-11.3288
능력	-11.3289
▁달에	-11.329
▁추구하는	-11.3291
▁길이는	-11.3293
▁window	-11.3294
코프	-11.3294
▁따를	-11.3295
▁가능하지만	-11.3297
▁following	-11.3298
▁능	-11.3298
▁뒷	-11.3301
thing	-11.3301
tal	-11.3302
settings	-11.3303
▁위치가	-11.3305
ass	-11.3305
▁표준을	-11.3306
▁선택해	-11.3306
▁단독으로	-11.3307
▁공유합니다	-11.331
▁오브젝트	-11.331
▁진행됩니다	-11.331
▁하이킹	-11.3313
▁영상을	-11.3314
sha	-11.3316
▁늘리고	-11.3316
▁희귀	-11.3317
▁병리	-11.3318
▁해지	-11.3321
▁아보카도	-11.3321
▁LDL	-11.3322
▁왕자	-11.3322
▁대학이	-11.3323
▁주제는	-11.3323
▁침습적	-11.3328
▁IN	-11.3329
관이	-11.333
▁사슬	-11.3331
하시	-11.3332
docs	-11.3335
▁제한하는	-11.3335
▁선수는	-11.3335
DateTime	-11.3336
일반	-11.3337
▁inter	-11.3338
▁제외한	-11.3339
▁인정하고	-11.334
없는	-11.334
였어	-11.3341
▁generate	-11.3342
▁뭐가	-11.3343
▁괴물	-11.3344
▁활용한	-11.3344
새로운	-11.3344
▁font	-11.3345
▁만료	-11.3346
▁위약	-11.3346
하시겠습니까	-11.3346
▁귀사의	-11.3348
▁위젯	-11.3348
}</	-11.3349
▁거대	-11.3353
▁감사를	-11.3353
해졌습니다	-11.3354
▁행동의	-11.3355
▁번영	-11.3355
▁전술	-11.3355
▁자연재해	-11.3356
▁캔버스	-11.3356
▁건조한	-11.3356
▁가을	-11.3357
rgb	-11.3358
uri	-11.3358
▁보정	-11.3359
▁레이블을	-11.336
시스템	-11.336
▁써	-11.3361
타이	-11.3361
▁앨리스	-11.3361
▁작품에	-11.3362
▁way	-11.3362
▁불어	-11.3366
▁샘플링	-11.3367
king	-11.3367
리코	-11.3367
▁프리미엄	-11.3368
▁개념에	-11.3368
/)]	-11.3368
▁라벨	-11.3371
▁불평등	-11.3371
▁action	-11.3371
판을	-11.3371
▁폴더에	-11.3374
rt	-11.3375
▁붓	-11.3376
군은	-11.3377
▁주요한	-11.3378
)[	-11.3379
▁봉합	-11.338
stream	-11.3381
▁툴	-11.3384
▁내부에	-11.3386
non	-11.3386
과학	-11.3386
▁here	-11.3387
▁분야입니다	-11.3387
그녀가	-11.3387
▁맞추는	-11.3388
▁입증된	-11.3389
▁중심지	-11.3389
▁작성한	-11.339
▁띠	-11.3391
조사	-11.3391
콜라	-11.3392
▁없이도	-11.3392
▁육군	-11.3395
▁프로세스는	-11.3398
▁전부	-11.34
▁첨가	-11.34
슴	-11.34
▁나이에	-11.34
▁국경	-11.3402
▁콘솔에	-11.3402
δ	-11.3402
▁테두리	-11.3402
pre	-11.3403
▁브라운	-11.3404
method	-11.3405
▁호소	-11.3406
▁달린	-11.3406
▁일으킨다	-11.3406
▁Ro	-11.3407
▁이민	-11.3409
▁연계	-11.3411
▁반도	-11.3412
▁표를	-11.3413
▁우승을	-11.3413
▁협조	-11.3414
▁빈맥	-11.3415
▁쪽이	-11.3417
▁헤드	-11.3418
▁풍부하고	-11.3421
abs	-11.3421
▁강하고	-11.3423
▁관계의	-11.3424
▁동반될	-11.3424
크는	-11.3425
▁대리	-11.3426
▁준비합니다	-11.3426
nt	-11.3426
[:,	-11.3427
▁불과	-11.343
피스	-11.3431
fi	-11.3433
첨	-11.3434
오프	-11.3435
Con	-11.3436
디스	-11.3436
쿨	-11.3436
프트	-11.3437
▁추천합니다	-11.3437
▁멜로디	-11.3438
▁이야기의	-11.3439
▁높아질	-11.3441
▁가려움	-11.3442
▁닦	-11.3443
기준	-11.3443
▁배열에	-11.3444
▁엄	-11.3444
▁인사이트	-11.3444
att	-11.3445
▁재미	-11.3446
▁브레	-11.3446
롯	-11.3448
▁코드에서는	-11.3449
것	-11.3449
▁콘서트	-11.3449
cloud	-11.3449
▁빌딩	-11.345
hash	-11.3452
Provider	-11.3452
▁캠페인의	-11.3452
▁어조	-11.3453
웹	-11.3453
"#	-11.3455
▁대통령은	-11.3455
▁점프	-11.3456
▁양도	-11.3458
▁유용	-11.3459
▁학자	-11.3459
그것은	-11.346
▁현대적인	-11.3461
▁베이킹	-11.3462
▁AM	-11.3463
▁전반	-11.3463
램	-11.3465
▁중심의	-11.3466
▁피처	-11.3467
끄	-11.3468
▁육상	-11.3468
▁개선합니다	-11.347
▁빈곤	-11.3471
▁최적화하고	-11.3471
▁당사자가	-11.3472
▁지은	-11.3472
fn	-11.3473
loader	-11.3474
insert	-11.3474
▁절차가	-11.3474
▁부상을	-11.3475
▁예후	-11.3476
▁걸음	-11.3477
▁적용될	-11.3478
▁부패	-11.3478
▁파악하세요	-11.348
알파	-11.348
region	-11.348
▁도와	-11.3481
호는	-11.3481
▁이룬	-11.3482
▁테스트합니다	-11.3482
▁시나리오를	-11.3483
▁background	-11.3484
▁리디렉션	-11.3485
▁여드름	-11.3485
lution	-11.3485
▁측정할	-11.3486
▁세계적인	-11.3487
주문	-11.3487
move	-11.3489
포스	-11.3489
▁최초	-11.3489
▁them	-11.3491
▁학습자	-11.3491
race	-11.3492
cd	-11.3494
영국	-11.3494
즐	-11.3496
▁해에	-11.3497
▁예측하고	-11.3497
▁언급한	-11.3499
▁Pa	-11.3503
pad	-11.3505
▁방안을	-11.3507
▁아무것도	-11.3507
Address	-11.3508
▁좌심실	-11.3508
▁활기찬	-11.3508
▁준수해야	-11.3509
▁비자	-11.3509
▁발견할	-11.3509
▁강점과	-11.3513
▁발휘할	-11.3513
레이터	-11.3514
▁변동성	-11.3519
▁go	-11.3519
▁일으켜	-11.352
▁중증도	-11.352
▁MD	-11.3521
▁운명	-11.3521
rb	-11.3522
▁적고	-11.3525
국제	-11.3531
▁피어	-11.3532
▁iPhone	-11.3533
▁염증이	-11.3533
▁무관하다	-11.3536
스케	-11.3536
가격	-11.3536
▁필요와	-11.354
▁라운드	-11.354
시켰습니다	-11.3541
▁반응은	-11.3542
▁정직	-11.3542
유럽	-11.3543
할까요	-11.3543
▁아이디어는	-11.3543
▁흘러	-11.3544
▁징역	-11.3544
용량	-11.3544
Tree	-11.3544
▁하락	-11.3544
▁화학물질	-11.3545
▁로버트	-11.3546
▁작가는	-11.3547
▁application	-11.3548
▁시점과	-11.3549
▁요인으로	-11.355
temp	-11.3552
▁활용하고	-11.3552
▁직원을	-11.3553
▁조화를	-11.3554
▁선택입니다	-11.3555
▁판단할	-11.3555
▁나눠	-11.3555
make	-11.3556
▁지역에서는	-11.3556
verse	-11.3556
▁타이어	-11.3558
▁실행되는	-11.3558
▁GET	-11.3558
Trans	-11.3558
▁수정해야	-11.3558
▁열망	-11.356
▁배수	-11.3561
▁시위	-11.3562
▁즐기	-11.3562
▁우려가	-11.3563
맡	-11.3564
무늬	-11.3565
ii	-11.3566
trans	-11.3567
Source	-11.3567
▁출입	-11.357
phone	-11.3571
▁고환	-11.3571
▁자원의	-11.3572
▁조종	-11.3572
ute	-11.3575
▁나비	-11.3576
토리	-11.3576
▁포르투갈	-11.3578
슐	-11.3579
▁방화벽	-11.3579
▁흡인	-11.358
▁q	-11.358
▁단어와	-11.358
▁해방	-11.3582
▁base	-11.3583
▁신호가	-11.3583
▁메트릭	-11.3586
▁쪽으로	-11.359
▁전립선	-11.359
개가	-11.3592
▁수량	-11.3593
▁질소	-11.3593
▁알았습니다	-11.3595
▁증권	-11.3596
▁학교를	-11.3596
▁신부전	-11.3597
▁압력이	-11.3599
▁알리는	-11.36
▁시를	-11.3602
▁믿을	-11.3604
▁불을	-11.3606
▁반도체	-11.3606
▁증가가	-11.3607
▁도전을	-11.361
▁서쪽	-11.3611
▁body	-11.3612
gg	-11.3612
▁최근에는	-11.3613
▁얼굴을	-11.3613
▁국회의원	-11.3615
▁멘토링	-11.3616
부에	-11.3618
▁자궁내막	-11.3619
resources	-11.3619
▁high	-11.3619
▁막아	-11.3619
왜	-11.362
▁예방하고	-11.362
코스	-11.362
▁퍼즐	-11.3621
▁포인트를	-11.3621
▁후원	-11.3621
','	-11.3621
▁특징적	-11.3623
▁불과합니다	-11.3623
▁arr	-11.3623
▁낼	-11.3625
▁연재	-11.3626
filtered	-11.3626
▁기저귀	-11.363
▁상처를	-11.363
Cell	-11.3631
▁기여합니다	-11.3632
▁거품	-11.3635
▁형태와	-11.3636
stock	-11.3637
▁최소화할	-11.3637
된다고	-11.3637
▁결승	-11.3638
▁경험적	-11.3639
▁명예	-11.3639
▁얻습니다	-11.3639
Filter	-11.3639
미스	-11.3639
하이	-11.364
▁유대인	-11.3642
AF	-11.3642
▁지구를	-11.3643
▁Data	-11.3644
▁감소로	-11.3647
mathb	-11.3649
하시면	-11.3649
dis	-11.365
Session	-11.3651
▁짧고	-11.3651
▁종속	-11.3651
타임	-11.3654
▁셔츠	-11.3656
▁극복	-11.3661
▁소아에서	-11.3662
트가	-11.3663
▁추상	-11.3664
▁나눈	-11.3665
▁고등	-11.3665
▁중립	-11.3666
▁두께	-11.3667
▁파장	-11.3669
병은	-11.3671
잘	-11.3672
▁존재를	-11.3672
NP	-11.3674
▁펌프	-11.3675
다운	-11.3675
샌	-11.3675
bb	-11.3677
▁질병을	-11.3679
▁물체의	-11.3679
▁작성된	-11.3681
▁의미하며	-11.3682
▁Git	-11.3683
▁정확성	-11.3684
FC	-11.3684
▁조절에	-11.3684
▁오토	-11.3686
▁완화를	-11.3688
▁바꾼	-11.3688
▁access	-11.3689
절제술	-11.3689
▁보컬	-11.3689
▁보물	-11.3689
thread	-11.369
gl	-11.369
Range	-11.3691
▁편안하고	-11.3692
▁지지를	-11.3693
▁환영	-11.3693
최대	-11.3695
빌리	-11.3695
▁중요하며	-11.3696
▁덮	-11.3696
▁음식점	-11.3697
▁child	-11.3698
▁수요를	-11.3699
▁틈새	-11.3699
▁지붕	-11.37
▁스미스	-11.37
피아	-11.3702
▁통합할	-11.3703
▁액세서리	-11.3704
▁사로잡	-11.371
묵	-11.371
Style	-11.3711
Close	-11.3712
▁개발자는	-11.3713
Plan	-11.3713
props	-11.3713
▁조화	-11.3714
exit	-11.3716
▁아이가	-11.3716
▁원료	-11.3716
버리	-11.3717
▁Le	-11.3718
▁가격에	-11.3719
진단	-11.372
prop	-11.372
▁그리기	-11.3721
▁판결	-11.3721
system	-11.3722
kwargs	-11.3723
schema	-11.3723
▁교통수단	-11.3723
▁연골	-11.3723
▁있었는데	-11.3724
Connection	-11.3724
▁맡았	-11.3725
▁군주	-11.3725
업자	-11.3726
▁설정해야	-11.3728
▁방향이	-11.3729
▁찾아서	-11.3731
▁지역으로	-11.3732
▁스타일에	-11.3734
▁성공할	-11.3734
VA	-11.3735
▁더듬어	-11.3735
network	-11.3735
share	-11.3737
ors	-11.374
스포	-11.3741
▁프로그램과	-11.3741
▁붙어	-11.3741
"),	-11.3742
▁의존하는	-11.3742
▁장벽을	-11.3742
headers	-11.3742
▁클릭하고	-11.3742
success	-11.3743
▁역할이	-11.3744
▁video	-11.3745
▁회수	-11.3745
천만	-11.3746
▁부적절한	-11.3746
▁수집합니다	-11.3747
▁한편	-11.3747
▁MySQL	-11.3747
▁뜻입니다	-11.3749
▁문장에	-11.3749
▁크로스	-11.3749
▁새롭고	-11.3749
▁문서에	-11.3749
▁EU	-11.375
▁전개	-11.375
▁차가운	-11.375
▁수단으로	-11.3751
▁자격이	-11.3752
▁개선하여	-11.3752
▁안녕	-11.3753
텍	-11.3755
얀	-11.3757
▁앙	-11.3758
oma	-11.3758
▁용해	-11.3758
rect	-11.3759
▁기쁨	-11.376
uni	-11.3762
이면서	-11.3763
▁올린	-11.3763
보면	-11.3765
▁병사	-11.3767
▁넘어가	-11.3767
▁적용합니다	-11.3767
modules	-11.377
▁놓고	-11.3772
▁여부에	-11.3772
▁경우는	-11.3776
▁보유한	-11.378
▁원칙에	-11.378
▁내리	-11.3781
▁부합	-11.3781
sive	-11.3783
▁디즈니	-11.3783
socket	-11.3783
▁스텐트	-11.3784
▁있었으며	-11.3784
types	-11.3785
▁품	-11.3786
▁고객과의	-11.3787
▁봉사	-11.3787
▁의사가	-11.3791
마크	-11.3794
▁조절하여	-11.3794
▁퇴원	-11.3796
▁계통	-11.3798
▁실험실	-11.3798
▁밝기	-11.3798
▁섹션에	-11.3799
▁주연	-11.38
병을	-11.3801
▁신뢰성을	-11.3802
▁공급원	-11.3803
▁하와이	-11.3803
▁쉽습니다	-11.3808
▁anti	-11.3809
▁왕비	-11.3812
▁할당합니다	-11.3813
lang	-11.3813
Items	-11.3814
▁순서로	-11.3814
▁확보하고	-11.3817
▁식물이	-11.3817
▁끝내	-11.3818
▁상징적인	-11.3818
▁요구하는	-11.3819
률이	-11.3819
condition	-11.382
▁액티비티	-11.382
member	-11.382
▁포털	-11.3821
▁MS	-11.3826
▁작성하기	-11.3826
없이	-11.3827
▁기억하는	-11.3827
활성	-11.3828
▁정밀도	-11.3828
▁인생의	-11.3829
▁상세한	-11.383
▁OR	-11.3831
▁선택에	-11.3831
attention	-11.3832
▁개발하기	-11.3833
▁보류	-11.3834
판매	-11.3836
▁포기	-11.3836
▁환자에서는	-11.3837
▁대학을	-11.3837
▁연락을	-11.3837
▁흥미	-11.3838
FF	-11.384
되었던	-11.384
도르	-11.3841
▁띄는	-11.3841
▁혁신과	-11.3842
▁다가가	-11.3842
▁서면	-11.3844
addEventListener	-11.3844
▁마이크	-11.3844
▁논문을	-11.3844
▁클러스터링	-11.3846
결론	-11.3851
▁마시고	-11.3853
▁별칭	-11.3853
▁적어도	-11.3853
▁길어	-11.3853
▁언어에	-11.3853
▁바꾸고	-11.3853
네스	-11.3853
라우	-11.3855
RI	-11.3855
▁도와주는	-11.3857
▁활동의	-11.3858
치가	-11.386
▁주시면	-11.3861
▁답할	-11.3861
형은	-11.3861
John	-11.3862
▁비전을	-11.3864
market	-11.3866
▁맞춤	-11.3867
▁유대감을	-11.3868
▁주니어	-11.3869
▁헨리	-11.3869
▁경험은	-11.387
▁펴	-11.3871
▁관계와	-11.3873
async	-11.3874
▁있겠	-11.3874
▁유령	-11.3875
▁냉	-11.3875
amp	-11.3876
chat	-11.3877
누르	-11.3878
are	-11.388
II	-11.388
pool	-11.3883
▁계열의	-11.3884
▁로직을	-11.3884
▁듣는	-11.3886
▁억제하여	-11.3886
▁학대	-11.3887
해주는	-11.3887
▁there	-11.3889
선수	-11.389
▁산림	-11.3891
▁민감	-11.3891
▁바꾸기	-11.3891
qui	-11.3893
▁타이틀	-11.3893
▁관광객	-11.3894
▁단백질을	-11.3895
증의	-11.3897
conf	-11.39
▁측정합니다	-11.39
듬	-11.3902
▁제주도	-11.3905
contract	-11.3905
▁파트	-11.3906
되었어	-11.3906
쥐	-11.3907
ship	-11.391
▁center	-11.3911
웅	-11.3912
▁적용됩니다	-11.3912
▁고려한	-11.3915
▁강점	-11.3915
제도	-11.3916
▁샌프란시스코	-11.3918
▁중추신경계	-11.3918
▁발견되는	-11.3919
▁관심과	-11.3919
▁버킷	-11.392
▁안드로이드	-11.3921
▁주었습니다	-11.3921
▁전환하는	-11.3922
nu	-11.3922
▁고래	-11.3923
▁through	-11.3923
▁움직이	-11.3925
▁학교가	-11.3927
mar	-11.3927
톱	-11.3928
CF	-11.3929
▁오신	-11.393
DATE	-11.3931
케이	-11.3931
▁간결하게	-11.3931
▁조절이	-11.3931
entity	-11.3932
▁떠올려봐야겠	-11.3932
▁위치는	-11.3934
▁내면의	-11.3934
▁last	-11.3936
▁수천	-11.3937
데이	-11.3937
▁삼각형	-11.3937
웨어	-11.3937
▁경우를	-11.3937
▁둔다	-11.3939
▁왕실	-11.3941
full	-11.3942
▁경기도	-11.3942
Score	-11.3942
▁영감	-11.3942
▁disease	-11.3942
▁사실에	-11.3943
▁운용	-11.3943
▁벌채	-11.3944
▁결심했습니다	-11.3947
흘	-11.3948
▁시작한다	-11.3948
토스	-11.395
건강	-11.3951
배우	-11.3954
▁곰팡이	-11.3955
순환	-11.3955
ds	-11.3955
▁못합니다	-11.3955
▁현재까지	-11.3956
▁세워졌	-11.3956
▁요점을	-11.3956
▁내구성	-11.3957
▁요도	-11.3958
reg	-11.3959
▁진정으로	-11.3961
▁살펴야	-11.3961
▁비율이	-11.3963
▁형성된	-11.3964
▁의사의	-11.3965
▁브레이크	-11.3967
▁매력적이고	-11.3968
▁여지가	-11.3969
▁말린	-11.397
▁가르치는	-11.3971
▁ON	-11.3971
drop	-11.3972
▁가능하며	-11.3977
▁공무원	-11.3979
▁처방전	-11.398
osis	-11.3981
죄	-11.3982
▁칠	-11.3982
▁유럽에서	-11.3983
▁있었	-11.3985
▁자재	-11.3985
▁해결을	-11.3985
Or	-11.3986
▁서로에게	-11.3986
랍	-11.3988
▁match	-11.3988
▁평소	-11.3988
세는	-11.3989
지속	-11.399
$$	-11.399
▁TABLE	-11.3991
▁절차에	-11.3994
▁온라인에서	-11.3994
▁개방	-11.3994
Customer	-11.3996
▁위험은	-11.3997
▁산성	-11.3998
▁공연을	-11.4
▁일은	-11.4002
▁샘	-11.4004
▁애견	-11.4005
▁사이드	-11.4007
룰	-11.4008
▁그래	-11.4008
주에	-11.4009
▁발생률	-11.4012
▁기질	-11.4013
▁뮤직	-11.4013
▁per	-11.4015
▁면밀히	-11.4016
▁있었다는	-11.4016
▁그러한	-11.4017
▁헝가리	-11.4017
▁요청이	-11.4021
▁재미있고	-11.4022
자연	-11.4023
▁끼	-11.4024
▁궤도	-11.4024
▁국기	-11.4027
▁딕셔너리	-11.4029
Height	-11.4029
▁밖으로	-11.403
▁복강	-11.403
레이크	-11.4032
▁안전과	-11.4034
ving	-11.4038
▁시행하고	-11.4038
▁수동으로	-11.4039
Length	-11.4041
▁쓰지	-11.4044
▁맛있게	-11.4044
▁가지며	-11.4044
▁테이블에서	-11.4044
스틱	-11.4044
났	-11.4044
▁성장하는	-11.4045
▁질환으로	-11.4045
utils	-11.4047
▁정책에	-11.4047
찍	-11.4048
▁기업과	-11.4051
▁block	-11.4052
▁속성은	-11.4053
▁팀에서	-11.4053
▁토너먼트	-11.4054
▁임산부	-11.4054
▁대만	-11.4054
▁다하고	-11.4056
▁재료와	-11.4057
▁Date	-11.4057
▁포켓몬	-11.4059
파이어	-11.406
▁빙	-11.406
▁타사	-11.406
▁status	-11.4061
));	-11.4061
▁맥락	-11.4062
}`	-11.4062
마이	-11.4062
▁임계값	-11.4062
health	-11.4063
▁성당	-11.4063
▁두부	-11.4063
▁설계하고	-11.4063
Account	-11.4066
vector	-11.4066
▁유익	-11.4068
플러	-11.4068
▁집으로	-11.407
▁배경이	-11.407
하든	-11.4071
▁용서	-11.4071
었는데	-11.4071
▁안의	-11.4072
험	-11.4073
▁계산하고	-11.4074
▁유물	-11.4074
stop	-11.4074
▁복통과	-11.4075
▁씨앗	-11.4075
▁이점에	-11.4076
공원	-11.4076
▁달의	-11.4077
▁관찰하고	-11.4078
▁즐겨	-11.4078
▁옆에	-11.4079
독일	-11.4079
clo	-11.4079
▁효과적일	-11.408
▁경제학	-11.408
▁인수로	-11.408
▁물체를	-11.4082
▁극복하기	-11.4083
static	-11.4083
주면	-11.4083
Pa	-11.4085
▁object	-11.4085
▁이득이	-11.4086
▁식물은	-11.4086
▁증대	-11.4086
오공	-11.4087
▁전방	-11.4088
▁근육통	-11.4088
▁도커	-11.4088
▁토큰화	-11.4089
용품	-11.4089
ore	-11.4089
▁적을	-11.409
▁과태료	-11.4091
▁만났	-11.4091
▁행위를	-11.4093
▁내보내기	-11.4093
▁발전하고	-11.4093
▁말에	-11.4094
ser	-11.4094
▁현실적인	-11.4095
▁다크	-11.4095
▁선호도를	-11.4096
▁크리	-11.4096
▁비밀을	-11.4099
▁하부	-11.4101
▁그보다	-11.4102
answer	-11.4104
▁칭찬	-11.4104
▁욕망	-11.4104
▁캠프	-11.4104
▁소통하는	-11.4105
▁섹션에서는	-11.4107
▁브라	-11.4107
▁차를	-11.4108
▁북극	-11.411
▁성인에서	-11.4112
▁억제하고	-11.4115
Control	-11.4116
달라고	-11.4116
▁비료	-11.4116
▁생물학	-11.4117
▁부종을	-11.4118
▁썼	-11.4119
tf	-11.4124
▁Al	-11.4125
▁국가를	-11.4126
ld	-11.4126
▁전문가가	-11.4126
▁현상은	-11.4127
계에서	-11.4128
FT	-11.4128
▁멘토	-11.4128
▁섬유화	-11.4128
▁특징으로	-11.4133
▁title	-11.4134
냈	-11.4136
▁센	-11.4136
mu	-11.4138
읍	-11.4141
EA	-11.4141
Home	-11.4142
▁만족스러운	-11.4142
▁점액	-11.4143
▁보여주세요	-11.4143
▁바라	-11.4143
▁모방	-11.4143
lu	-11.4145
▁나뉘어	-11.4145
▁증가로	-11.4147
-------------	-11.4149
▁포지션	-11.415
▁해주	-11.4151
▁인증서	-11.4156
▁경직	-11.416
▁나타났다	-11.4162
베리	-11.4162
▁간헐적	-11.4163
LD	-11.4164
아스	-11.4165
▁젤	-11.4166
▁u	-11.4167
▁고정된	-11.4168
ring	-11.4169
▁선택적으로	-11.4169
▁전제	-11.4171
AB	-11.4172
ber	-11.4175
국의	-11.4177
▁학습에	-11.4178
▁분류할	-11.4179
▁질환과	-11.4179
▁자녀가	-11.4179
▁우회	-11.4179
▁엑스	-11.418
파리	-11.418
▁관람	-11.4181
▁루이	-11.4182
버전	-11.4183
▁광선	-11.4186
권이	-11.4187
▁리드를	-11.4188
▁굴절	-11.4188
▁공감을	-11.4189
▁점진적으로	-11.4191
▁중국에서	-11.4191
▁움직일	-11.4192
▁낚시	-11.4192
▁얼룩	-11.4192
▁분화	-11.4193
▁식당	-11.4193
사이드	-11.4193
▁수집하는	-11.4194
▁###	-11.4195
▁날아	-11.4196
▁뛰었	-11.4196
▁이벤트가	-11.4196
ture	-11.4196
사랑	-11.4198
▁헌	-11.42
▁수업을	-11.4202
▁정당한	-11.4203
▁요법을	-11.4203
▁강사	-11.4204
long	-11.4204
▁원천	-11.4204
▁조심스럽게	-11.4204
▁KEY	-11.4205
▁있었지만	-11.4206
▁논의할	-11.4208
}{	-11.4209
미가	-11.4209
▁반복하여	-11.421
▁창의성	-11.4211
▁척수	-11.4211
제와	-11.4212
▁번호가	-11.4213
rank	-11.4213
▁grid	-11.4213
▁건물이	-11.4214
foreach	-11.4214
▁향수	-11.4216
▁줄어들	-11.4217
▁결심	-11.4217
되었나요	-11.4217
▁푸른	-11.4217
%,-	-11.4217
speed	-11.4217
▁단지	-11.4217
▁투쟁	-11.4217
▁짓	-11.4218
▁활용될	-11.4218
▁도구에	-11.4219
▁나타나	-11.422
▁공간에서	-11.4222
▁이르는	-11.4225
▁검색을	-11.4226
▁수백만	-11.4227
▁절감할	-11.4227
명으로	-11.4228
▁수확	-11.4229
▁창출하는	-11.4229
인도	-11.423
▁could	-11.423
▁높음	-11.423
▁감각을	-11.4231
▁가짜	-11.4231
▁소설을	-11.4232
▁다르	-11.4233
문서	-11.4233
▁정점	-11.4234
▁sum	-11.4237
▁성립	-11.4238
▁인식과	-11.4238
kin	-11.4238
library	-11.4242
▁더할	-11.4243
▁사망한	-11.4245
핵심	-11.4245
▁우위를	-11.4246
▁권력을	-11.4248
Amount	-11.4248
코인	-11.4249
▁차단하는	-11.4249
▁도형	-11.4251
▁사이트를	-11.4251
백만	-11.4252
▁년도	-11.4253
▁카운터	-11.4253
OP	-11.4253
▁모발	-11.4255
▁짧게	-11.4255
▁면역글로불린	-11.4255
▁애플리케이션이	-11.4256
▁이루어	-11.4256
▁팀원들	-11.4258
▁조성하는	-11.426
▁적게	-11.4261
공사	-11.4263
습니까	-11.4263
빵	-11.4265
높	-11.4265
wa	-11.4266
batch	-11.4266
▁정책은	-11.4267
▁열매	-11.4267
▁학교는	-11.4269
▁들어가는	-11.4271
Handler	-11.4271
NA	-11.4272
▁약물과	-11.4273
▁린	-11.4274
▁요소들을	-11.4277
▁Com	-11.4278
▁이동식	-11.4278
푼	-11.4279
지면서	-11.4279
▁제외하고	-11.4282
eth	-11.4283
▁모르	-11.4284
▁하려면	-11.4285
▁의료법	-11.4288
\*\*	-11.4288
▁보내고	-11.4289
▁미분	-11.429
▁부신	-11.4293
▁모습이	-11.4293
▁주황색	-11.4293
▁철저히	-11.4293
rem	-11.4294
▁직면	-11.4296
▁상업용	-11.4297
▁혀	-11.4298
▁고려합니다	-11.4298
▁예술과	-11.4298
▁촉진하기	-11.43
하였고	-11.43
rest	-11.43
▁실패한	-11.4301
▁어머니는	-11.4301
테리	-11.4303
훈련	-11.4304
play	-11.4305
▁즐기세요	-11.4307
▁가리키	-11.4307
▁백혈병	-11.4307
▁집중하세요	-11.4309
발성	-11.4312
종양	-11.4312
▁발생하지	-11.4314
▁청결	-11.4315
tan	-11.4317
▁금단	-11.4318
▁자라는	-11.4318
호선	-11.4318
▁반응하지	-11.4319
▁국왕	-11.4319
▁생태	-11.432
▁분류하는	-11.432
▁NLP	-11.432
졌다	-11.4322
▁발생하고	-11.4323
있어	-11.4325
▁유머	-11.4325
Max	-11.4325
▁시사	-11.4326
▁선박	-11.4326
▁로직	-11.4327
▁연소	-11.4327
▁공군	-11.4328
});	-11.4328
▁음식은	-11.4329
▁곰	-11.433
▁세트의	-11.4331
▁스팸	-11.4332
▁이루어지고	-11.4332
장에	-11.4334
tokenizer	-11.4336
ART	-11.4338
▁지출을	-11.434
▁병렬	-11.434
등급	-11.434
▁인터	-11.434
USD	-11.434
▁높이며	-11.4341
ask	-11.4342
▁파크	-11.4342
▁Text	-11.4344
▁반지	-11.4344
▁좌측	-11.4345
속도	-11.4345
▁her	-11.4347
깨	-11.4349
▁신분	-11.4352
▁장점과	-11.4353
▁취약성	-11.4354
▁요법은	-11.4356
▁습기	-11.4357
▁스피커	-11.4358
▁이끌어	-11.4358
▁구하기	-11.436
반환	-11.436
▁재개	-11.4361
▁Word	-11.4361
▁생각이	-11.4361
▁관리의	-11.4363
▁바이너리	-11.4363
▁경청	-11.4366
월부터	-11.4367
▁북미	-11.4367
▁경증	-11.4367
시작	-11.4367
▁창고	-11.4368
트레	-11.4369
또	-11.437
️	-11.437
▁얽힌	-11.437
주셔서	-11.437
DataFrame	-11.4371
끝	-11.4371
▁org	-11.4372
▁힘든	-11.4373
▁양상을	-11.4373
▁코팅	-11.4376
치료는	-11.4376
호를	-11.4376
▁시리즈의	-11.4377
▁있을지	-11.4377
▁낭비	-11.438
▁이루어졌습니다	-11.4381
▁카이	-11.4382
그림	-11.4382
▁샷	-11.4383
▁애완동물	-11.4383
▁시대를	-11.4384
먼트	-11.4386
▁셸	-11.4387
▁표기를	-11.4389
▁가족이	-11.4389
];	-11.439
▁La	-11.439
=[	-11.4391
]/	-11.4392
음성	-11.4392
▁음식이	-11.4394
▁마일	-11.4395
▁즐기고	-11.4395
▁세월	-11.4395
▁이유에	-11.4395
▁프랜차이즈	-11.4396
reference	-11.4397
▁물질은	-11.4397
▁침공	-11.4398
▁그랜드	-11.44
▁저장됩니다	-11.44
▁샤워	-11.4401
HA	-11.4402
▁scale	-11.4403
▁생활에	-11.4404
▁이득	-11.4406
▁상승을	-11.4407
▁음료를	-11.4407
▁휴가를	-11.4408
▁내리기	-11.4408
alert	-11.4409
pop	-11.441
량은	-11.4411
▁goal	-11.4411
▁사람이야	-11.4412
▁상한	-11.4413
▁주인공이	-11.4415
▁[];	-11.4417
▁명으로	-11.4417
▁표정으로	-11.4417
▁가정에서	-11.4417
▁작품으로	-11.4418
▁길항제	-11.4418
▁별도	-11.4418
tu	-11.4421
▁유틸리티	-11.4422
▁단백뇨	-11.4422
▁발생하여	-11.4422
▁성장할	-11.4423
메르	-11.4425
▁프로토콜을	-11.4425
▁sp	-11.4426
군과	-11.4429
▁속도는	-11.4429
manager	-11.4431
린은	-11.4432
▁개가	-11.4433
▁곡물	-11.4434
▁목재	-11.4435
▁기생충	-11.4435
▁혈압은	-11.4436
▁복잡성을	-11.4437
▁loss	-11.4437
▁물로	-11.4441
방향	-11.4441
▁결정하기	-11.4442
classes	-11.4442
▁생각할	-11.4444
▁사정	-11.4447
Layout	-11.4448
▁같	-11.4449
▁대사를	-11.445
▁이후의	-11.4452
prev	-11.4453
▁규칙과	-11.4454
▁관심사에	-11.4454
▁일률적으로	-11.4454
물의	-11.4454
▁수단을	-11.4454
▁배출량	-11.4455
ense	-11.4455
▁떨어지	-11.4455
▁방문했다	-11.4455
였는지	-11.4456
▁핫	-11.4457
▁편차	-11.4459
preprocess	-11.4459
전도	-11.4459
▁장점을	-11.446
고리	-11.446
person	-11.446
윗	-11.446
검사는	-11.446
▁텍스처	-11.4461
sentence	-11.4461
▁영국에서	-11.4461
▁자녀의	-11.4462
▁자랑	-11.4462
▁연관되어	-11.4464
▁사용량을	-11.4465
▁투석	-11.4465
Over	-11.4466
▁심실	-11.4467
▁같다	-11.4467
▁커뮤니티의	-11.447
▁sa	-11.4471
▁산모	-11.4471
조절	-11.4471
▁텐데	-11.4472
▁공제	-11.4472
PR	-11.4473
▁명명	-11.4473
▁여러분과	-11.4474
▁레코드를	-11.4474
▁번역하기	-11.4475
▁장갑	-11.4477
HE	-11.4478
HO	-11.4479
▁찾	-11.4481
▁EC	-11.4481
▁분석과	-11.4483
▁파라	-11.4483
재료	-11.4483
▁소프트웨어는	-11.4484
▁이끌고	-11.4485
▁기법은	-11.4486
▁넣습니다	-11.4487
▁환불	-11.4488
보기	-11.4488
▁성능에	-11.449
TF	-11.4494
▁고추	-11.4499
▁작용이	-11.45
"`	-11.4503
▁지역과	-11.4503
▁나열합니다	-11.4504
▁시작했고	-11.4505
량과	-11.4508
▁실력을	-11.4508
▁시장은	-11.451
live	-11.4512
▁떠오르는	-11.4512
▁자기장	-11.4513
▁늦추	-11.4513
stack	-11.4514
▁드레스	-11.4515
특	-11.4517
▁생태계를	-11.4519
▁청년	-11.452
▁투여하는	-11.452
pack	-11.4521
▁대의	-11.4521
▁재단	-11.4523
▁종속성을	-11.4524
겔	-11.4526
white	-11.4526
▁채굴	-11.4526
▁농양	-11.4526
NG	-11.4527
▁컴	-11.4528
]}	-11.4529
▁운동의	-11.4529
▁셰	-11.4531
▁코트	-11.4532
PM	-11.4534
▁인플루엔자	-11.4535
벗	-11.4537
▁성과에	-11.4537
▁기대합니다	-11.4538
▁명령어	-11.4538
▁전파를	-11.454
▁태그를	-11.454
vo	-11.4542
▁지원이	-11.4542
▁나타나면	-11.4542
▁맞이	-11.4542
▁경로로	-11.4543
▁우성	-11.4543
▁깨끗하고	-11.4543
대표	-11.4543
▁동일하게	-11.4543
▁더해	-11.4544
▁체포	-11.4544
▁나왔	-11.4544
▁올라가	-11.4544
▁빈도를	-11.4545
▁config	-11.4547
둔	-11.4548
performer	-11.455
바이트	-11.4551
템	-11.4551
▁요점	-11.4551
▁메타데이터	-11.4552
▁바퀴	-11.4552
▁경로에	-11.4552
▁화면에	-11.4553
▁전화를	-11.4553
▁요약합니다	-11.4554
ING	-11.4555
▁개념입니다	-11.4557
ku	-11.4557
▁사항입니다	-11.4559
▁모두에서	-11.4559
▁생각하고	-11.4559
▁감소시킬	-11.456
▁생산에	-11.4563
하나님	-11.4564
▁Android	-11.4564
history	-11.4565
▁보건의료	-11.4565
▁맡고	-11.4566
▁프레젠테이션을	-11.4567
▁고양이가	-11.4568
▁사람으로	-11.4568
▁속해	-11.4568
표를	-11.4568
▁pre	-11.4569
-->|	-11.4569
▁저자는	-11.4569
▁브랜드와	-11.4571
▁지원에	-11.4572
▁찰스	-11.4572
▁이끌	-11.4573
▁New	-11.4574
▁카르	-11.4574
공간	-11.4576
▁돌아	-11.4579
star	-11.458
▁생긴다	-11.4582
▁Int	-11.4582
▁values	-11.4582
▁models	-11.4583
▁밀접한	-11.4583
▁물품	-11.4585
▁일시적인	-11.4586
Process	-11.4587
▁림프	-11.4588
▁시기의	-11.4588
▁줄기	-11.459
tt	-11.4593
each	-11.4595
▁로딩	-11.4596
▁변하는	-11.4598
▁크기에	-11.4603
▁반응에	-11.4603
▁힙합	-11.4604
▁점수가	-11.4604
▁갈라	-11.4605
결합	-11.4605
AA	-11.4606
▁몸통	-11.4607
▁공급하는	-11.4607
opt	-11.4608
동안	-11.4608
▁담낭	-11.4611
review	-11.4611
▁높을	-11.4611
Comp	-11.4613
▁정교한	-11.4615
▁중앙에	-11.4615
▁산후	-11.4616
▁동화	-11.4617
Body	-11.4617
widget	-11.4618
▁산소포화도	-11.4618
▁포레스트	-11.4618
▁임신부	-11.4618
▁클립	-11.4619
▁약사	-11.4621
Char	-11.4621
전문	-11.4621
ten	-11.4623
▁성능과	-11.4623
적입니다	-11.4624
▁무작위로	-11.4624
리티	-11.4625
▁유지하며	-11.4626
학회	-11.4626
▁수십	-11.4627
▁only	-11.4627
Not	-11.4628
▁실패를	-11.4628
▁문자열의	-11.4629
Do	-11.463
▁패혈증	-11.4631
▁연락하여	-11.4632
▁발생을	-11.4633
▁template	-11.4633
▁세상	-11.4634
▁상사	-11.4634
Window	-11.4635
활	-11.4637
▁활동으로	-11.4638
▁이력이	-11.464
▁행복을	-11.4641
▁궁전	-11.4645
▁텐서	-11.4645
▁마약류	-11.4646
장관	-11.465
tokenize	-11.465
▁언급된	-11.4651
▁유전성	-11.4651
▁Mar	-11.4653
직을	-11.4656
쫓	-11.4657
Integer	-11.4657
▁GitHub	-11.4657
contrib	-11.4657
Local	-11.4658
감각	-11.4658
▁알린	-11.4658
머스	-11.466
▁이상과	-11.4663
▁통계적	-11.4665
▁지리	-11.4665
***	-11.4668
▁대립	-11.4668
▁IV	-11.4668
▁무엇으로	-11.4669
시기	-11.4669
▁비치	-11.467
Script	-11.467
▁선발	-11.467
▁티셔츠	-11.467
▁하이퍼파라미터	-11.467
▁태풍	-11.4672
수의	-11.4673
▁항목에	-11.4674
▁조합이	-11.4675
▁태양계	-11.4677
▁차량을	-11.4678
▁than	-11.468
▁다해	-11.4683
▁단편	-11.4683
▁성질	-11.4685
▁좁은	-11.4685
▁나를	-11.4686
dec	-11.4686
▁포터	-11.4687
▁추운	-11.4688
▁장치에	-11.4689
▁전선	-11.469
▁타자	-11.4691
▁살인	-11.4692
▁주시기	-11.4697
▁놓치지	-11.4697
▁얇게	-11.4697
report	-11.4698
GL	-11.4701
▁데스크톱	-11.4701
▁Ma	-11.4701
▁구성하고	-11.4703
▁필드가	-11.4704
▁command	-11.4706
▁이란	-11.4707
▁일주일	-11.471
▁논란	-11.4711
▁오페라	-11.4711
▁만들어집니다	-11.4715
업스케일	-11.4716
▁끝나면	-11.4716
박스	-11.4716
▁항응고	-11.4717
공화국	-11.4717
SQL	-11.4717
▁편리한	-11.4719
▁인류의	-11.4719
▁상의	-11.472
▁표정	-11.472
▁내부에서	-11.472
As	-11.4722
▁퓨	-11.4724
▁영화제	-11.4725
NC	-11.4726
▁딸기	-11.4728
dia	-11.4728
▁홍반	-11.4728
▁남기	-11.473
라이언	-11.4732
▁전하	-11.4733
▁약자	-11.4735
▁리소스가	-11.4736
▁챌린지	-11.4737
gram	-11.4737
▁느끼며	-11.4738
▁자체는	-11.474
▁콘텐츠가	-11.4742
▁클럽이	-11.4742
▁프로필을	-11.4744
부는	-11.4746
messages	-11.4746
▁땅을	-11.4746
▁결과물	-11.4747
▁부분입니다	-11.4747
▁생활에서	-11.4749
▁랜드마크	-11.475
Device	-11.475
▁호소하고	-11.4751
▁꽃을	-11.4751
되었음을	-11.4751
▁하나씩	-11.4753
▁where	-11.4753
▁빙하	-11.4753
▁이름난	-11.4753
▁쿼리에	-11.4754
▁제공한다	-11.4756
단이	-11.4757
트립	-11.4757
▁내놓은	-11.4757
▁구두	-11.4759
▁이루	-11.4761
▁입술	-11.4761
▁소개해	-11.4761
▁신뢰와	-11.4762
▁감소시키는	-11.4763
캄	-11.4763
▁되도록	-11.4764
▁비정형	-11.4764
시고	-11.4764
▁나의	-11.4766
large	-11.4767
▁포스터	-11.4768
실제	-11.4769
설정	-11.477
▁생성되는	-11.4771
빅	-11.4773
▁최적화할	-11.4774
▁팬들	-11.4775
▁world	-11.4776
pine	-11.4776
security	-11.4777
팟	-11.4777
▁중요성과	-11.4778
▁응급의료	-11.4778
FI	-11.4778
▁드럼	-11.4778
▁내원	-11.4778
▁수수료를	-11.4779
collection	-11.478
factor	-11.4781
▁되었고	-11.4782
▁신념을	-11.4783
▁아키텍처를	-11.4784
rd	-11.4786
▁사라지	-11.4788
'}	-11.4789
forward	-11.479
▁작아	-11.479
Vector	-11.4791
▁효과적입니다	-11.4791
store	-11.4792
▁심방세동	-11.4793
▁들었습니다	-11.4793
▁판막	-11.4794
▁합병	-11.4795
RGB	-11.4795
▁인지도를	-11.4796
OK	-11.4799
디오	-11.4801
'#	-11.4802
▁Th	-11.4803
▁부정적	-11.4803
nginx	-11.4804
▁위상	-11.4804
svg	-11.4804
▁제시하는	-11.4804
ities	-11.4805
▁사이를	-11.4805
뷰	-11.4805
▁밟	-11.481
▁조건은	-11.481
allow	-11.4814
▁삶과	-11.4817
available	-11.4817
▁약점을	-11.4821
음이	-11.4821
lation	-11.4821
▁밝혀	-11.4823
▁서버에서	-11.4823
▁지속되면	-11.4823
interval	-11.4824
▁크로	-11.4825
▁잇는	-11.483
Width	-11.4831
▁SDK	-11.4831
▁쓰레기를	-11.4831
▁그라	-11.4832
▁핸들러	-11.4832
▁점과	-11.4832
축구	-11.4832
염은	-11.4833
▁CRM	-11.4833
▁이들의	-11.4835
었는지	-11.4835
▁교황이	-11.4835
▁정제	-11.4836
▁워터	-11.4838
▁이유와	-11.4838
푸르	-11.4838
▁종양의	-11.4839
▁산모의	-11.4839
▁질문과	-11.4842
▁목록으로	-11.4842
▁specific	-11.4844
핏	-11.4844
▁향상된	-11.4846
▁의사소통을	-11.4847
▁브리	-11.4848
▁풀고	-11.4849
▁효율을	-11.4849
▁미숙아	-11.4849
항공	-11.4851
objects	-11.4851
▁요청합니다	-11.4852
▁진행되고	-11.4852
▁이사회	-11.4853
▁문제나	-11.4854
▁판매할	-11.4858
▁컨볼루션	-11.4858
▁달러의	-11.4858
▁등장인물	-11.4858
▁혼잡	-11.4858
▁계승	-11.4859
하시나요	-11.4859
▁이어집니다	-11.486
▁column	-11.4863
▁좋다	-11.4865
▁어머니가	-11.4866
▁동맹	-11.4866
▁차트를	-11.4867
▁지금의	-11.4868
노드	-11.4868
▁벌레	-11.4868
PV	-11.4868
▁가이드라인을	-11.4869
ted	-11.487
▁updated	-11.4871
Project	-11.4871
▁농작물	-11.4871
▁충동	-11.4871
▁듯한	-11.4873
▁관찰된	-11.4874
▁위탁	-11.4877
▁cell	-11.4878
▁창단	-11.4878
▁미국과	-11.4878
▁선행	-11.4879
▁레이블이	-11.488
▁been	-11.4881
▁간장	-11.4881
▁합병증이	-11.4882
▁parse	-11.4884
놀이	-11.4884
register	-11.4885
▁콘텐츠의	-11.4885
▁데이터베이스의	-11.4886
셰	-11.4886
▁남겨	-11.4887
strip	-11.4888
▁회사와	-11.4889
Ne	-11.4889
▁결합된	-11.489
▁맞춤화	-11.489
아리	-11.4892
구가	-11.4893
수정	-11.4893
▁독성을	-11.4893
▁냄새가	-11.4894
▁늦	-11.4894
▁국적	-11.4895
리얼	-11.4896
bl	-11.4898
Resource	-11.4899
─	-11.49
▁어려움에	-11.49
Block	-11.4901
▁중국어	-11.4901
▁루틴	-11.4902
▁지휘	-11.4902
NT	-11.4902
▁일상생활	-11.4906
Job	-11.4906
▁꺼내	-11.4907
▁찾아보	-11.4907
▁사랑은	-11.4908
▁업데이트하고	-11.4908
▁붙인	-11.4909
▁형식이	-11.4909
▁신체의	-11.491
▁bool	-11.491
▁바람이	-11.4911
▁보존하는	-11.4911
▁프린터	-11.4912
HI	-11.4912
▁재설정	-11.4913
▁보았습니다	-11.4914
▁라틴어	-11.4914
▁액세스하고	-11.4914
▁표면을	-11.4915
▁참여와	-11.4916
▁서버의	-11.4917
▁주제가	-11.4919
▁원칙과	-11.492
▁조상	-11.4922
▁장소에서	-11.4922
▁상승은	-11.4922
커스	-11.4922
▁산업을	-11.4922
▁사이클	-11.4923
▁맞추기	-11.4924
▁폐경	-11.4925
▁발라	-11.4926
▁우연히	-11.4926
▁탑승	-11.4926
▁지침에	-11.4927
▁그곳에서	-11.4927
▁왔	-11.4928
▁트랜스	-11.4928
기록	-11.4929
▁순수	-11.493
잎	-11.4931
▁CA	-11.4933
▁김치	-11.4933
▁컴퓨터에서	-11.4934
▁행복한	-11.4935
▁안정된	-11.4936
gray	-11.4937
ctx	-11.4937
Buffer	-11.4939
▁폐색전증	-11.4939
▁사구체	-11.4939
▁스티븐	-11.4939
독성	-11.494
▁예비	-11.494
위의	-11.494
▁공간의	-11.4944
치고	-11.4944
▁물가	-11.4944
▁모유	-11.4944
▁US	-11.4945
▁장치가	-11.4945
▁감염된	-11.4946
▁변화시키는	-11.4948
▁늘어나	-11.4948
▁지지하는	-11.4948
▁알려주	-11.4948
▁주위에	-11.4949
▁띄	-11.4949
▁진주	-11.495
▁데이트	-11.495
▁피해자	-11.4951
Level	-11.4953
▁마이크로서비스	-11.4953
other	-11.4953
▁도와주세요	-11.4954
▁기억되	-11.4955
GET	-11.4957
▁무한	-11.4957
사로	-11.4958
▁일정에	-11.4958
각형	-11.4958
▁단기간	-11.4959
▁!==	-11.496
▁드문	-11.496
▁의미로	-11.4961
하지요	-11.4961
법에	-11.4962
ze	-11.4963
▁감소할	-11.4963
▁백신은	-11.4964
▁일시적	-11.4964
▁실적	-11.4964
▁세워	-11.4965
▁떨어뜨	-11.4965
▁Mi	-11.4966
▁미스터리	-11.4966
▁지중해	-11.4966
▁모델에서	-11.4967
▁가끔	-11.4967
Scale	-11.4967
▁Task	-11.4967
visit	-11.4968
▁적응력	-11.4968
▁내원하였	-11.4969
▁화장품	-11.4969
▁아래쪽	-11.4969
▁람다	-11.497
▁케이	-11.4971
▁계단	-11.4972
▁유럽의	-11.4973
▁수치는	-11.4973
▁과제에	-11.4974
어와	-11.4976
멀	-11.4977
▁덩어리	-11.498
▁항공편	-11.4981
▁On	-11.4982
피부	-11.4985
question	-11.4985
▁비스테로이드성	-11.4987
▁폼	-11.4988
▁아는	-11.4989
▁추출하는	-11.4989
▁프로세스입니다	-11.4989
FP	-11.499
사나	-11.4991
아나	-11.4991
▁엔진을	-11.4991
다시	-11.4992
▁가능하면	-11.4993
trip	-11.4996
▁객관적	-11.4997
▁신체검사에서	-11.4998
▁달콤한	-11.4998
▁서서	-11.4999
note	-11.4999
분이	-11.5
카르	-11.5001
▁산악	-11.5001
에게서	-11.5001
▁원고	-11.5005
▁아우	-11.5005
cast	-11.5005
▁감사의	-11.5007
tain	-11.5007
future	-11.5007
▁FIFA	-11.5007
속성	-11.5007
▁워드프레스	-11.5007
▁특성이	-11.501
COM	-11.5011
▁명시적으로	-11.5011
▁과일을	-11.5011
▁모델로	-11.5014
▁돌아와	-11.5015
ah	-11.5016
▁options	-11.5016
▁아래에서	-11.5016
랙	-11.5017
▁쉬워	-11.5019
ws	-11.502
▁의무가	-11.502
subject	-11.5021
▁종족	-11.5022
▁소금과	-11.5022
▁침투	-11.5023
▁산업은	-11.5023
Edit	-11.5024
▁한자	-11.5024
▁상대방이	-11.5024
▁감독을	-11.5025
▁나올	-11.5026
▁산란	-11.5028
▁위기에	-11.503
워드	-11.5033
▁스페인어	-11.5033
▁타이머	-11.5037
▁심볼	-11.5038
▁사이에는	-11.5039
▁식초	-11.5039
HS	-11.504
▁솔로	-11.5042
위에	-11.5043
▁액세스하는	-11.5044
▁비례	-11.5046
▁사무	-11.5047
INT	-11.5047
▁왕의	-11.5049
▁교감신경	-11.5049
▁노력할	-11.5049
Book	-11.505
▁전까지	-11.5052
ka	-11.5053
▁에너지와	-11.5056
인간	-11.5059
;//	-11.5059
▁꼽히는	-11.506
▁재발을	-11.506
양성	-11.506
]`	-11.5062
▁여러분을	-11.5063
youtube	-11.5063
▁직전	-11.5063
▁말씀해	-11.5064
Reader	-11.5064
▁미용	-11.5064
▁task	-11.5064
▁법에서	-11.5065
ern	-11.5066
딸	-11.5066
▁인프라를	-11.5067
▁업계의	-11.5067
두는	-11.5068
▁릴리	-11.5068
▁사료	-11.5071
예시	-11.5071
▁검체	-11.5074
▁point	-11.5075
지침	-11.5075
▁동료들	-11.5076
▁유의미하게	-11.5076
▁것인가요	-11.5076
▁기다리	-11.5076
chunk	-11.5077
▁유용하지만	-11.5078
▁힐	-11.5079
presentation	-11.5079
▁write	-11.5079
▁위험인자	-11.508
우며	-11.5081
▁위쪽	-11.5082
▁메이저	-11.5082
raw	-11.5083
▁제작자	-11.5083
ier	-11.5085
▁약점	-11.5086
▁생후	-11.5088
▁아버지의	-11.5089
matplotlib	-11.509
▁프리랜서	-11.509
▁느린	-11.509
▁멤버십	-11.5091
▁지속된	-11.5091
▁features	-11.5092
▁대응하는	-11.5092
dp	-11.5093
▁성분을	-11.5097
▁마인드	-11.5098
▁출신으로	-11.5099
questions	-11.5099
▁편지를	-11.5099
mor	-11.5101
▁안심	-11.5102
▁태블릿	-11.5104
▁완료하는	-11.5104
▁개요입니다	-11.5104
▁고속도로	-11.5104
▁몸과	-11.5104
hand	-11.5104
ther	-11.5104
▁표지	-11.5105
force	-11.5106
▁일종의	-11.5107
▁파싱	-11.5108
EB	-11.511
▁재질	-11.5111
▁FA	-11.5111
▁오기	-11.5112
▁분류하세요	-11.5112
ank	-11.5112
▁프롬프트를	-11.5112
▁악마	-11.5113
▁정렬된	-11.5113
컴	-11.5115
accuracy	-11.5118
옴	-11.5118
▁극심한	-11.5118
▁토마스	-11.5118
▁세인트	-11.5118
레인	-11.5118
▁한글	-11.5118
▁테스트하는	-11.5119
▁하우스	-11.5119
▁비율은	-11.512
▁자신들의	-11.512
▁만들지	-11.5122
▁매주	-11.5122
▁조용한	-11.5124
▁심의	-11.5124
▁몰입	-11.5125
▁주차	-11.5125
▁상자를	-11.5125
▁섬이	-11.5128
▁취약점을	-11.5129
▁장치의	-11.5129
▁의료인	-11.513
▁근육의	-11.513
밭	-11.5132
▁타당하다	-11.5132
direction	-11.5132
즈는	-11.5132
▁협정	-11.5132
dot	-11.5133
▁메시	-11.5136
ord	-11.5137
▁솔루션은	-11.5137
cp	-11.5137
▁개발하여	-11.5139
▁역사에	-11.514
▁확장하고	-11.514
▁도달하는	-11.5141
▁크기로	-11.5142
▁있을까	-11.5143
딕	-11.5143
▁혈압이	-11.5145
신장	-11.5146
▁토픽	-11.5147
▁음향	-11.5147
▁나누	-11.5148
▁취약점	-11.5149
▁기기를	-11.515
▁문자가	-11.5157
▁곁에	-11.5157
▁권장되지	-11.5158
탱	-11.5158
▁얼굴에	-11.5158
lit	-11.5158
forEach	-11.5159
▁혈뇨	-11.516
▁여섯	-11.516
▁메뉴를	-11.5161
▁적시에	-11.5161
▁이득을	-11.5161
Col	-11.5162
▁돼요	-11.5163
Se	-11.5164
페어	-11.5166
▁임원	-11.5166
▁지속될	-11.5167
▁모집	-11.5169
▁요약을	-11.517
▁연관성을	-11.5171
▁입력하세요	-11.5172
chrome	-11.5173
▁공급자	-11.5176
▁표적으로	-11.5179
({	-11.518
sender	-11.5181
▁조치로	-11.5182
튜	-11.5183
결제	-11.5183
▁지어	-11.5185
▁재평가	-11.5186
▁이전에는	-11.5187
bottom	-11.5187
UC	-11.5187
▁매크로	-11.5188
▁약제는	-11.5188
ION	-11.5189
▁진단받고	-11.5189
her	-11.5189
(<	-11.5192
히로	-11.5194
▁읽어	-11.5194
▁read	-11.5194
vec	-11.5195
team	-11.5195
▁편견을	-11.5199
▁피부가	-11.5199
▁선사	-11.52
▁제시하세요	-11.5201
▁활용해	-11.5201
▁어떠한	-11.5201
▁옮긴	-11.5201
▁문의하여	-11.5201
▁도와줄	-11.5202
▁노력에	-11.5203
▁제거하기	-11.5203
결핵	-11.5205
▁이후에	-11.5208
▁what	-11.5209
▁한계가	-11.521
▁배경과	-11.5211
▁전송하는	-11.5212
▁control	-11.5213
▁혈색소	-11.5215
prompt	-11.5215
depth	-11.5216
▁고마워요	-11.5216
하우스	-11.5218
▁알고리즘과	-11.5218
▁원리는	-11.5219
wait	-11.5219
▁항소	-11.5221
▁헤이	-11.5222
▁데모	-11.5225
▁사라진	-11.5226
▁약속을	-11.5226
▁학교에	-11.5229
▁different	-11.5229
▁거슬러	-11.523
▁높입니다	-11.523
▁하자	-11.5231
dd	-11.5234
대회	-11.5234
▁시스템으로	-11.5234
▁카를	-11.5235
▁꼽	-11.5236
▁양상이	-11.5237
▁함유	-11.5238
▁실행하면	-11.5238
▁누구였는지	-11.5238
▁문항	-11.5238
▁선택지는	-11.5239
cv	-11.5239
▁users	-11.524
봤	-11.5242
▁허혈성	-11.5243
▁VARCHAR	-11.5243
▁질문이나	-11.5243
android	-11.5244
▁난이도	-11.5245
▁정보나	-11.5246
▁들어갔	-11.5247
공업	-11.5247
▁타인	-11.5247
▁라이프스타일	-11.5247
▁후방	-11.5249
▁사람들과의	-11.5251
▁지니고	-11.5251
▁변경될	-11.5252
▁항해	-11.5252
▁네트워크에서	-11.5252
높이	-11.5252
lin	-11.5256
퀘	-11.5256
▁거북이	-11.5258
금액	-11.5258
▁값과	-11.5259
▁수집한	-11.526
▁전환할	-11.526
▁농담	-11.5263
▁root	-11.5264
▁대학원	-11.5265
었죠	-11.5267
▁컨	-11.5267
▁낭종	-11.5267
▁구조화된	-11.5267
▁주의력	-11.5268
▁책상	-11.5268
▁고문	-11.5268
▁'''	-11.5269
▁기침과	-11.527
▁반응성	-11.527
▁오염된	-11.527
eb	-11.527
schedule	-11.5271
▁아미노산	-11.5271
▁홈페이지	-11.5272
▁불안과	-11.5274
▁경험한	-11.5274
▁하늘을	-11.5274
경제	-11.5274
▁천공	-11.5277
Server	-11.5278
▁핸드	-11.5278
▁췌장염	-11.5279
▁시사합니다	-11.528
▁support	-11.528
▁윤리적인	-11.5281
하였으며	-11.5282
▁채워	-11.5284
▁꽤	-11.5285
Part	-11.5285
▁트레이닝	-11.5286
▁구체화	-11.5286
▁말의	-11.5286
▁법령	-11.5288
▁장애물을	-11.5288
작은술	-11.5289
----------	-11.529
▁샘플을	-11.5291
RD	-11.5292
범위	-11.5295
▁웨스트	-11.5299
▁연관성	-11.5299
▁농촌	-11.53
▁못하면	-11.53
▁정신건강	-11.53
▁혈류를	-11.5301
▁안면	-11.5301
비치	-11.5301
▁느끼게	-11.5302
ina	-11.5303
▁고르	-11.5303
CON	-11.5304
로프	-11.5307
Header	-11.531
라가	-11.531
▁별이	-11.5312
▁용어로	-11.5312
="#	-11.5314
▁서식하는	-11.5315
▁글에서는	-11.5315
▁벨기에	-11.5315
inf	-11.5318
그라	-11.5318
미아	-11.5318
▁스케일	-11.5318
▁공식적인	-11.5318
▁트렌드를	-11.5319
층을	-11.5323
▁보지	-11.5323
▁아랍	-11.5324
▁보였습니다	-11.5324
▁img	-11.5324
▁릴리스	-11.5326
▁청구서	-11.5326
▁길게	-11.5327
캠	-11.5327
symbol	-11.5328
▁순간에	-11.5328
▁아이들은	-11.5328
Out	-11.5328
▁위협을	-11.5329
▁육류	-11.5331
▁표시하고	-11.5333
▁인구는	-11.5334
▁증가합니다	-11.5334
▁사우스	-11.5334
▁좌절	-11.5335
▁구매를	-11.5336
▁지루	-11.5337
▁직업을	-11.5337
▁용어가	-11.5339
▁분야는	-11.5339
LS	-11.534
▁평가하여	-11.534
렸다	-11.5342
▁억압	-11.5342
cross	-11.5342
▁수도는	-11.5343
▁날에	-11.5344
▁검사로	-11.5345
▁신약	-11.5345
▁음악과	-11.5345
비즈니스	-11.5347
▁크레아티닌	-11.5347
second	-11.5348
▁가져와서	-11.5349
▁불량	-11.535
토르	-11.5351
▁학교의	-11.5352
Unit	-11.5353
▁대안을	-11.5353
tor	-11.5353
됐	-11.5354
▁조직과	-11.5355
▁문서의	-11.5356
프는	-11.5356
▁클레임	-11.5357
ics	-11.5358
▁못했	-11.5359
▁웹사이트는	-11.536
▁반란	-11.5361
▁체계적인	-11.5361
▁하계	-11.5362
대한민국	-11.5363
▁확률이	-11.5363
▁online	-11.5364
그래	-11.5366
▁불안정성	-11.5366
pages	-11.5366
▁에너지는	-11.5367
▁아키	-11.5367
▁상상력	-11.5368
grad	-11.5368
▁체코	-11.537
▁빨	-11.537
assert	-11.5371
▁핵심입니다	-11.5371
중앙	-11.5371
▁로깅	-11.5371
▁표준화	-11.5371
▁발신자	-11.5373
▁유리한	-11.5373
▁연맹	-11.5373
겠다고	-11.5373
▁투명	-11.5374
▁비교한	-11.5375
▁long	-11.5376
fold	-11.5376
▁선물을	-11.5376
▁소수점	-11.5376
▁장치는	-11.5377
내레이터	-11.5378
▁지대	-11.5378
/{	-11.538
ger	-11.5381
▁푸는	-11.5381
▁부종과	-11.5381
▁때만	-11.5383
▁화물	-11.5383
▁단백질의	-11.5384
▁game	-11.5384
리거나	-11.5384
▁제일	-11.5384
▁떨어질	-11.5385
▁마을에	-11.5385
▁보호자	-11.539
▁수평	-11.5391
▁노출과	-11.5391
▁이룰	-11.5392
▁종일	-11.5392
▁치료하지	-11.5392
▁오프	-11.5393
▁메서드에	-11.5395
일간	-11.5396
▁받	-11.5396
▁영양가	-11.5397
▁문자열이	-11.5397
▁알렉스	-11.5397
ENT	-11.5397
▁클래스가	-11.5399
▁싶으신가요	-11.5399
▁착륙	-11.5399
▁알려주시면	-11.5399
blue	-11.5399
▁함수로	-11.5401
ov	-11.5403
job	-11.5404
▁취합니다	-11.5404
▁떼	-11.5405
▁구리	-11.5406
▁필요는	-11.5409
▁예방과	-11.541
▁얻었습니다	-11.5411
▁VR	-11.5413
▁입력이	-11.5415
▁완공	-11.5415
CV	-11.5418
소개	-11.5419
▁심판	-11.542
▁탐구하는	-11.5422
▁임의로	-11.5423
▁연결해	-11.5424
▁올랐	-11.5427
였으니	-11.5427
▁동네	-11.5427
킥	-11.5427
▁예기치	-11.5427
▁시금치	-11.5427
▁호출할	-11.5427
▁정서	-11.5428
▁말하며	-11.5428
▁대도시	-11.5431
▁여우	-11.5431
▁상상해	-11.5432
▁레오	-11.5433
▁중에서도	-11.5433
▁정리해야겠	-11.5436
▁물음이	-11.5437
▁처리해야	-11.5438
▁재료가	-11.5438
받았	-11.5439
▁편성	-11.5439
권의	-11.544
▁즐기기	-11.544
▁피로감과	-11.5441
▁재해	-11.5441
▁반짝이는	-11.5442
▁세웠	-11.5443
▁토핑	-11.5444
▁view	-11.5445
▁떨어지는	-11.5445
▁자선	-11.5445
▁드물	-11.5446
▁철학적	-11.5446
LL	-11.5446
▁도모	-11.5446
▁SP	-11.5448
▁자란	-11.5449
▁접시	-11.5451
NN	-11.5453
▁중이며	-11.5455
지대	-11.5455
how	-11.5456
▁중환자실	-11.5456
vision	-11.5456
▁구문을	-11.5457
▁객체가	-11.5457
▁requests	-11.5459
▁인센티브	-11.5459
level	-11.5463
TL	-11.5465
▁옵션입니다	-11.5466
▁설명과	-11.5467
▁effect	-11.5469
▁설정하세요	-11.547
▁목숨을	-11.547
슈타인	-11.547
▁붙잡	-11.5471
▁복강경	-11.5472
▁경쟁이	-11.5475
▁류마티스	-11.5476
▁다수	-11.5478
감소	-11.548
▁장소입니다	-11.5481
▁정규식	-11.5481
▁석사	-11.5482
전체	-11.5484
숭	-11.5485
▁추억을	-11.5485
▁즐겁게	-11.5485
▁크리에이티브	-11.5485
best	-11.5485
▁활용하기	-11.5487
주로	-11.5488
▁프라이	-11.5488
▁우수	-11.549
selection	-11.5491
▁실망	-11.5491
▁작용하여	-11.5492
▁마사	-11.5494
▁설명한다	-11.5495
days	-11.5496
▁실행하기	-11.5496
아야	-11.5496
▁진행되는	-11.5497
군에	-11.5497
▁스크립트가	-11.5498
decode	-11.5499
Authorization	-11.5499
▁감사드리며	-11.5499
▁지분	-11.55
실린	-11.55
▁기록한	-11.5501
▁바꾸	-11.5502
mag	-11.5503
▁내전	-11.5504
▁정치인이	-11.5506
맞	-11.5509
▁종양이	-11.5509
노스	-11.5509
▁에세이를	-11.551
비스	-11.5511
▁무대에	-11.5513
PP	-11.5514
▁국가대표팀	-11.5515
MAX	-11.5515
▁편리하게	-11.5515
▁반품	-11.5518
▁황금	-11.5521
리트	-11.5522
었다고	-11.5522
▁줄이며	-11.5524
테이블	-11.5524
▁매운	-11.5524
▁시스템입니다	-11.5526
먼저	-11.5527
▁슬라이스	-11.5528
▁밖에	-11.5528
▁인간은	-11.5528
▁목욕	-11.5529
▁소프트	-11.5529
▁효율이	-11.553
▁예측하기	-11.553
▁감염에	-11.5532
거리는	-11.5533
▁월요일	-11.5533
아프리카	-11.5534
▁NFT	-11.5534
만성	-11.5535
▁금지된다	-11.5538
▁경과와	-11.5539
킬로미터	-11.5541
sys	-11.5541
tool	-11.5541
LT	-11.5542
▁돌려	-11.5542
Category	-11.5542
Console	-11.5542
ace	-11.5543
inner	-11.5543
▁판사	-11.5544
▁성격의	-11.5544
▁불렸	-11.5545
약물	-11.5545
▁소요	-11.5546
▁치료할	-11.5547
EF	-11.5548
▁건물의	-11.5549
▁이탈리아의	-11.5549
▁진리	-11.555
▁테러	-11.555
앞	-11.555
▁절차는	-11.5552
lex	-11.5552
▁판정	-11.5554
Values	-11.5555
▁사회와	-11.5555
▁바늘	-11.5559
▁전쟁의	-11.5559
▁표현한	-11.5562
맛	-11.5563
▁지문	-11.5564
▁교훈	-11.5564
les	-11.5565
▁진행률	-11.5565
▁장면이	-11.5566
outputs	-11.5566
▁통보	-11.5567
었지만	-11.5567
▁함량	-11.5568
▁만들거나	-11.5569
▁화면을	-11.5571
▁점유율	-11.5571
submission	-11.5572
done	-11.5573
내가	-11.5574
▁완화하고	-11.5575
▁정상적으로	-11.5576
ball	-11.5576
▁산타	-11.5577
▁위치에서	-11.5579
▁발표했습니다	-11.558
▁서버가	-11.558
▁headers	-11.5581
▁부모가	-11.5581
▁러브	-11.5583
dom	-11.5583
하셨	-11.5583
▁best	-11.5584
▁외계인	-11.5585
▁어지럼	-11.5586
▁제한되어	-11.5588
VE	-11.5589
▁USB	-11.5589
크로	-11.559
마르	-11.559
누스	-11.559
attribute	-11.5592
▁코드와	-11.5593
▁전투가	-11.5593
events	-11.5594
▁무엇이라	-11.5596
▁형성합니다	-11.5596
▁독자가	-11.5597
▁루틴을	-11.5599
▁코드로	-11.5599
그중	-11.56
인에게	-11.5601
▁KBS	-11.5603
▁소매	-11.5603
▁거치	-11.5604
▁뛰어나	-11.5604
▁페르	-11.5605
▁규정이	-11.5605
▁Li	-11.5605
▁인도에서	-11.5605
▁모호	-11.5606
▁숫자는	-11.5607
▁매트릭스	-11.5607
▁치명적인	-11.5607
▁등장한	-11.5608
▁제공하면	-11.5609
▁조건과	-11.5609
▁플랫폼이	-11.561
▁가수가	-11.5611
background	-11.5613
▁custom	-11.5613
펄	-11.5614
▁듯	-11.5614
판이	-11.5615
▁유의하는	-11.5617
▁동안의	-11.5617
▁구축합니다	-11.5618
▁뻗어	-11.562
▁비추	-11.5623
▁필요하므로	-11.5624
▁원칙은	-11.5624
▁스타틴	-11.5624
인증	-11.5626
▁전시회	-11.5628
▁JOIN	-11.5628
릉	-11.5628
den	-11.563
clu	-11.5632
▁색상과	-11.5632
▁되었	-11.5633
▁파악하여	-11.5634
▁육아	-11.5636
▁탈중앙화	-11.5637
▁미술관	-11.5637
층이	-11.5638
Load	-11.564
▁엘리	-11.5641
▁두루	-11.5642
▁천장	-11.5643
▁최첨단	-11.5644
▁알츠하이머병	-11.5645
▁파이썬에서	-11.5645
으나	-11.5645
▁화자	-11.5645
▁비슷	-11.5645
▁열려	-11.5646
▁함량이	-11.5647
▁재귀	-11.5647
resolve	-11.5649
경을	-11.565
▁제안서	-11.565
cell	-11.5651
관은	-11.5652
안부	-11.5653
▁SO	-11.5653
선의	-11.5654
▁보조적으로	-11.5654
진수	-11.5657
▁메시지에	-11.5658
▁적당한	-11.566
loop	-11.5664
▁알아보고	-11.5664
▁팁과	-11.5665
▁골든	-11.5666
▁규칙에	-11.5669
성공	-11.5669
▁파트너와	-11.567
cho	-11.5671
밀리	-11.5672
▁\*\*	-11.5672
첼	-11.5673
▁Flask	-11.5673
▁호출합니다	-11.5675
▁승리를	-11.5675
▁집착	-11.5676
▁로켓	-11.5676
▁기울이고	-11.5676
▁문화적인	-11.5676
▁사고와	-11.5677
▁장소가	-11.5678
▁의뢰	-11.5679
▁놓인	-11.5679
주의와	-11.5679
sorted	-11.568
언어	-11.568
▁소유자가	-11.568
▁종류를	-11.5681
▁포트폴리오를	-11.5682
저하	-11.5682
▁하강	-11.5684
방울	-11.5684
▁방정식의	-11.5686
▁완화에	-11.5686
▁종류는	-11.5686
▁살해	-11.5686
▁간질환	-11.5687
▁내용과	-11.5687
벼	-11.5688
▁반지름	-11.5689
emb	-11.5689
▁생애	-11.5689
▁알지	-11.5692
Sh	-11.5695
온스	-11.5697
▁알고리즘입니다	-11.5698
▁유효성을	-11.5699
▁우유를	-11.57
▁창업자	-11.5701
mut	-11.5702
▁OS	-11.5702
▁페인트	-11.5703
▁다르지만	-11.5705
WA	-11.5706
▁발언	-11.5709
▁조명을	-11.571
▁동물은	-11.571
자로서	-11.571
▁익히	-11.5711
▁연산자를	-11.5711
컴퓨터	-11.5711
Collection	-11.5712
▁있었는지	-11.5713
▁복용을	-11.5714
▁적습니다	-11.5715
FROM	-11.5716
exp	-11.5716
헐	-11.5717
▁경이로움	-11.5717
팥	-11.5717
▁철저한	-11.5717
▁태양의	-11.5718
▁ESG	-11.5719
▁위험성	-11.572
▁뿌리를	-11.572
▁합병증은	-11.5721
▁교실	-11.5722
▁갈래	-11.5722
▁때보다	-11.5723
▁외관	-11.5723
▁이적	-11.5723
▁신속하고	-11.5724
마케팅	-11.5727
▁규칙은	-11.5728
비르	-11.5729
▁안정성과	-11.5729
▁테스트는	-11.573
▁중에도	-11.573
▁저렴	-11.5732
▁표기법	-11.5732
bucket	-11.5732
▁잃었	-11.5732
▁합리적	-11.5733
▁엽산	-11.5733
PORT	-11.5733
▁골밀도	-11.5733
포인트	-11.5733
▁벤처	-11.5733
세르	-11.5733
▁컴퓨팅은	-11.5735
▁He	-11.5735
전기	-11.5736
▁세우	-11.5736
FO	-11.5736
▁붙이	-11.5736
▁관여하는	-11.5737
칼슘	-11.5737
▁세울	-11.5738
▁염소	-11.574
▁고무	-11.5741
▁PR	-11.5741
▁여행자	-11.5741
▁만들어졌습니다	-11.5741
▁낫	-11.5742
▁탄력	-11.5743
seed	-11.5744
▁장미	-11.5745
▁자연과	-11.5746
lab	-11.5746
▁중소기업	-11.5747
▁머물	-11.5749
이었다	-11.5749
▁멈추	-11.5749
▁안압	-11.575
버트	-11.5754
▁유형으로	-11.5754
▁별명	-11.5755
▁보조금	-11.5755
레나	-11.5756
▁자원봉사	-11.5757
▁장소에	-11.5759
▁산증	-11.576
▁모양과	-11.5761
▁자전거를	-11.5761
▁provide	-11.5762
▁브레인스토밍	-11.5762
▁쌍둥이	-11.5762
▁철자	-11.5762
▁알려드리겠습니다	-11.5762
empty	-11.5762
▁극대화	-11.5764
▁얼	-11.5764
▁작용제	-11.5764
문학	-11.5765
▁증명을	-11.5767
▁temp	-11.5768
▁지키기	-11.5768
▁추가해야	-11.5768
▁섬의	-11.577
▁쓰인	-11.577
▁상대가	-11.5771
공유	-11.5771
▁구제	-11.5772
▁방법도	-11.5773
▁된다는	-11.5773
▁어려움이	-11.5775
▁암석	-11.5776
옵	-11.5776
▁좁혀	-11.5776
III	-11.5779
됐지	-11.5779
▁세션을	-11.578
▁수준으로	-11.5781
▁제공하므로	-11.5781
▁윈도우	-11.5783
fl	-11.5784
▁제거하여	-11.5784
▁없는지	-11.5784
▁아메리칸	-11.5785
▁추정됩니다	-11.5786
방법	-11.5786
니까	-11.5788
▁선택하기	-11.579
▁홍보하고	-11.5791
Pro	-11.5791
▁가속화	-11.5791
▁애자일	-11.5791
▁마라톤	-11.5792
▁따릅니다	-11.5792
▁있었기	-11.5792
▁발표된	-11.5794
▁번아웃	-11.5794
플로우	-11.5795
▁모두에	-11.5796
▁방정식은	-11.5797
urls	-11.5797
▁앞에서	-11.5798
▁줄입니다	-11.5798
▁시점은	-11.5799
▁동향을	-11.58
▁커질	-11.5801
▁중동	-11.5802
▁정부와	-11.5802
▁여신	-11.5803
▁재현	-11.5805
▁어지러움	-11.5806
sleep	-11.5806
▁불완전	-11.5806
Network	-11.5806
▁풀기	-11.5807
▁요즘	-11.5807
▁NBA	-11.5808
▁명확하지	-11.581
▁결합하는	-11.581
▁감정적	-11.5811
▁협의	-11.5813
▁폭포	-11.5813
interest	-11.5814
▁근처	-11.5814
▁미션	-11.5814
▁대우	-11.5815
▁뇌의	-11.5816
af	-11.5817
▁친구나	-11.582
아이디	-11.582
▁전위	-11.5822
▁간단히	-11.5822
▁온도와	-11.5823
로만	-11.5824
▁매달	-11.5827
▁촉진합니다	-11.5828
▁에스	-11.5828
▁응	-11.5828
▁체중을	-11.5831
시안	-11.5831
▁레이어를	-11.5831
▁염색	-11.5834
▁정상에	-11.5835
▁크리에이터	-11.5836
▁MongoDB	-11.5836
▁가속	-11.5836
▁스크롤	-11.5836
▁메시징	-11.5836
▁특이한	-11.5836
▁국제공항	-11.5837
▁know	-11.5837
▁왔으며	-11.5837
▁미팅	-11.5837
▁묶어	-11.5838
▁제시되지	-11.5839
▁이것을	-11.584
▁시험을	-11.584
HR	-11.5841
▁감독은	-11.5841
▁감상할	-11.5841
▁행사를	-11.5841
▁조현병	-11.5841
▁응원	-11.5843
▁파이프	-11.5843
▁호환	-11.5847
▁개별적으로	-11.5847
맺	-11.5847
▁아테네	-11.5851
Answer	-11.5851
▁이듬해	-11.5851
▁흔하다	-11.5852
AND	-11.5852
▁설치된	-11.5852
▁일반적으로는	-11.5853
▁보스턴	-11.5853
▁보이지만	-11.5853
▁"<	-11.5854
strong	-11.5854
▁최소한의	-11.5854
▁잠을	-11.5855
▁목격	-11.5855
▁저서	-11.5856
AG	-11.5856
왔습니다	-11.5856
▁정신과	-11.5857
직원	-11.5858
▁단백질이	-11.5858
▁많다	-11.5859
▁생태계에	-11.586
▁준비하세요	-11.5862
▁아름다움과	-11.5865
▁게이	-11.5865
▁있으신가요	-11.5866
▁프록시	-11.5866
▁호중구	-11.5866
▁유닛	-11.5867
하루	-11.5867
▁실질적인	-11.5869
fc	-11.587
bs	-11.5872
▁유효하지	-11.5872
▁시골	-11.5873
###	-11.5874
▁Inc	-11.5874
▁것이니	-11.5875
프레임	-11.5875
▁승인을	-11.5875
GE	-11.5875
▁제목과	-11.5877
▁기한	-11.5878
Connect	-11.5879
▁sklearn	-11.5879
addr	-11.588
줌	-11.5881
▁알루미늄	-11.5881
▁비수술적	-11.5881
▁돌봄	-11.5881
책임	-11.5882
▁대상을	-11.5882
시즌	-11.5883
▁head	-11.5883
▁계기가	-11.5883
change	-11.5883
▁고수	-11.5887
▁것들	-11.589
▁전력을	-11.589
++;	-11.589
▁브루	-11.5891
▁과음	-11.5894
▁대사성	-11.5894
switch	-11.5896
▁모서리	-11.5896
▁적합성	-11.5896
▁미사일	-11.5896
▁강직	-11.5897
어디	-11.5897
▁창립	-11.5897
▁post	-11.5898
▁제안해	-11.5898
▁제어하는	-11.5901
우린	-11.5903
▁기준과	-11.5903
▁정확성을	-11.5904
▁%}	-11.5904
▁방식의	-11.5906
▁발전으로	-11.5907
▁번성	-11.591
얹	-11.591
▁회복력	-11.591
▁스프링	-11.5911
▁공급을	-11.5911
(&	-11.5911
break	-11.5911
▁내용물	-11.5913
environment	-11.5913
▁환경이	-11.5918
▁높다는	-11.5919
▁힘들	-11.592
EV	-11.5921
▁여과	-11.5921
▁대상이다	-11.5922
▁랜딩	-11.5922
▁쿼리는	-11.5922
▁소유하고	-11.5923
▁기온이	-11.5924
▁평활근	-11.5926
▁살펴볼	-11.5926
▁방향과	-11.5926
▁거둔	-11.5927
예요	-11.5927
▁명시된	-11.5927
▁장애와	-11.5927
▁불꽃	-11.5927
▁함유되어	-11.5932
▁대략적인	-11.5932
▁증기	-11.5933
▁기지	-11.5934
▁통신을	-11.5935
▁margin	-11.5937
lead	-11.5937
▁바탕	-11.5939
▁가시성을	-11.594
▁format	-11.594
▁대회는	-11.594
▁수정하고	-11.594
▁받아들여	-11.5941
▁편두통	-11.5941
FILE	-11.5941
▁양상과	-11.5941
▁extends	-11.5941
▁증가하여	-11.5943
▁보트	-11.5943
styles	-11.5943
▁남용	-11.5944
▁수술은	-11.5945
command	-11.5945
eet	-11.5949
▁합성을	-11.5949
▁java	-11.595
▁주말	-11.5951
▁중요하다고	-11.5951
▁fill	-11.5952
▁함수에서	-11.5952
▁유도하고	-11.5953
주요	-11.5953
▁꽃이	-11.5953
▁방금	-11.5953
▁스크립트에서	-11.5953
▁변경하는	-11.5953
▁귀를	-11.5955
▁많기	-11.5956
▁가져다	-11.5958
▁레이아웃을	-11.5959
▁between	-11.596
초음파	-11.5961
가족	-11.5961
▁효과적이고	-11.5962
▁필요를	-11.5963
쿠스	-11.5964
▁Be	-11.5966
dx	-11.5967
▁밀도가	-11.5968
▁기술적인	-11.5968
MM	-11.5968
Location	-11.5971
▁세라믹	-11.5971
Mo	-11.5971
▁생존을	-11.5972
묶	-11.5973
generate	-11.5974
▁드릴게요	-11.5975
▁유해한	-11.5977
PG	-11.5977
▁DC	-11.5978
▁일치하는지	-11.5979
▁물어보고	-11.598
▁분류기	-11.598
▁트럭	-11.5982
▁작업과	-11.5984
▁씻	-11.5984
Gen	-11.5984
unc	-11.5984
팽	-11.5985
▁니코틴	-11.5985
▁뉴스레터	-11.5986
▁유나이티드	-11.5986
▁항레트로바이러스	-11.5986
▁악화를	-11.5986
│	-11.5988
▁태어났는지를	-11.599
▁포크	-11.5991
▁삶은	-11.5992
▁따뜻하고	-11.5992
pair	-11.5993
▁Br	-11.5995
▁이후로	-11.5997
▁활동하는	-11.5998
리브	-11.5999
▁강이	-11.5999
▁게이트웨이	-11.6001
▁미디어는	-11.6003
▁늘려	-11.6003
high	-11.6007
느냐	-11.6007
▁제안한	-11.6009
▁참조하세요	-11.601
▁중성	-11.601
▁임기	-11.6013
▁사지	-11.6013
▁골드	-11.6014
▁금요일	-11.6015
GROUP	-11.6016
axios	-11.6016
▁튜플	-11.6016
btn	-11.6016
▁형성을	-11.6017
▁워드	-11.6017
▁담겨	-11.6017
▁들여	-11.6018
▁알아볼	-11.6018
홈	-11.6018
▁독자들에게	-11.6019
▁매칭	-11.6019
▁애정	-11.6023
]#	-11.6023
▁학생에게	-11.6023
▁세포가	-11.6024
▁사람입니다	-11.6025
진행	-11.6025
▁신전	-11.6026
▁쉽지	-11.6028
▁명확성	-11.6029
투자	-11.6029
▁방해할	-11.6029
었다는	-11.6029
▁뜻합니다	-11.603
▁통상	-11.603
▁경제의	-11.603
▁AC	-11.6032
▁표현하기	-11.6032
▁이후에는	-11.6033
▁만남	-11.6034
▁이해하지	-11.6035
▁행동으로	-11.6035
응답	-11.6035
▁밀어	-11.6036
none	-11.6037
학습	-11.6039
▁정확성과	-11.6039
="[	-11.604
▁III	-11.604
▁적응증이	-11.6041
▁소개하는	-11.6042
NI	-11.6043
▁레이스	-11.6043
▁입력에	-11.6043
lt	-11.6045
▁프론트엔드	-11.6047
론은	-11.6047
완료	-11.6048
▁치르	-11.6048
Route	-11.6049
▁맡았습니다	-11.6049
▁대조군	-11.605
마비	-11.6051
uk	-11.6052
▁계시니	-11.6052
▁의사결정을	-11.6053
▁브랜드가	-11.6054
▁구동	-11.6054
▁$\	-11.6054
▁보편적	-11.6054
▁프로그램입니다	-11.6055
▁axis	-11.6056
▁ISO	-11.6057
스텔	-11.6057
▁거리에	-11.6058
▁실수로	-11.6058
contact	-11.6062
▁보라색	-11.6062
directory	-11.6062
follow	-11.6062
▁학문적	-11.6062
▁무덤	-11.6063
▁맡았던	-11.6064
▁간섭	-11.6065
▁자본주의	-11.6066
▁사회주의	-11.6069
▁지점을	-11.6069
▁하나만	-11.607
▁지혈	-11.607
▁전달하기	-11.6072
모양	-11.6073
merge	-11.6073
▁과일과	-11.6073
덤	-11.6075
길이	-11.6076
reset	-11.6077
▁Instagram	-11.6077
▁셋	-11.6077
▁전쟁은	-11.6078
단백	-11.6081
▁소식	-11.6083
삼출	-11.6085
▁폐암	-11.6086
▁승진	-11.6086
▁게이트	-11.6086
확인	-11.6087
▁계약은	-11.6088
▁소통을	-11.6089
롭고	-11.6089
▁불편을	-11.6089
▁useEffect	-11.6092
▁비즈니스가	-11.6092
▁웃음	-11.6092
▁큽니다	-11.6092
Notification	-11.6093
▁개는	-11.6093
▁상대로	-11.6093
▁일회용	-11.6093
▁하버드	-11.6094
▁컬	-11.6094
▁장르의	-11.6095
▁환각	-11.6096
생성	-11.6097
▁보이게	-11.6098
태그	-11.6098
▁인구의	-11.6098
했죠	-11.6099
▁우려를	-11.6099
▁구현하고	-11.6101
스팅	-11.6103
▁확산을	-11.6106
라이드	-11.6106
▁전송할	-11.6106
Last	-11.6107
가루	-11.6107
▁피라미드	-11.6108
확장	-11.6108
▁타깃	-11.6108
▁계곡	-11.6109
클라	-11.611
:</	-11.6111
▁과정과	-11.6114
즘	-11.6114
▁평판	-11.6114
참조	-11.6116
▁받아들이고	-11.6117
▁발달에	-11.6119
▁공인	-11.612
▁예외가	-11.6121
▁`@	-11.6122
▁예술적	-11.6122
▁던지	-11.6123
Description	-11.6123
▁ADHD	-11.6123
▁받았으며	-11.6125
▁중첩	-11.6125
channels	-11.6126
Login	-11.6128
pen	-11.6132
▁소식을	-11.6132
▁디렉터리를	-11.6134
▁접근이	-11.6135
▁소프트웨어의	-11.6137
▁나이를	-11.6138
▁적응할	-11.6138
▁날카로운	-11.6138
찜	-11.6138
π	-11.6138
▁가뭄	-11.6138
▁않았	-11.6139
카이	-11.614
▁풍미를	-11.6141
▁경기가	-11.6141
▁see	-11.6141
조치	-11.6141
▁사형	-11.6142
▁스스로를	-11.6145
▁기관에서	-11.6145
이었으며	-11.6146
area	-11.6146
디지털	-11.6146
가지를	-11.6146
▁세로	-11.6147
▁핵심적인	-11.6148
En	-11.6148
▁참석자	-11.615
▁말한	-11.6151
▁단체의	-11.6151
▁간호	-11.6152
PD	-11.6153
▁{{	-11.6153
▁프로그래머	-11.6154
related	-11.6154
▁연쇄	-11.6155
raise	-11.6155
식물	-11.6155
▁생산과	-11.6155
reader	-11.6156
▁전환율	-11.6156
▁보았	-11.6157
▁원인균	-11.6158
▁추가했습니다	-11.6159
▁기어	-11.616
▁암살	-11.616
생물	-11.6161
▁평화를	-11.6161
▁설명해야	-11.6162
AE	-11.6165
▁담즙	-11.6165
▁때부터	-11.6167
▁Test	-11.6167
▁것일	-11.6167
ale	-11.6167
▁항목의	-11.6169
▁달이	-11.6169
Instance	-11.6169
Version	-11.6169
▁including	-11.6169
▁캡션	-11.6169
들입니다	-11.617
▁대표적으로	-11.617
▁도구의	-11.617
특정	-11.617
▁발자국을	-11.6172
details	-11.6173
▁맥락을	-11.6174
cost	-11.6174
▁아이템을	-11.6174
철도	-11.6175
▁중심부	-11.6175
▁척	-11.6177
▁평가한	-11.6177
▁세계로	-11.6177
▁소설은	-11.6178
진이	-11.6179
▁상기	-11.6179
complete	-11.618
▁쓰던	-11.618
▁출혈과	-11.618
▁환상	-11.6182
▁이어졌습니다	-11.6184
▁HR	-11.6184
▁마켓플레이스	-11.6184
▁마이크로소프트	-11.6184
▁높게	-11.6185
iloc	-11.6186
▁사각형	-11.6187
▁차지한	-11.6188
마이신	-11.6188
ong	-11.6189
▁안정적이고	-11.6189
▁입력하고	-11.619
▁구조로	-11.6191
▁아이디어입니다	-11.6192
▁불편감	-11.6193
DP	-11.6194
▁경관	-11.6194
▁change	-11.6195
▁가능성도	-11.6195
▁성취감을	-11.6195
▁부모는	-11.6197
▁이름입니다	-11.6199
스파	-11.62
▁크리켓	-11.62
▁평화로운	-11.62
▁않는다고	-11.62
▁플랫폼과	-11.6202
▁주에서	-11.6202
▁키트	-11.6203
▁수명을	-11.6204
▁삽관	-11.6206
inter	-11.6206
Meta	-11.6206
▁상승과	-11.6207
너스	-11.6207
▁찾은	-11.6209
사이트	-11.621
▁말입니다	-11.6211
ita	-11.6211
▁성장률	-11.6211
▁comp	-11.6213
▁충격을	-11.6214
▁비주얼	-11.6215
▁프라이버시	-11.6215
▁높으며	-11.6215
▁밝고	-11.6216
▁받는다	-11.6218
스럽고	-11.6218
▁가죽	-11.6218
%'	-11.622
▁고기를	-11.6223
이라도	-11.6224
▁할애	-11.6225
▁요한	-11.6225
▁통찰력	-11.6227
▁퀘스트	-11.6227
lot	-11.6227
▁시설이	-11.6228
=['	-11.6228
▁충족하는지	-11.6231
▁English	-11.6231
▁would	-11.6231
▁요거트	-11.6231
DATA	-11.6231
플리	-11.6232
▁저용량	-11.6232
createElement	-11.6232
▁불이	-11.6234
▁발견되었다	-11.6234
▁하나님의	-11.6236
▁투여한다	-11.6237
▁아닐	-11.6237
▁안으로	-11.6237
Pre	-11.6239
▁생기고	-11.624
▁자동차를	-11.624
장기	-11.6241
페르	-11.6243
▁계획입니다	-11.6244
▁플래그	-11.6245
Child	-11.6246
Section	-11.6246
▁나란히	-11.6246
Output	-11.6246
▁암시	-11.6248
city	-11.6248
▁곧바로	-11.6248
▁창설	-11.625
▁상황은	-11.625
math	-11.6251
clean	-11.6251
▁규칙적으로	-11.6255
▁원인에	-11.6255
▁아무도	-11.6255
▁일입니다	-11.6256
이었어요	-11.6256
▁마음이	-11.6257
cent	-11.6257
▁손해	-11.6257
▁마을을	-11.6258
아제	-11.626
▁증가시키는	-11.626
▁마운트	-11.6262
▁드러나	-11.6262
▁버전으로	-11.6263
하시기	-11.6266
▁수여	-11.6267
▁보관할	-11.6267
▁에지	-11.6267
▁파생	-11.6268
TM	-11.627
▁지키는	-11.627
actions	-11.6271
Conv	-11.6273
▁종합하면	-11.6274
World	-11.6274
▁배웠습니다	-11.6275
▁당일	-11.6275
▁얻게	-11.6277
▁selected	-11.6278
세포의	-11.6279
▁관리해야	-11.628
▁생성기	-11.628
가르	-11.628
▁속합니다	-11.6281
▁기억이	-11.6282
lm	-11.6282
▁일시	-11.6283
▁떠났	-11.6283
▁전달되는	-11.6285
Mode	-11.6285
저장	-11.6288
DF	-11.6289
▁파일과	-11.6289
▁st	-11.6289
▁탈장	-11.629
Di	-11.6291
시마	-11.6291
▁결정했습니다	-11.6291
자원	-11.6291
actual	-11.6291
겹	-11.6292
⁄	-11.6293
▁커피를	-11.6294
▁사망률을	-11.6295
▁진실을	-11.6296
▁망원경	-11.6298
ole	-11.6298
▁복무	-11.6298
▁저장하기	-11.6299
▁나타내고	-11.6299
yo	-11.6299
▁파동	-11.63
▁주의하세요	-11.63
▁공고	-11.6301
▁창의력을	-11.6301
여러분	-11.6302
다음으로	-11.6302
▁일반적입니다	-11.6304
validation	-11.6304
▁환율	-11.6305
▁face	-11.6306
▁멀	-11.6306
▁이동을	-11.6307
Profile	-11.6307
▁열정과	-11.6308
▁노력했습니다	-11.6308
Property	-11.6309
▁힌두교	-11.6309
ified	-11.6309
▁포맷	-11.6309
▁임대료	-11.631
▁오퍼	-11.6311
들어	-11.6311
▁감정이	-11.6312
▁리프	-11.6313
istic	-11.6313
mal	-11.6315
쿼	-11.6316
월까지	-11.6316
▁역사에서	-11.6316
▁났	-11.6317
▁지표는	-11.6317
▁백내장	-11.6317
▁플래시	-11.632
▁부를	-11.632
▁sign	-11.6322
Media	-11.6324
▁항균	-11.6324
Graph	-11.6324
INSERT	-11.6324
▁돼지고기	-11.6324
▁국가에	-11.6325
연관	-11.6326
▁시계열	-11.6326
▁오공은	-11.6327
▁send	-11.6327
invoice	-11.6327
▁NA	-11.6328
▁개척	-11.6329
▁RT	-11.6329
Doc	-11.633
▁명문	-11.6331
명과	-11.6331
▁올림픽에서	-11.6333
Var	-11.6334
▁집합에	-11.6334
▁생년월일	-11.6335
▁신학	-11.6335
Host	-11.6336
▁고도로	-11.6336
▁유래한	-11.6336
▁관해	-11.6337
▁스케줄	-11.6337
▁요관	-11.6339
▁옥수수	-11.634
exist	-11.6341
OT	-11.6342
▁전통을	-11.6343
▁음식의	-11.6343
치기	-11.6345
블로	-11.6347
▁사건과	-11.6347
▁관건	-11.6348
▁취약한	-11.6351
▁마커	-11.6352
소득	-11.6354
▁투자하는	-11.6354
▁그룹으로	-11.6355
▁자바	-11.6355
팬	-11.6355
▁다이아몬드	-11.6355
▁내각	-11.6356
Icon	-11.6358
▁DNS	-11.6359
▁배출량을	-11.6359
setting	-11.6359
▁퍼지	-11.636
▁HD	-11.636
▁Image	-11.6366
셜	-11.6367
▁워크플로우	-11.6367
▁group	-11.6368
LSTM	-11.6371
▁웹사이트나	-11.6372
계에	-11.6375
▁함수와	-11.6377
▁도입하여	-11.6377
▁상표	-11.6377
▁환원	-11.6378
▁구분해서	-11.6378
▁로스	-11.6378
▁메시지와	-11.6379
▁하지요	-11.6379
▁services	-11.6381
▁얻어	-11.6383
▁통과하는	-11.6384
럭	-11.6384
▁초반	-11.6384
▁염분	-11.6384
▁공정성	-11.6385
▁앨범을	-11.6386
▁배열로	-11.6386
▁맥스	-11.6387
▁네이버	-11.6387
▁것이므로	-11.6388
▁관심사와	-11.6389
▁휴대용	-11.6389
▁관찰되었고	-11.639
▁연애	-11.639
▁position	-11.639
인들은	-11.6391
▁well	-11.6391
▁노력하세요	-11.6392
Hz	-11.6392
Format	-11.6393
식품	-11.6394
▁카메라를	-11.6394
lan	-11.6394
▁내린	-11.6394
▁자율성	-11.6394
▁보건복지부장관	-11.6395
▁제재	-11.6396
▁수증기	-11.6399
▁흐르	-11.64
exchange	-11.64
업무	-11.6401
▁삼각형의	-11.6403
▁끝났	-11.6405
▁Do	-11.6405
▁증발	-11.6406
ory	-11.6406
▁POST	-11.6407
▁인형	-11.6407
pg	-11.6407
▁작업자	-11.6408
▁구현하여	-11.6408
▁연도는	-11.6408
▁제외합니다	-11.6409
{%	-11.6411
▁선택한다	-11.6413
저희	-11.6413
▁않아요	-11.6414
▁Na	-11.6415
▁없	-11.6415
▁광학	-11.6418
▁장단점	-11.6418
▁농산물	-11.6418
사관	-11.6419
scope	-11.6419
▁func	-11.642
▁인적	-11.6423
서울	-11.6424
▁우리나라에서	-11.6424
han	-11.6425
topics	-11.6425
met	-11.6425
ality	-11.6428
▁피치	-11.6431
course	-11.6434
▁로열티	-11.6434
▁바인딩	-11.6434
▁밖에서	-11.6434
▁아몬드	-11.6435
▁최종적으로	-11.6436
▁border	-11.6436
▁미치며	-11.6436
PH	-11.6436
드리고	-11.6437
▁로즈	-11.6437
▁컴퓨터에	-11.6439
▁반점	-11.6439
퍼센트	-11.644
▁개미	-11.6444
IU	-11.6444
▁직책에	-11.6445
gra	-11.6446
▁대기업	-11.6447
▁정중	-11.645
▁내러티브	-11.645
VALUE	-11.645
▁에어컨	-11.645
validate	-11.6451
▁강력	-11.6451
▁몽골	-11.6451
▁Service	-11.6451
▁제작하는	-11.6451
▁패딩	-11.6452
▁내면	-11.6452
▁소피아	-11.6452
▁다르며	-11.6452
▁걸친	-11.6454
country	-11.6454
▁남극	-11.6455
베이스	-11.6455
sequence	-11.6459
▁백제	-11.6459
▁호흡곤란과	-11.646
ja	-11.646
▁동원	-11.6464
▁백신을	-11.6465
▁전자상거래	-11.6466
그들은	-11.6466
▁준수하는	-11.6466
몸	-11.6468
▁만난	-11.6469
▁판단을	-11.6469
▁녹아	-11.647
food	-11.6471
▁저주	-11.6471
▁맞추	-11.6472
▁해킹	-11.6474
.###	-11.6475
Run	-11.6477
▁갑	-11.6478
▁피터	-11.6479
검정	-11.6482
good	-11.6482
Stack	-11.6484
▁Mac	-11.6485
▁끌고	-11.6485
▁많았	-11.6486
▁디자인의	-11.6486
▁뇌하수체	-11.6487
▁기관과	-11.6488
BO	-11.6489
▁존재가	-11.6489
▁소유자는	-11.6491
▁전쟁을	-11.6492
▁인용해야	-11.6494
▁감소에	-11.6495
▁위치로	-11.6495
ible	-11.6496
▁비약물적	-11.6497
▁Salesforce	-11.6498
▁견딜	-11.6498
operation	-11.6499
▁바라보며	-11.6499
▁방문객	-11.6499
mailto	-11.6499
▁듀	-11.6499
▁기둥	-11.65
▁받으며	-11.65
▁소프트웨어가	-11.6501
▁규칙이	-11.6502
Options	-11.6506
섹션	-11.6506
includes	-11.6507
utf	-11.651
▁자유와	-11.651
신경병증	-11.651
렵	-11.6512
▁지으며	-11.6513
▁칵테일	-11.6514
▁활력징후	-11.6514
▁조영제	-11.6514
▁챔피언십	-11.6514
plugin	-11.6514
▁So	-11.6514
▁참여자	-11.6515
ey	-11.6515
▁친절하고	-11.6515
단백질	-11.6516
▁pandas	-11.6517
▁품질이	-11.6517
▁오크	-11.6517
▁해요	-11.6519
▁위산	-11.652
Tag	-11.6521
▁동반질환	-11.6521
▁기술로	-11.6523
▁대구	-11.6523
▁공유해	-11.6523
▁원자력	-11.6525
▁수준과	-11.6527
▁후두	-11.6527
▁로봇이	-11.6527
▁take	-11.6528
했음을	-11.6529
그래서	-11.6529
▁용적	-11.653
Me	-11.6531
▁만날	-11.6531
최고	-11.6532
▁높이가	-11.6532
위생	-11.6533
▁Set	-11.6535
함이	-11.6538
▁구멍	-11.6539
(\	-11.6539
Jo	-11.654
▁시사하는	-11.654
▁신성한	-11.6541
▁노출이	-11.6542
▁인디	-11.6542
torch	-11.6543
▁내려가	-11.6545
ros	-11.6545
두세요	-11.6545
▁무장	-11.6545
▁이더리움	-11.6546
scene	-11.6546
▁페이지가	-11.6546
▁스테이크	-11.6546
▁기다리는	-11.6546
▁맺은	-11.6548
▁줄거리	-11.6549
▁완료된	-11.6549
▁느끼지	-11.655
▁케어	-11.6553
▁우편	-11.6553
시간이	-11.6553
▁교훈을	-11.6555
▁않았다는	-11.6555
▁헤모글로빈	-11.6559
▁건국	-11.6559
▁전문가에게	-11.6559
▁성격과	-11.6559
▁목성	-11.656
▁정렬합니다	-11.6562
shift	-11.6562
appendChild	-11.6562
conv	-11.6562
▁Ho	-11.6563
payment	-11.6564
▁배정	-11.6564
edge	-11.6564
▁선수들이	-11.6564
검사를	-11.6564
▁처한	-11.6565
tle	-11.6565
del	-11.6567
밴	-11.6567
헤드	-11.6569
ALL	-11.657
▁따르고	-11.6571
TT	-11.6571
▁현장에서	-11.6572
▁업데이트하여	-11.6573
URI	-11.6573
▁다르기	-11.6574
▁계획의	-11.6575
▁통증은	-11.6575
▁호흡곤란을	-11.6575
▁커리큘럼	-11.6578
▁자존감	-11.6578
Template	-11.6578
First	-11.6578
▁객실	-11.6578
자산	-11.6578
▁돌아오	-11.6579
▁겪었	-11.6579
▁해석할	-11.6582
quest	-11.6582
rule	-11.6584
Inter	-11.6584
teams	-11.6585
듯	-11.6585
▁국민의	-11.6585
▁최적화된	-11.6587
")#	-11.6588
▁생각하며	-11.6588
▁대선	-11.6589
▁개체를	-11.6589
itch	-11.6591
▁앨범은	-11.6592
duration	-11.6594
▁스트리트	-11.6594
▁긍정	-11.6595
▁해로운	-11.6597
▁에너지로	-11.6597
물은	-11.6598
▁바뀌었	-11.6599
emp	-11.6599
▁테스트하여	-11.6599
▁Pre	-11.66
▁접근하는	-11.6601
▁프레임에	-11.6601
▁기능성	-11.6604
▁견적	-11.6604
▁기업을	-11.6605
▁이어졌	-11.6606
▁결성	-11.6607
▁평균을	-11.6607
고양이	-11.6608
Python	-11.6608
▁경험하는	-11.6609
▁신경근	-11.6609
▁무조건	-11.6611
▁익명	-11.6613
▁엘리자베스	-11.6613
▁일으키고	-11.6614
▁기호를	-11.6614
▁폐기물을	-11.6614
▁국가들	-11.6614
numpy	-11.6614
▁감염으로	-11.6615
▁자격증	-11.6617
▁웰빙	-11.6617
▁기대되는	-11.6618
("\	-11.6619
▁지냈	-11.6619
▁진심으로	-11.6622
마트	-11.6623
▁일부입니다	-11.6623
▁예약을	-11.6625
▁throw	-11.6626
▁열렸습니다	-11.6626
▁웨비나	-11.6626
bind	-11.6626
▁해결에	-11.6628
▁대학은	-11.6628
▁노르	-11.6629
▁텍스트에서	-11.663
당은	-11.6631
▁페널티킥	-11.6632
under	-11.6632
▁비난	-11.6634
스틴	-11.6636
fmt	-11.6637
제곱	-11.6638
[...]
